#version: 0.2
a n
t h
e r
i n
e n
a r
c o
e s
th e</w>
d e</w>
o r
a l
r e
t i
t e
a s</w>
o n
a d
r o
i s
i t
o f</w>
i c
a m
e l
a s
i n</w>
u n
t r
i s</w>
o s</w>
= =
an d</w>
d e
t o</w>
s e
q u
i l
d o</w>
a t
o n</w>
p o
c i
e s</w>
r i
a l</w>
c h
l e
u r
en t
1 9
co n
m a
e m</w>
ã o</w>
d i
e r</w>
u l
e d</w>
u m
f o
co m
p ar
in g</w>
d a</w>
l i
a c
u s
l o
t o
a n</w>
i r
s i
2 0
s t
s o
u m</w>
t er
s u
a p
e m
a ti
a b
n o
es t
a g
a v
a ,</w>
p ro
v er
h o
m o
p e
m e
f or
qu e</w>
a t</w>
a r</w>
v i
um a</w>
p r
p er
ad o</w>
20 0
d o
n o</w>
w as</w>
e x
g r
b r
a ç
te d</w>
s ,</w>
o l
i g
d a
n e
b e
p l
o u
s .</w>
w h
a m</w>
i a</w>
is t
a .</w>
in g
s e</w>
l y</w>
n a</w>
par a</w>
c e
o r</w>
m ar
c l
m an
co m</w>
i m
b y</w>
e n</w>
ent e</w>
g u
an t
b o
d u
fo r</w>
fo i</w>
te r</w>
s h
ad a</w>
w it
d es
f r
o u</w>
i d
g i
wit h</w>
an d
a u
en t</w>
p or
f e
o ,</w>
co r
l e</w>
e ,</w>
' s</w>
al i
= =</w>
po r</w>
c e</w>
com o</w>
aç ão</w>
d is
j o
d er
i t</w>
v e
b u
b er
" ,</w>
r es
te m
un i
19 9
a f
te s</w>
v e</w>
ti c
er e</w>
1 8
m in
== =
u s</w>
h e
f er
y ,</w>
es .</w>
th at</w>
g o
c ar
th e
d os</w>
) ,</w>
t a
s o</w>
s t</w>
p i
ati on
h e</w>
t u
f ro
f ic
õ es</w>
pr es
m e</w>
t ro
p a
t e</w>
ati on</w>
h is</w>
fro m</w>
n i
p h
c es
c en
e .</w>
c r
p ri
l a
s er
f il
) .</w>
t h</w>
m i
ç ão</w>
l u
w e
it y</w>
da de</w>
p el
t ur
t or
a y
es ,</w>
n or
) *</w>
" .</w>
ti on</w>
a i
20 1
tr i
c h</w>
m en
* "
ti on
w or
o .</w>
e t
b i
m on
f i
t am
p u
t en
h a
s on
e c
19 8
an do</w>
lo c
su a</w>
ad os</w>
for m
p re
n ci
m or
co l
e d
g en
b l
m un
ar e</w>
in ter
f am
at e</w>
c as
b er</w>
e v
s tr
p ul
f in
as s
am er
an g
fr an
l in
ma is</w>
m u
ic h</w>
s ão</w>
y .</w>
cl u
h a</w>
o s
e ar
a z
it o</w>
amer ic
c am
se u</w>
th er</w>
c an
g e
o p
no v
w ar
d en
b e</w>
de r</w>
b or
ic a</w>
m il
a in
ir o</w>
a k
el e</w>
t a</w>
w n</w>
c re
a o</w>
an o</w>
g h
19 7
d as</w>
on e</w>
v ol
é m</w>
a ted</w>
al l</w>
l an
w ere</w>
v is
g er
o c
i r</w>
d r
es t</w>
u p
ar i
e l</w>
i p
wh ich</w>
á ri
f ir
ar y</w>
d ur
h as</w>
v er</w>
po pul
s pe
t in
t s</w>
p an
m ente</w>
ali z
c ul
c ri
h o</w>
th er
co un
al l
v en
c a
h ar
c er
b as
ant e</w>
v el
s te
c ap
aç ões</w>
de d</w>
h av
ê nci
a is</w>
p en
pro du
po l
1 0
ig h
re gi
po s
g re
m er
en to</w>
n ão</w>
" the</w>
) *
il l
al ly</w>
h i
o f
s ch
or i
as ,</w>
b ro
w o
g un
d ing</w>
19 6
ma n</w>
d ,</w>
tam b
ir a</w>
h ist
th is</w>
s en
it s</w>
u c
pri me
te ,</w>
g o</w>
al so</w>
s y
in clu
re d</w>
fir st</w>
an i
ag e</w>
d .</w>
m as</w>
k e</w>
tamb ém</w>
ci on
t ,</w>
ic al</w>
m o</w>
r a
b ar
er a</w>
t an
n a
m us
j un
== ==
ne w</w>
1 7
se r</w>
- se</w>
br o</w>
c u
ha d</w>
w i
e u
el l
s ti
g e</w>
c al
n am
t w
f u
l on
pr in
an s
p on
m ent
con tr
ter n
su b
l is
re fer
se d</w>
g ro
h er</w>
ou t</w>
m ent</w>
ti v
tr e</w>
m em
o b
0 ,</w>
d s</w>
h er
lo w
ch ar
ic o</w>
c ur
ó ri
m es
bu t</w>
ver s
p le
m at
al ,</w>
b an
al mente</w>
lo g
f un
ch am
s a
wh o</w>
le d</w>
s el
di re
k e
o t
re l
ac k
w il
i c</w>
no t</w>
so u
spe ci
ist a</w>
pro v
b ri
b ur
as .</w>
h ab
par ti
b el
l and
i o</w>
g ar
af ter</w>
ati v
so ci
m is
s p
s ho
it e</w>
er ,</w>
on ,</w>
in e</w>
m a</w>
t re
the ir</w>
( 200
n ation
f a
am ente</w>
m ic
en g
fam il
f l
wor l
or es</w>
tr o</w>
s k
19 5
a "</w>
at ur
pel a</w>
== *</w>
o ther</w>
19 4
c a</w>
s ing
to r</w>
m el
f re
s on</w>
ad as</w>
j ul
c ent
pl ay
li g
er s</w>
1 5
r a</w>
a ch
ex tern
mun ic
is ,</w>
ci dade</w>
un d</w>
uni ted</w>
d ic
k no
0 0
j e
i v
at u
u g
jo h
s in
t .</w>
1 6
as t</w>
w r
1 ,</w>
d el
j an
e g
a y</w>
li a</w>
pel o</w>
est e</w>
l l
p al
est ado</w>
c k
a d</w>
al b
or ig
di a</w>
go ver
r ic
t y</w>
e p
loc aliz
en tre</w>
fic i
c o</w>
ac k</w>
( "
ac e</w>
dis tr
el a</w>
se gun
in a</w>
j u
o m
19 3
hav e</w>
é ri
sh e</w>
) *"
co s</w>
ig n
g am
ad or</w>
v o
an ti
the y</w>
s ur
gr an
tr ans
i ,</w>
2 ,</w>
ul d</w>
al .</w>
si on
pu bl
us e</w>
ênci a</w>
i ro
u p</w>
de s</w>
ã o,</w>
ou s</w>
ic i
ser v
hab it
w n
s is
th re
. .
v al
e t</w>
es e</w>
m al
con he
min is
k ing</w>
for am</w>
y ear
de par
o s,</w>
com un
4 ,</w>
tw o</w>
av a</w>
l ar
x i
ç a</w>
re cor
se gu
th ere</w>
as ter
n os</w>
b at
l a</w>
il i
es p
t ing</w>
th o
ar e
ê s</w>
fam í
po si
3 ,</w>
e iro</w>
te .</w>
ar am</w>
â n
or y</w>
s "</w>
( 199
st u
á l
nation al</w>
b re
d ado</w>
re le
d ad
br e</w>
o k
e "</w>
ma i
ad i
r u
h el
eu ro
ai x
a us
gr af
r en
mo st</w>
or g
be en</w>
sh i
orig in
ma g
d an
6 ,</w>
p o</w>
ch r
d on
c ity</w>
bor n</w>
l es
per i
in to</w>
wh en</w>
e qu
be t
dur ante</w>
se us</w>
te m</w>
* *
n er
l es</w>
en ti
is h
p es
t y
sti tu
ac e
gr ap
fo l
s ul
an os</w>
er i
f es
lan ç
rele as
an a</w>
se s</w>
t al</w>
conhe ci
americ ano</w>
regi ão</w>
famí lia</w>
h y
re g
el e
ve l</w>
é r
b a
en ce</w>
gen er
re ce
r us
pl e</w>
i d</w>
worl d</w>
c ed</w>
es ti
an tes</w>
t os</w>
ho l
s am
o s.</w>
qu ando</w>
u r</w>
p ic
st a
m ul
c in
qu e
ç ões</w>
dur ing</w>
" )</w>
on g</w>
ab le</w>
kno wn</w>
ti c</w>
19 2
c le
1 2
s al
d in
t le</w>
k m
w in
em ber</w>
8 ,</w>
t on</w>
so bre</w>
st ar
k o
5 ,</w>
e f
t ar
uni vers
ser i
n um
as si
é ci
so l
ó s</w>
9 ,</w>
s a</w>
1 3
refer en
t on
j ap
di o</w>
ã o.</w>
gh t</w>
ma y</w>
f ac
mor e</w>
l and</w>
de po
de c
prin ci
ti me</w>
pl an
li v
ál b
o per
si on</w>
7 ,</w>
in o</w>
m it
o d</w>
ic e</w>
is t</w>
1 4
jo g
us t</w>
c es</w>
v il
te n</w>
l it
h u
u ary</w>
in di
americ an</w>
s co
au g
men to</w>
ch i
com ple
ú s
at é</w>
de mo
it a</w>
a w
i z
it os</w>
" *</w>
í ci
po de</w>
y o
re s</w>
am ento</w>
ver y</w>
st at
le f
ri l</w>
vis i
to ,</w>
cen tr
con tin
si g
7 .</w>
po st
c ro
ab out</w>
p e</w>
il e</w>
ap ós</w>
== =</w>
lig ações</w>
er .</w>
ar ti
c an</w>
joh n</w>
es tr
tic a</w>
b li
* *</w>
qu i
ta in
ce .</w>
í n
tri bu
ar m
for ma
n as
el l</w>
th ro
ã o
i i
segun do</w>
r e</w>
k s</w>
in f
es pe
le ,</w>
te l
r y</w>
ab al
te -
on ly</w>
pres id
st ate</w>
popul ação</w>
19 0
" *"
we en</w>
c tion</w>
k ,</w>
ation s</w>
b n</w>
por t
1 .</w>
z i
n es
an t</w>
m é
v ari
p er</w>
con dado</w>
or a</w>
localiz ada</w>
is .</w>
cam e</w>
minis tr
bet ween</w>
b en
so me</w>
m .</w>
pro gr
gu er
con si
ent s</w>
un d
o d
an ,</w>
tr abal
e -
munic ip
p as
ma in
com pan
m ,</w>
is h</w>
se con
tion s</w>
ag u
it al</w>
com e
tro s</w>
b ol
se p
le r</w>
di f
wo uld</w>
o k</w>
in do</w>
b al
ar d</w>
0 .</w>
fil m</w>
con tro
prime iro</w>
d av
wh ere</w>
th an</w>
l at
í s
c k</w>
dire c
. ,</w>
j ec
v oc
h en
em bro</w>
form ul
consi der
par te</w>
f ri
ti m
ho u
t t
prime ira</w>
an n
m as
s us
publ ic
depo is</w>
t al
el ec
p lo
b le
fol low
ç o</w>
ad ministr
al em
id ad
su ch</w>
graf ia</w>
par t</w>
v ic
na cion
ing ,</w>
ce u</w>
referen ces
g h</w>
man y</w>
res ul
ac h</w>
igh t</w>
pi on
h am
s ci
u sed</w>
is bn</w>
4 .</w>
a war
est a</w>
: :
esp éci
an to</w>
do is</w>
p ap
n ed</w>
ter r
n as</w>
f al
famil y</w>
gran de</w>
a tr
ph y
l y
or ,</w>
te le
an s</w>
ó r
el es</w>
con str
j am
k i
extern as</w>
on de</w>
en vol
shi p</w>
n ic
c y
1 0</w>
b ul
gover n
o ver</w>
2 .</w>
y or
a -
per son
ári o</w>
ag em</w>
g ol
j a</w>
th ou
pres ent
0 -
ti s
comun a</w>
de pen
est á</w>
ces s
óri a</w>
un der</w>
releas ed</w>
si m
( 198
gr av
wr it
te x
com mun
b aix
ti ve</w>
to wn</w>
contin u
as h
vi e
o v
popul ation</w>
co ,</w>
w al
in v
b il
álb um</w>
h or
8 .</w>
g al
c .</w>
in d
m ad
ch il
su as</w>
18 9
it ali
a ir
me di
br as
c it
g a</w>
ativ a</w>
ep is
== *
ce ,</w>
k s
thro ug
fin al</w>
de m</w>
ro man
am ent
ver ,</w>
an ce</w>
du c
o log
ch in
it u
t y,</w>
est ados</w>
y "</w>
n atur
i x
do ,</w>
it ar
í nci
a par
to u</w>
en as</w>
6 .</w>
00 0</w>
be g
speci es</w>
tic al</w>
t ul
s éri
te c
wh ile</w>
nov a</w>
thre e</w>
sta tes</w>
v ir
b on
" s
univers ity</w>
as e</w>
5 .</w>
secon d</w>
de vel
fici al</w>
po w
d ro
n ing</w>
a te
d y</w>
f em
al ity</w>
a th
3 .</w>
en contr
c at
c ada</w>
com pe
f en
alb um</w>
es cr
cham pion
m ús
al s</w>
le g
( )</w>
ap pe
ber t</w>
c el
c lo
habit ant
a _
á re
ou tr
dis co
cl ar
ári os</w>
f e</w>
b le</w>
distr ic
0 0</w>
es s
v ill
pr ó
ri o</w>
av e</w>
es s</w>
des ign
gr up
fran ces
9 .</w>
wi th
y e
k ing
euro pe
tic o</w>
is ti
== references
qu anto</w>
g an
i an</w>
ati ve</w>
n e</w>
a e
be came</w>
s um
in e
10 0</w>
i l</w>
e di
wil li
tam ento</w>
z e
ter min
la ter</w>
espe ci
con t
km ²
tur a</w>
b us
su per
ear ly</w>
u t
no me</w>
mus ic</w>
po in
x im
ti es</w>
r o</w>
m y</w>
l os</w>
ou tros</w>
en d
su p
al g
da e.</w>
hi m</w>
g ,</w>
t í
ma de</w>
um ent
tem por
org ani
at a</w>
fil me</w>
( born</w>
sou th</w>
d ist
200 0,</w>
fe c
th en</w>
t -
le v
ban da</w>
in i
.. .</w>
are a</w>
h um
formul a_
tur e</w>
princi p
m y
)* *</w>
qu en
aus tr
depar t
at ing</w>
mo v
regi on</w>
ce p
tr ês</w>
distr ito</w>
si dade</w>
s il
e con
th ese</w>
ph il
k ar
i de
tin ha</w>
h on
g er</w>
b and</w>
c us
fil m
me d
w s</w>
num ber</w>
ac cor
res pon
p ass
sch o
w est</w>
mes mo</w>
es ter
jul y</w>
t s
p .</w>
as soci
est ab
se ver
at en
loc ated</w>
w a
pes so
18 8
cal led</w>
po li
fi el
nor te-
devel op
ar g
cle ar
h al
ag ain
b est</w>
vi de
uni ver
come ç
aug ust</w>
fo ot
ch e
on .</w>
por t</w>
co .</w>
co u</w>
a to</w>
s an</w>
er am</w>
mar i
fr on
o l</w>
or ia</w>
organi z
mo der
n ú
est u
en tes</w>
am a</w>
a *</w>
w ell</w>
ti me
br it
le y</w>
to tal</w>
í pi
oc to
r ad
ho we
depar tamento</w>
1 .
ac ter
nam e</w>
lis t</w>
s to
pro fes
coun ty,</w>
h an
for e</w>
extern al</w>
u .
n av
fran c
1 2</w>
en ,</w>
p in
a qu
bu il
b in
v en</w>
2 0</w>
accor ding</w>
ap enas</w>
mu ito</w>
l ic
ad ores</w>
guer ra</w>
: *</w>
su c
w ar</w>
h ig
su s</w>
mai or</w>
ther n</w>
ge o
thou gh</w>
espéci e</w>
no t
da y</w>
un id
on s</w>
prov in
throug h</w>
mar ch</w>
p ú
bo th</w>
z e</w>
sep tem
de z
habitant es.</w>
l or
m id
r .</w>
lef t
qu ar
d ar
centr al</w>
p a</w>
s é
k .</w>
de n</w>
r an
be ing</w>
tor no
wor k</w>
== ===
en s</w>
follow ing</w>
j or
( 197
se m</w>
dec ember</w>
des envol
ing s</w>
fr en
vi do</w>
en d</w>
ve z
year s</w>
pa í
inf lu
re ,</w>
depart ment</w>
d y
son g</w>
ti l</w>
pl ac
b is
por tu
v in
ad o
200 6</w>
l ab
li z
pu bli
contr a</w>
ge or
le t
s an
parti ci
re present
sis tem
= left
sh ip
i u</w>
te ve</w>
w w
18 6
y ou
séri e</w>
grap h
y m
pe c
stat es.</w>
a os</w>
si do</w>
m c
l o</w>
ú l
ch ang
so f
k ed</w>
g .</w>
de fin
b r</w>
p il
ro y
1 5</w>
ci r
nor th</w>
re li
inclu ding</w>
br az
b all</w>
ci al</w>
sing le</w>
a in</w>
ç as</w>
ag os
on i
septem ber</w>
co ur
b ir
lo u
it as</w>
octo ber</w>
n er</w>
< br</w>
en quanto</w>
ch o
appe ar
gro up</w>
u ti
clear =left
# "
tr y</w>
ner o</w>
hist or
pol í
d or
clear=left >
c ali
w at
e very</w>
ad o,</w>
18 7
lon d
r is
co ber
jan uary</w>
b y
d s,</w>
conheci do</w>
bi o
b and
a ci
f az
cent ur
p at
ev ent
le .</w>
o ple</w>
alb um
inter national</w>
clear=left> ==</w>
be fore</w>
fo und</w>
tion ,</w>
sin ce</w>
form a</w>
ter i
sen do</w>
howe ver,</w>
h igh
grup o</w>
w ,</w>
ad or
in depen
é s</w>
n ,</w>
constr u
c ant
u -se</w>
se as
cen so</w>
visi on</w>
com e</w>
ap ril</w>
3 0</w>
1 -
in te
li ke</w>
seri es</w>
col le
ve z</w>
iro s</w>
jul ho</w>
g ê
h im
f ul
ro s
u al</w>
prov ínci
pr is
i a
nov ember</w>
ig n</w>
tr on
g as
lan gu
munic ípi
w ay</w>
son ,</w>
cen sus</w>
ish ed</w>
i i</w>
r y
d ados</w>
again st</w>
pu t
to dos</w>
municip ality</w>
fem al
gener al</w>
nú mer
in ,</w>
re aliz
ar o
li ber
i f</w>
du as</w>
t ent
áre a</w>
us ,</w>
f el
si de</w>
se e</w>
lanç ado</w>
gu itar
hist ória</w>
per ten
jun e</w>
de ,</w>
tro p
ca use</w>
ou tu
do c
un til</w>
d re
d est
pe ople</w>
y s</w>
al is
se tem
sam e</w>
1 1</w>
ur a</w>
a h
( 2
wil l</w>
u. s.</w>
te am</w>
es col
w ay
ul ar
do .</w>
des de</w>
fran ce.</w>
por tan
nacion al</w>
gun s</w>
1 )</w>
( 201
ir e</w>
est ava</w>
mo vi
" *
i ção</w>
s :</w>
origin al</w>
de l</w>
n ar
in stitu
distric t</w>
i .</w>
fe br
st a</w>
cul o</w>
rus si
sever al</w>
bras il
ain da</w>
ed .</w>
jan eiro</w>
pú bl
fe der
un der
bas ed</w>
frances a</w>
im p
f le
m er</w>
1 8</w>
so ,</w>
s or
son g
f ur
d ent
s ant
re tur
fu te
ing .</w>
tis h</w>
ai r</w>
1 6</w>
se qu
a )</w>
lo w</w>
so r</w>
on g
ma in</w>
z a</w>
j .</w>
cer ca</w>
mic ha
produ c
== the</w>
wr est
es "</w>
200 7.</w>
1 4</w>
cap ital</w>
ou t
â ni
w ester
tr ic
em ent</w>
un g</w>
th ir
do wn
publi c</w>
1 3</w>
m b
agos to</w>
sh or
ap res
a fr
íci o</w>
b ack
c ente</w>
s qu
s s
i de</w>
ent er
tr u
a tro</w>
r am
p ho
s m
k en
k in
g ir
tr a
i a,</w>
dif fer
vi da</w>
gam e</w>
pe op
mar ço</w>
l en
re vol
ch ur
ar ch
apres ent
febr uary</w>
municípi o</w>
ation ,</w>
tion al</w>
mil it
pro ble
í m
ro ck</w>
ex pl
ni fic
al e
l l</w>
1 ,
lin ks
coun ty</w>
re .</w>
ic h
th ,</w>
wester n</w>
ten do</w>
segu in
ta in</w>
in tro
di fer
commun e</w>
al ex
administr ativa</w>
a cor
al guns</w>
ênci as</w>
w ho
ta k
c li
se t</w>
m á
fo ur</w>
18 5
se x
car e
mem ber
p ur
de u</w>
fren ch</w>
jam es</w>
form ed</w>
outu bro</w>
equ ip
compe ti
ces s</w>
l ing
l am
cr u
k er
1 7</w>
ye ar</w>
uti liz
a is
at t
ver ed</w>
an .</w>
2 .
for m</w>
d i</w>
k u
1 9</w>
=== *</w>
stu di
des cri
us "</w>
le ad
j á</w>
ci dad
ob serv
n ia</w>
norte- americano</w>
an o,</w>
st or
s ain
l ing</w>
ho r</w>
st re
sig nific
fe ver
war d</w>
ma io</w>
un g
b ab
reli gi
ad u
in ici
thre aten
f is
ho u</w>
willi am</w>
lit er
er g
" a</w>
e ach</w>
h am</w>
at or</w>
av am</w>
h a,</w>
tion .</w>
se ,</w>
provínci a</w>
2 5
h os</w>
ad o.</w>
setem bro</w>
pl ace</w>
d ri
a i</w>
ir m
p ag
br an
s *</w>
i o
eng lis
z ,</w>
ation .</w>
c ab
a po
2 )</w>
ac t</w>
í vel</w>
s tem
es :</w>
mo del
st and
to ur
v an
vi a</w>
v it
ger man</w>
de fen
fun d
vi v
pe di
do u
18 4
li fe</w>
3 )</w>
r ap
0 .
te ch
j er
e ast</w>
threaten ed</w>
l ad
con st
outr as</w>
terr it
n on
hig h</w>
j i
g a
nov embro</w>
ex ec
ter s</w>
2 5</w>
de ci
8 -
ab ril</w>
f on
no w</w>
at h</w>
ac ad
w .</w>
em ent
dav id</w>
d "</w>
al -
m ur
hist ory</w>
th em
segun da</w>
mús ica</w>
nor th
bri tish</w>
vis ão</w>
be cause</w>
cam pe
nam ed</w>
sistem a</w>
atr av
re la
k r
el y</w>
nov o</w>
4 )</w>
mi x
es se</w>
dez embro</w>
da .</w>
cur r
m s</w>
an y</w>
har d</w>
c ó
o ver
h .</w>
im portan
á r
lin e</w>
d é
res id
pel os</w>
númer o</w>
f f
ne y</w>
ne t
ex am
form er</w>
ch an
ul ar</w>
sy stem
s ar
fu l</w>
t as</w>
beg an</w>
progr am
so vi
ger man
at or
ma j
in str
intro du
pos si
pos su
li fe
s )</w>
jog os</w>
s itu
e k</w>
aster o
cen sus
jun ho</w>
úl ti
y ou</w>
mun di
do u</w>
bo ok
t es
mi c</w>
co lo
en te,</w>
au to
u gh
ro s</w>
cl as
ang el
tí tul
re i</w>
ol ym
b ack</w>
micha el</w>
c av
b lo
" ),</w>
no me
u ,</w>
ve u</w>
ári as</w>
so b</w>
r ang
ed it
ad a,</w>
í o
y 's</w>
pa ul
r est
lar g
ex ist
0 )</w>
200 6,</w>
a is,</w>
ri ver
t ar</w>
cl assi
tem p
l ast</w>
ma r</w>
can ção</w>
ro bert</w>
demo grafia</w>
fever eiro</w>
inclu indo</w>
n .</w>
se cre
t "</w>
o us
l .</w>
ver são</w>
con stitu
acor do</w>
sy ste
2 3</w>
i es</w>
v í
g or
th em</w>
for man
gre at</w>
â nci
sion al</w>
mus ic
tic as</w>
qu al</w>
p au
s ite</w>
posi ção</w>
b em</w>
== ==</w>
ace a
d it
t on,</w>
ent ão</w>
ne w
6 )</w>
mel hor</w>
ô ni
ser vi
b .</w>
tr at
w on</w>
qu e,</w>
loc al</w>
localiz ado</w>
9 )</w>
tam ente</w>
so ur
po dem</w>
2 4</w>
est ão</w>
ar t</w>
so me
per ío
st .</w>
of ficial</w>
gen us</w>
v a</w>
i on
d '
uni do
tem po</w>
g lo
7 )</w>
do min
s ai
ap ro
li ve</w>
5 )</w>
co -
a u</w>
he av
k a</w>
epis o
c y</w>
an o
mar ri
st y
a is.</w>
me n</w>
, 000</w>
cor re
ci do</w>
s -
f ig
8 )</w>
ent ly</w>
u ally</w>
tim es</w>
pro mo
fl or
z on
a ",</w>
ú n
wh at</w>
a .
da e</w>
2 2</w>
em bor
play ed</w>
começ ou</w>
b lu
gro up
qu atro</w>
d g
chr isti
s ist
v ários</w>
== segundo</w>
com m
tem ente</w>
se par
qu er</w>
est rel
ass in
iv ed</w>
s ic
ed ,</w>
champion ship</w>
perten cente</w>
land .</w>
ti n</w>
al though</w>
al ém</w>
am b
f .</w>
3 .
o ur
femal es</w>
s ab
su l</w>
( 196
ro u</w>
geor ge</w>
princip al</w>
di d</w>
ad r
t ado</w>
si mil
au th
v ar
2 1</w>
ex em
atrav és</w>
e duc
ca us
sé culo</w>
es pan
3 -
á vel</w>
tor n
par tic
n u
d am
w e</w>
vide o</w>
ri ver</w>
ma ,</w>
ol d</w>
s l
18 3
syste m</w>
embor a</w>
gu a</w>
or e
is to
provin ce</w>
o x
univer sidade</w>
e as
ex ten
bl ack</w>
pró pri
ve is</w>
i uc
un ci
" k
s ",</w>
po der
mal es.</w>
f ar
( em
in dic
bas e
vill age</w>
men te,</w>
el ,</w>
j us
nor te</w>
p s</w>
) #</w>
aster n</w>
demo cr
w ell
y u
gover no</w>
jun to</w>
afr ic
ex ér
di g
o -
yor k</w>
ces so</w>
ist as</w>
c ar</w>
200 0</w>
il y</w>
per man
is e</w>
trop ical</w>
alem an
le agu
e z
b a</w>
o so
speci es.</w>
mu itos</w>
to p</w>
aro und</w>
ici on
or der</w>
sho w</w>
in ten
roy al</w>
s we
m ir
p p
de ix
) :</w>
l í
g ar</w>
pau l</w>
se .</w>
li gh
of fic
clu b</w>
thir d</w>
t ly</w>
es cre
ho use</w>
ag o</w>
cor por
for d</w>
óri o</w>
cl us
writ ten</w>
se m
co uld</w>
y -
idad es</w>
pl ant
fe z</w>
a :</w>
e ce</w>
sou th
c au
land ,</w>
to ok</w>
con cer
revol u
parti r</w>
popul ar</w>
fi ed</w>
av i
mic ro
an other</w>
jo go</w>
natur al</w>
v es</w>
ch eg
aç ão,</w>
do m</w>
famil y.</w>
si a</w>
de vido</w>
an o.</w>
ci o</w>
maj or</w>
fes tiv
um e</w>
pl at
pl ic
gê nero</w>
foot ball</w>
de -
acad em
ap pro
with in</w>
bo ok</w>
sy m
ig re
4 -
er o
ver sion</w>
st ar</w>
re ad
we b
iuc n</w>
do r</w>
pro jec
ad a.</w>
mo un
b it
v ent
per forman
m os</w>
hel d</w>
um as</w>
o li
n y</w>
cent er
um ,</w>
vi ol
govern ment</w>
ci a</w>
==== external</w>
z en
as i
k il
éri o</w>
car re
in forma
est re
mat eri
al ign
av el
in st
o br
de ath</w>
re ino</w>
g l
d ge</w>
se n</w>
al ong</w>
e y
tr adi
id enti
di ed</w>
an a,</w>
di o
re main
us .</w>
bas e</w>
sco t
re al</w>
portu gu
3 :
d ar</w>
he ad
scho ol</w>
fil ho</w>
inter pre
2 -
.. .
ch ,</w>
em pres
dis tribu
ev en</w>
en tr
englis h</w>
char acter
j a
qu er
il ha</w>
ur e</w>
presid ente</w>
f ab
ap es
mul ti
2 6</w>
t est
in ício</w>
qu al
mem bro
disco vered</w>
ter ce
it al
3 1</w>
joh n
ri a</w>
d at
char les</w>
9 7
st er
d -
d ent</w>
ind us
i do</w>
r un
qu is
des cober
mil li
du e</w>
an im
d a,</w>
der ro
and ,</w>
pres en
di e</w>
t v</w>
k h
av er
am e
d al
hav ia</w>
estab lis
t s,</w>
of ten</w>
v an</w>
bo l</w>
2 8</w>
ter ,</w>
mem ber</w>
au ,</w>
exec u
a tes</w>
tiv o</w>
bo ur
bu re
p li
o g
i "</w>
j on
de clar
c is
al ha</w>
sel f</w>
a -se</w>
il ,</w>
sp ir
exér c
bel i
di vi
vez es</w>
man ag
a k</w>
squ are</w>
mar ia</w>
jap an
to .</w>
mu itas</w>
com po
tic s</w>
à s</w>
unid os</w>
s un
" n
ex pres
en a</w>
pa in
c é
ti t
presid ent</w>
alg umas</w>
itali an</w>
se c
c er</w>
p un
at o
==== =</w>
1 1
k y
ol u
y p
x ,</w>
r on
k i</w>
l ín
h in
me t
ex -
pl ay</w>
arg ent
publ ished</w>
t ê
ar ,</w>
de termin
e iro
s s</w>
5 0</w>
im ent
z o
o ther
ar chi
ê mi
lef t</w>
2 9</w>
v on</w>
op en
to wn
fe atu
e y</w>
fo un
apes ar</w>
ad a
man u
a ju
j ust</w>
pe ter</w>
con sist
di a,</w>
ad icion
sti ll</w>
pro te
pos s
vi l</w>
v ed</w>
cham ado</w>
sm all</w>
" b
an no
fiel d</w>
f as
re v
2 7</w>
e i
cion al</w>
lo go</w>
f av
aç ão.</w>
so u</w>
d s
grap hy
sim pl
a j
mu ch</w>
epis ó
nor thern</w>
de fe
í do</w>
c ad
fi c</w>
lar ge</w>
cri p
' t</w>
t é
im port
hou se
201 0</w>
or .</w>
perío do</w>
soci et
gu ar
s pan
4 .
po uc
m ass
en erg
e k
públ ica</w>
lo ve</w>
ca te
im per
bo t
an is
be u</w>
hist ori
ári a</w>
v árias</w>
s w
en ci
jo ur
um "</w>
te ly</w>
h ,</w>
en de
differ ent</w>
w ash
o wn</w>
u .</w>
ar ia</w>
lon g</w>
ad di
ho ,</w>
to do</w>
n al</w>
ef fec
us ing</w>
g on
ro ck
an teri
ô n
torno u</w>
so lu
pe quen
an ça</w>
e ira</w>
ar t
mun do</w>
ing l
fa z</w>
com par
z er
2 6
pro vi
" ).</w>
ic k
r ain
== a</w>
europe an</w>
f lu
== o</w>
res ear
in o
am ong</w>
jo in
mar y</w>
z ant
te am
/ km²
h á</w>
ent an
min u
ma ke</w>
membro s</w>
milit ary</w>
lo gi
exérc ito</w>
austr ali
y ing</w>
se g
li ght</w>
d s.</w>
re ti
con ce
a il
pow er</w>
e astern</w>
of f</w>
align =
l ate</w>
ho men
der s</w>
e p</w>
desenvol vi
to m
i a.</w>
ci dent
ab er
g é
con segu
ni a,</w>
or s</w>
re public
it y,</w>
bat tle</w>
stu dio</w>
200 8</w>
3 0
lon g
b ed</w>
com pos
fi ve</w>
2 4
fute bol
k er</w>
est ad
man ,</w>
con tain
sou thern</w>
voc al
entan to,</w>
a ur
rece ived</w>
vie w</w>
arm y</w>
ali dade</w>
f ór
fo ur
anno un
econ o
rece beu</w>
si ve</w>
assi m</w>
moder n</w>
con tribu
5 -
f ace</w>
ân ico</w>
da ugh
w ri
m ã
i dade</w>
c d
s .
mo u</w>
qual quer</w>
ro man</w>
poli tical</w>
ic as</w>
am o
wh ite</w>
pre vi
tr an
r ac
a 's</w>
gi ven</w>
w est
me ,</w>
sant a</w>
or ch
fi f
tele vision</w>
g in
cas a</w>
õ es,</w>
n at
les s</w>
j es
se a</w>
mi ti
g ri
escr it
wash ing
v em</w>
partici p
it y.</w>
3 6
ni o</w>
br u
ell a</w>
pesso as</w>
fic a</w>
d ani
hen ry</w>
a im
con di
c í
lat er
f er</w>
sho w
plan et
, "</w>
member s</w>
n uc
j ack
i on</w>
h il
dec is
mor te</w>
it y
ho me</w>
and re
n ex
cl e</w>
ar c
g g
conheci da</w>
e ceu</w>
yo ung</w>
con ven
mo s
trabal ho</w>
establis h
ç ão,</w>
b ass
an ci
fo s
o ficial</w>
cul tur
cali for
vic tor
n igh
k et
cas tel
4 :
do wn</w>
am bi
pa is</w>
mil h
ol ím
gr am
( 195
ne g
men os</w>
pr êmi
ber g</w>
s ".</w>
it ar</w>
) ===
mus ical</w>
j o</w>
scho ol
s ==
produ ced</w>
i b
sub stitu
cap it
k o</w>
( 19
h ar</w>
com bin
ir as</w>
di do</w>
ou tro</w>
cr í
200 8,</w>
gre g
201 0,</w>
h un
se man
co g
c res
ag es</w>
ini ti
est ú
em per
di as</w>
o ce
i mag
2 7
m es</w>
e u</w>
w ol
seas on</w>
an os,</w>
ma y
qu es
he ad</w>
me tal</w>
in cre
ric hard</w>
fe ito</w>
ic k</w>
centur y</w>
p y
tho se</w>
( ;</w>
co le
ig u
posi tion</w>
atur e</w>
r adi
f aix
5 0
ab or
e 's</w>
str uc
den s
lit tle</w>
fran ç
a h</w>
ad ed</w>
e *</w>
200 9,</w>
( the</w>
h and
at s</w>
ro ,</w>
to das</w>
com pu
align= center
títul o</w>
t s.</w>
l ati
torno u-se</w>
is land</w>
l ist
d ata</w>
t un
mu se
e dade</w>
mai oria</w>
z in
de .</w>
af ir
di ri
2 3
w an
soci al</w>
ex per
awar d</w>
n um</w>
chur ch</w>
ar es</w>
ex peri
o t</w>
ment s</w>
ma the
ro u
play er</w>
me x
ó g
nuc le
an ç
ment os</w>
5 .
1 )*</w>
ag ens</w>
2 )*</w>
sum mer</w>
ch em
a x
tem per
sen ti
p os</w>
igre ja</w>
do m
bi bli
au tor
fron te
k an
8 0
n el
th .</w>
an unci
1 –
profes sor</w>
ad ap
h ap
á li
wo od</w>
200 2</w>
ne u
nor m
d on</w>
a tri
th s</w>
arti st
em a</w>
s '</w>
re du
er s,</w>
produ ção</w>
ou r</w>
s is</w>
ab ri
( em</w>
ro le</w>
re in
jo s
gr and</w>
e .
ne ar</w>
é po
bibli o
v o</w>
en .</w>
e f</w>
h it
es per
pre mi
re pública</w>
ti tle</w>
pap el</w>
to m</w>
200 7</w>
ânci a</w>
- l
im peri
di vers
c ent</w>
pró xim
ex tre
mov ed</w>
9 -
s pi
a ".</w>
ro m
cin co</w>
classi fic
j ar
ori ent
or e</w>
vi du
ter ra</w>
pi c</w>
t ab
al li
2 ,
200 7,</w>
us o</w>
car ol
ati c</w>
=== the</w>
18 0
compan y</w>
al o
200 4,</w>
wrest ling</w>
pri v
ther ,</w>
3 )*</w>
p it
ab e
indi vidu
dr .</w>
bo ar
astero id</w>
in a,</w>
ac tion</w>
8 )*</w>
mathe ma
w ro
qu ais</w>
tempor ada</w>
ta ke</w>
ic a,</w>
faz er</w>
mo str
inclu ded</w>
be come</w>
an -
k m</w>
ili dade</w>
n y
vie w
i or</w>
n uma</w>
lo v
is so</w>
17 9
cre ated</w>
200 9</w>
is su
co s
co pa</w>
( 193
d ente</w>
en te.</w>
) "</w>
consider ed</w>
mar k</w>
f igh
r am</w>
ge t</w>
fi cou</w>
st an
inte gr
th ing</w>
h a.</w>
w .
p ir
us ado</w>
larg est</w>
am ig
ta x
par ty</w>
e vi
4 0
simil ar</w>
tho mas</w>
f ,</w>
ag on
s pr
s po
e ver
z z
o "</w>
m ica</w>
il .</w>
hist óri
o fici
worl d
fa ther</w>
a de</w>
9 )*</w>
sup por
l as
mor re
di v
carre ira</w>
with out</w>
f lo
al y
se tt
plac ed</w>
á tica</w>
o pe
vel y</w>
no log
j et
produ ction</w>
ar qu
te ll
russi an</w>
is land
sai d</w>
se is</w>
possu i</w>
ne cess
importan t</w>
ar .</w>
b un
re -
gr á
parti do</w>
tê m</w>
r ing</w>
an do
r as
to ur</w>
sp ace</w>
2 8
ob jec
5 )*</w>
" g
us tr
es sa</w>
spe c
sa x
ne c
da y
fi m</w>
ti po</w>
cr af
esti m
f f</w>
inv esti
nex t</w>
7 -
produ zi
i e</w>
201 1,</w>
down lo
le t</w>
ab il
cen tro</w>
==references ====external</w>
6 -
t a,</w>
4 )*</w>
pro je
langu age</w>
const ant
ch ed</w>
franc is
vari ous</w>
mel h
res pec
l ado</w>
b all
campe on
ch ic
f -
b b
s ac
ci vil</w>
wor ks</w>
ili an</w>
pouc o</w>
de ath
constr uc
ag re
partic ular
co s,</w>
tr ack</w>
wa ter</w>
leagu e</w>
christi an</w>
al mente,</w>
sion s</w>
d este</w>
tar de</w>
and er
com put
õ es.</w>
sy n
ke y</w>
can ad
z y
qu in
house hol
poin t</w>
al tern
prin ce</w>
en h
comm on</w>
mis sion</w>
ho w</w>
col um
7 )*</w>
w ent</w>
) ==
pa i</w>
do l
r á
milli on</w>
j .
km ²</w>
tr a</w>
futebol ista</w>
i da</w>
gr adu
all y,</w>
6 )*</w>
os a</w>
g et
hav ing</w>
ci mento</w>
at ten
w y
phil oso
announ ced</w>
uni ão</w>
or dem</w>
o so</w>
beg in
recor d</w>
con sul
200 4.</w>
si x</w>
guer r
re por
liv ro</w>
is l
em p
no min
ch ap
2 9
ti ci
r ul
uni dade</w>
tr ack
ç ão.</w>
no .</w>
c ,</w>
buil t</w>
peri od</w>
gir l
me tro
estr u
dad es</w>
at temp
- de-
chr ist
d v
post eri
t ó
í da</w>
ti cos</w>
gam es</w>
v as
p ,</w>
mon t
f us
al low
s tri
l as</w>
episo de</w>
b o</w>
l ag
inclu de</w>
f low
vil le</w>
um .</w>
at a
i dae.</w>
cen ter</w>
n s</w>
mem bro</w>
hu man</w>
ma ch
ma .</w>
l er
profes sional</w>
st on
post a</w>
k ir
is ra
dens ity</w>
ac ti
" ;</w>
ne ver</w>
um ento</w>
har d
for ç
to ge
í a</w>
as tron
l in</w>
gran des</w>
develop ment</w>
fe w</w>
e ",</w>
develop ed</w>
co sta</w>
ne t</w>
acea e.</w>
n un
lo st</w>
ex pan
pro pri
recor ded</w>
id os</w>
re public</w>
e th
200 4</w>
c ic
k on
pres s,</w>
com mon
cr ist
histor y
econ om
y a</w>
i am</w>
ho m
c up
bat alha</w>
a *
200 5</w>
suc cess
da ys</w>
atur a</w>
co p
ph on
ó ide</w>
c ell
z ed</w>
car acter
li c</w>
t as
l ista</w>
foun ded</w>
mag n
i or
famil ies</w>
ad os.</w>
á s
xi ma
pow er
festiv al</w>
coun try</w>
lon go</w>
cl aim
ag e,</w>
w a</w>
6 .
peop le,</w>
habit antes</w>
qu es</w>
con fl
en se</w>
an os.</w>
us a</w>
aug us
bel t</w>
g o,</w>
wor k
e )</w>
li m
ag e.</w>
w in</w>
mo ,</w>
equip e</w>
japan ese</w>
i ma
h em
pr é
cham ada</w>
m bi
est á
est as</w>
con serv
ling u
ví de
champion ship
outr a</w>
alex and
3 –
le ad</w>
gi o</w>
201 1</w>
g il
ant s</w>
lab or
es a</w>
bur g</w>
u ri
ac ab
el ement
colle c
a ),</w>
w er
ul t</w>
le e</w>
ch ec
pi cos</w>
vil a</w>
lu gar</w>
p á
200 5,</w>
x .</w>
bro ad
ser ia</w>
ma c
gu e</w>
o wn
ri gh
paí s</w>
k en</w>
in vol
201 1.</w>
ar s</w>
is m</w>
la ke</w>
a con
pr ínci
= "
r ai
inter nacional</w>
dé cada</w>
me .</w>
c .
o cident
mar in
fronte ira</w>
ch es</w>
ati s
k el
origin ally</w>
col or
s ).</w>
is to</w>
fur ther</w>
c ele
resear ch</w>
tre ch
4 0</w>
ev olu
ar qui
2 –
mid d
ass ist
" re
p ed</w>
0 )*</w>
time ,</w>
st ation</w>
pa ci
n ight</w>
prime iros</w>
p is
s cre
paí ses</w>
l '
contro l
s cen
pre par
f c</w>
en vi
vol ta</w>
su cesso</w>
for ce</w>
enter tain
ous ly</w>
jap on
att ack
l au
" o</w>
imp ério</w>
aster óide</w>
tr ac
cl ass
sci enti
bure au,</w>
ass um
speci al</w>
en o
: *
oc up
por to</w>
dr um
con qu
o w
n ig
mon tan
diri gi
201 2</w>
bi g</w>
wro te</w>
mat ch</w>
descober to</w>
an e</w>
ic s</w>
i as</w>
aç a</w>
3 5
sovi et</w>
philoso ph
an a.</w>
ti a</w>
in .</w>
val u
appear ed</w>
vol ume</w>
gan hou</w>
tr ó
sep h</w>
r ich</w>
aç ão
at .</w>
201 2,</w>
p es</w>
fute bol</w>
’ s</w>
v .</w>
ad amente</w>
ac re
sain t-
re ach
jo seph</w>
j ur
j ac
expl or
marri ed</w>
par is</w>
mil e</w>
s ing</w>
releas e</w>
s *
milh ões</w>
w all
ma k
willi am
pro fis
ac tu
desenvolvi mento</w>
v ing</w>
campeon ato</w>
ne ,</w>
estim ada</w>
h tt
fre der
r i</w>
den tro</w>
d .
ma king</w>
bo dy</w>
ke t</w>
graph y</w>
estab ele
coun tri
co s.</w>
shor t</w>
pas sou</w>
lo ve
an th
it .</w>
el ev
fre e</w>
ch er
cap a
ênci as
indus tri
cl in
á s</w>
se t
or b
i .
ê s.</w>
phy ll
morre u</w>
al can
ger almente</w>
c um
á gu
sh ar
ac tr
n al
at ,</w>
song s</w>
g ul
pe dr
n an
g as</w>
cate g
uni on</w>
ing u
au di
ch .</w>
lou is</w>
tan to</w>
po ,</w>
k a
qu ase</w>
ori al</w>
gr es
3 7
doc ument
olym pic
h id
eng ine
( 194
sup port</w>
pl o</w>
km² ,</w>
com man
ta is</w>
cor r
ing later
for ças</w>
w el
contro l</w>
con nec
a cional</w>
encontr ada</w>
ti tu
resul t
es pos
le on
pi er
mo sco
cas t
ér ica</w>
jos é</w>
clu b
em ents</w>
tur n
up on</w>
3 8
" "</w>
" "
aleman ha</w>
retur ned</w>
h us
num ber
co u
par k</w>
ic e,</w>
an der</w>
sci en
princi pais</w>
mundi al</w>
p ó
ch e</w>
ob je
( s
non -
mo l
d un
k am
bl ack
at os</w>
==references ==</w>
/ /
) ;</w>
de mon
imper ador</w>
h ill
z ar
9 –
progr ama</w>
st ory</w>
po p</w>
n in
el en
c us</w>
tr av
establish ed</w>
am ar
sh e
gu il
is "</w>
ace ae
com er
ac ter</w>
tre at
archi tec
performan ce</w>
for a</w>
bis ho
direc ted</w>
lond on</w>
h all</w>
ta il
s ag
regi on
li der
le n</w>
ativ o</w>
us ually</w>
su f
cep t</w>
lo ,</w>
i ções</w>
car los</w>
lín gua</w>
la un
aus tri
go .</w>
200 8.</w>
u ght</w>
im in
e du
cor e</w>
brasil eiro</w>
re vel
num er
ne ar
jog ador</w>
htt p
l y,</w>
s os</w>
l ,</w>
a ter</w>
s í
ent re
y *</w>
for ça</w>
emper or</w>
in -
bu d
castel o</w>
j e</w>
h au
pol y
coun tr
char acter</w>
17 8
th es
chang e</w>
d ência</w>
s au
ro b
in ste
con sel
a "*"
po der</w>
gé nero</w>
ab o
sel e
e :</w>
co re
b ad
sel ec
ani ma
( 192
win do
ir a
co loc
for e
con fir
c a,</w>
mis são</w>
estú dio</w>
ap lic
rela cion
or den
ã os</w>
k ore
exem plo
der ed</w>
0 ,
d ul
at ing
bus in
: //
s av
com ing</w>
rev ista</w>
el .</w>
ed ward</w>
an te
a er
ment ,</w>
200 5.</w>
ach i
" p
reg is
play s</w>
me dic
den sidade</w>
lig a</w>
fin an
fa ir
en sis
co st
atri z</w>
seguin tes</w>
j ack</w>
re cog
w is
ros s</w>
r ús
bro ther
am ente,</w>
0 s</w>
o d,</w>
ke y
ha w
7 –
recor ds</w>
an n</w>
i bi
go od</w>
ment .</w>
ch ina</w>
9 .
braz ilian</w>
ho t</w>
imperi al</w>
den ce</w>
par t
des ign</w>
ro un
rad io</w>
at l
" f
ope n</w>
li e</w>
est avam</w>
sci ence</w>
po t
king dom</w>
vir g
appro xima
ty pe</w>
trans fer
to s,</w>
span ish</w>
is mo</w>
bo ard</w>
ão -
time .</w>
can di
ii i</w>
con junto</w>
we ight</w>
h as
al d</w>
á -
últi mo</w>
sovi é
5 –
ri ght</w>
po u</w>
ant on
tro pic
terce iro</w>
rel ação</w>
la w</w>
continu ed</w>
com p
par is,</w>
pal av
nas ceu</w>
fran ce</w>
direc tor</w>
ag ain</w>
se mi
me tros</w>
" i</w>
person agem</w>
er "</w>
descri bed</w>
te l</w>
s es
po sed</w>
cit y.</w>
way s</w>
th i
ex pedi
s ===
on ce</w>
cu p</w>
4 –
star ted</w>
é l
sul a</w>
z .</w>
http ://
am ,</w>
s ent</w>
y on
s ó</w>
estad unid
escre veu</w>
refer ências
in corpor
( ,</w>
to l
olím picos</w>
lin ha</w>
g el
er -
al e</w>
d u</w>
serv ed</w>
a e</w>
fun c
you r</w>
dist in
pes quis
o m</w>
li br
ri v
the or
em ,</w>
e ti
bre ak
r ar
c un
ste ph
ê s,</w>
man i
- design
wh e
nor man
ci l</w>
ass assin
( a</w>
rel ation
ho sp
ad os,</w>
" r
nes s</w>
di fic
fil ha</w>
du ke</w>
pa ís
mis sion
me tho
cam pan
jap an</w>
instr ument
cas t</w>
mil itar
do es</w>
ra y</w>
8 .
el imin
d ate</w>
2 :
mar tin
le "</w>
bo y
tic a,</w>
av ail
tor ,</w>
mes ma</w>
mar tin</w>
lon don
cor respon
t v
8 –
s at
t ão</w>
su peri
" trech
tor s</w>
qu ali
i i,</w>
s crip
resid ing</w>
"trech us</w>
te d
difer entes</w>
chr is</w>
tri c</w>
per formed</w>
d res
am -se</w>
200 3</w>
s i</w>
portu g
import ante</w>
er s.</w>
olog ical</w>
de but</w>
lanç amento</w>
ti l
sal v
k a,</w>
el iz
cor ri
cam bri
rece p
ing "</w>
n it
ic a.</w>
3 4
% ).</w>
(em bass
tr ain
tor es</w>
mo u
mar ine</w>
aç o</w>
er ing</w>
ist s</w>
album ,</w>
3 ,
1 ),</w>
ver am</w>
6 –
(embass y
des cre
qu anti
o este</w>
wo od
so .</w>
lu ta</w>
jo ão</w>
es *</w>
all ,</w>
n a,</w>
le -
con fer
pon to</w>
j en
al ist</w>
mag az
es )</w>
to u
s ;</w>
n az
g os</w>
main -
el as</w>
st on</w>
ch ef
s ay
a ).</w>
des tru
é ,</w>
e ir
im pres
care er</w>
daugh ter</w>
align=center _</w>
p adr
materi al</w>
fre quen
househol ds,</w>
he iro</w>
ap poin
et a</w>
am érica</w>
pres ent</w>
gol d</w>
pre cis
ou -se</w>
ad es</w>
idad e.</w>
g ave</w>
con ver
se u
o fer
de dic
ak e</w>
u k</w>
societ y</w>
sing les</w>
ori es</w>
3 9
prêmi o</w>
no r</w>
atu almente</w>
pul a</w>
st age</w>
17 7
seg ur
e j
cas tle</w>
201 3,</w>
bu t
wor king</w>
curr ent</w>
fem in
ag e
4 7
al so
to da</w>
ou gh</w>
ó n</w>
por que</w>
po ten
li p
pro bab
te d,</w>
te d.</w>
sk y</w>
( n
li o</w>
â ne
ro t
b ak
so bre
en do</w>
0 –
pro ces
tak en</w>
episó dio</w>
edi ção</w>
wor ked</w>
fre qu
( c
retur n</w>
ter m</w>
ter .</w>
be au
te oria</w>
ple ,</w>
itali ana</w>
man n</w>
interpre t
k ol
ho ll
s por
m ed</w>
k y</w>
it ,</w>
h r
gre ek</w>
tw are</w>
pro to
comple x
war ds</w>
s ),</w>
j as
indi an</w>
some times</w>
pel as</w>
him self</w>
lond res
ag en
5 00</w>
se ven</w>
n ag
h ip
ful l</w>
sof tware</w>
pr e</w>
es tes</w>
su gg
incre as
des cen
il has</w>
esti ma
b al</w>
lin o
es i
l av
ti fic
son .</w>
pu t</w>
bul bo
20 0</w>
cele br
li mi
ev ed</w>
com mit
ver ão</w>
tu res</w>
m p
graf ia
gr and
f ís
que en</w>
the ory</w>
el s</w>
li es</w>
i os</w>
re fle
d an</w>
aver age</w>
phy s
en ça</w>
ma tem
ad ora</w>
for ces</w>
com pil
_ _
year s.</w>
per to</w>
f ant
ad ,</w>
prínci pe</w>
en z
dis se</w>
as u
me an
esti lo</w>
b ell
proje to</w>
k ur
200 1</w>
dire tor</w>
bulbo phyll
s and
princip almente</w>
b ou
ta g</w>
b ia</w>
200 9.</w>
ch es
the ast</w>
su per</w>
se en</w>
north -
n enh
men 's</w>
10 ,</w>
j i</w>
gre en
** *</w>
ti s</w>
pol it
phy sic
compos it
cam po</w>
al ta</w>
low er</w>
or mente</w>
play ing</w>
gro und</w>
approxima tely</w>
té c
h ur
polí tica</w>
go d
pho to
in s</w>
gre at
downlo aded</w>
census ,</w>
201 3</w>
vi en
no ,</w>
con duc
2 ),</w>
yor k
me tr
col on
clu be</w>
tiv a</w>
german y.</w>
at ac
ww w.
extern as
sul ,</w>
nun ca</w>
river *</w>
m am
der ,</w>
co ver
ven ez
ne l</w>
ex is
idad e,</w>
ab and
n is
ear li
main- belt</w>
di os</w>
defin i
199 9</w>
stu dy</w>
ro .</w>
cour t</w>
of fici
(em baix
id a,</w>
movi mento</w>
investi g
fa il
(embaix ada
o '
apro xim
film es</w>
coun t</w>
re d
ro ber
á fr
li mit
le av
pro cess
cor po</w>
ún ico</w>
sol o</w>
se at</w>
mex ic
ent ,</w>
irm ão</w>
vis it
p p.</w>
olog ia</w>
in ver
com mer
dr am
tech nolog
mã e</w>
v ul
pl es</w>
ag ed</w>
5 7
( 1</w>
con tempor
serv ice</w>
n is</w>
amb os</w>
)*" the</w>
secre t
referen ces</w>
an aly
wh i
te "</w>
ph er
ar do</w>
u k
se de</w>
ro w
b ay
á veis</w>
olym pic</w>
(embassy )**</w>
mus t</w>
municip ali
me io</w>
de z</w>
toge ther</w>
t i</w>
alex ander</w>
d ing
tu re
so m
s mi
r ay
cali fór
ament os</w>
m aster
f red</w>
muse um</w>
le c
ç ão
featu res</w>
awar ds</w>
s ões</w>
on "</w>
mo ther</w>
g en</w>
can adi
re mo
b an</w>
í veis</w>
hou t</w>
ist ,</w>
escol a</w>
con clu
6 0
b s</w>
des em
links ==*</w>
exemplo ,</w>
curr ently</w>
cav al
norte- americ
event ually</w>
199 6.</w>
m ing</w>
es ses</w>
3 ),</w>
tre in
res er
produ z
p é
br on
fo und
== referências
x -
cri tic
alcan ç
á gua</w>
and r
projec t</w>
hal f</w>
ar a</w>
é m,</w>
cam p
ber g,</w>
á cio</w>
la y
200 3,</w>
si a,</w>
four th</w>
an s,</w>
tion s,</w>
sy l
dio ces
s ent
y ",</w>
fran k
gr u
20 ,</w>
des co
sain t</w>
4 5
model o</w>
199 8</w>
ev er</w>
throug hout</w>
ta y
ation al</w>
tin ham</w>
den dro
associ ation</w>
adap t
acre dit
sco pula</w>
et ,</w>
200 6.</w>
mo .</w>
6 0</w>
who se</w>
form s</w>
i m</w>
di plo
cul ar</w>
com and
nas cido</w>
clas s</w>
ve .</w>
u n</w>
mul her
escr ito</w>
empres a</w>
( 190
r az
mo st
lu t
f t</w>
th us</w>
defe ated</w>
2 *</w>
ma jor
g min
an g</w>
ger al</w>
" h
com es</w>
ci da</w>
bo m
sho uld</w>
ti tul
in a.</w>
econo mic</w>
ro n</w>
join ed</w>
tiv os</w>
recog ni
org anis
al ber
/km² ).</w>
polí tico</w>
j im
inter nacion
il lino
le y,</w>
francis co</w>
cam pa
bat t
ne igh
dani el</w>
ari an</w>
" (
compan h
cam in
da y,</w>
== in</w>
con centr
)* *
en -
braz il.</w>
ag r
fun cion
es ",</w>
cober tos</w>
brit ân
re qui
chil dr
at er
ad van
anci ent</w>
des p
unido s.</w>
mu dan
contain s</w>
serv ic
fran k</w>
e fe
dis so,</w>
ad or,</w>
person al</w>
4 8
1 ).</w>
un s</w>
ne .</w>
n ível</w>
visi on
201 0.</w>
et s</w>
ag ora</w>
origin almente</w>
lin e
di da</w>
aw a</w>
feder al</w>
to s.</w>
sem pre</w>
no l
k "</w>
craf t</w>
200 1,</w>
an na</w>
nucle ar</w>
midd le</w>
di vision</w>
dis pon
m .
atu al</w>
ann e</w>
si mul
presen ted</w>
pe ter
al "</w>
ir am</w>
to t
pro per
1 1,</w>
5 :
1 2,</w>
refer ências</w>
rap id
popul acional</w>
desp ite</w>
á ,</w>
al titu
te en</w>
m ist
exper iment
ei ther</w>
c d</w>
fig ur
f at
so on</w>
suc ces
mo ll
k ans
es cap
ar te</w>
y )</w>
du que</w>
wi fe</w>
obr as</w>
links ==*
clo se</w>
cas e</w>
sk i</w>
cidad es</w>
br a</w>
al ter
enti al</w>
wri ter</w>
scot t</w>
1 4,</w>
" ===
ún ica</w>
le ar
f all
al to</w>
us t
" la</w>
re ve
den do</w>
com pon
er ia</w>
recor ding</w>
os os</w>
or din
g n
contro le</w>
15 ,</w>
be l</w>
l un
ad as.</w>
acon te
7 .
dan ce</w>
co pi
ac y</w>
ro ll
jun tamente</w>
le m
ho .</w>
vir tu
gas tro
consider ado</w>
academ y</w>
re as
grap hi
1 *</w>
tor no</w>
sig ned</w>
cas o</w>
97 8-
th or
se te</w>
mit h</w>
der iv
cr é
follow ed</w>
atu re
d esta</w>
aband on
se cur
lo t
abil ity</w>
tion s.</w>
s z
cit y,</w>
200 4
vi et
fre e
p ac
es ==
dig ital</w>
blu e</w>
be n</w>
4 4
ni a.</w>
ber n
si r</w>
re fu
kno w
links ==</w>
de m
ro l
r a,</w>
minis ter</w>
qu em</w>
ex ce
con se
tain ed</w>
mer c
fam ous</w>
( 1
hen ri
f it
18 ,</w>
qu adr
by zant
al most</w>
== history
te ach
lin ks</w>
gen s</w>
emp ire</w>
a c</w>
ther e
ri ed</w>
id en
e ve</w>
pa tri
chr on
as t
5 5
ri g
própri o</w>
o )</w>
fi x
víde o</w>
tele visão</w>
17 ,</w>
ili z
bi zant
ac tor</w>
á lia</w>
sub sequ
resul t</w>
o corre
bo x</w>
ation s,</w>
ü r
fore ign</w>
tr in
str ong</w>
s na
ric ul
den o
có pi
z el
di visão</w>
ii .</w>
sur viv
por te</w>
nome ado</w>
cultur al</w>
mis s</w>
(embaixada )**</w>
so li
s ell
avail able</w>
ap plic
em i
de us</w>
coun cil</w>
compe ted</w>
buil ding</w>
chef e</w>
bor ders</w>
gre en</w>
bro ther</w>
re gar
indepen dent</w>
em pi
informa tion</w>
id as</w>
depo is,</w>
ter mo</w>
read y</w>
ati vi
: :</w>
es ted</w>
bu s</w>
ca tho
milit ar</w>
lo s
c â
s ão
tic a.</w>
lead ing</w>
grup os</w>
g ab
en gen
br un
4 9
199 6</w>
r it
he al
colle ge</w>
a ument
tr adicion
est s</w>
me t</w>
jus ti
eg yp
18 2
olog y</w>
pro cesso</w>
no w
vol .</w>
avel mente</w>
le vel</w>
k al
h ay
constru ção</w>
h ung
for t</w>
orch estr
ci v
s wit
i -
dire ção</w>
demon str
bot ânico</w>
ad ol
) ==</w>
i ve</w>
wor d</w>
mo del</w>
escr ita</w>
bur g,</w>
ber g
di u</w>
2 ).</w>
ton .</w>
re bel
our o</w>
o hi
in don
di a.</w>
5 ),</w>
ter ia</w>
s as</w>
ac tive</w>
peop le.</w>
k at
et -
tran si
phil ip
baix a</w>
aw ay</w>
estrel a</w>
base ado</w>
r as</w>
ó w,</w>
south -
re cur
espéci es</w>
a ero
cul os</w>
ro ad</w>
at a"</w>
17 5
ste ve</w>
us ando</w>
es cal
c all
abe th</w>
=== a</w>
rela ted</w>
on a</w>
gen e
fav or
ex plo
9 0
dis h</w>
c as</w>
el la
co ver</w>
am .</w>
possi ble</w>
olympic s</w>
b ach
compu ter</w>
" #</w>
in e,</w>
euro pa</w>
anti go</w>
ver dad
ti z
ste ll
lanç ou</w>
design ed</w>
1 3,</w>
j az
alem ão</w>
199 8.</w>
featu red</w>
e ".</w>
o v</w>
bul g
a umento</w>
o to
ist a,</w>
edi tion</w>
dre n</w>
c ze
/km² .</w>
moll us
sho ws</w>
par ts</w>
jes us</w>
previ ous</w>
c amer
si v
in tel
w ill
res t</w>
per miti
lu gar
le y
inclu des</w>
chil dren</w>
begin ning</w>
3 3
rang e</w>
acea e</w>
e ded</w>
cen tre</w>
200 7
p sy
influ en
heav y</w>
fic o</w>
ame aç
b ,</w>
th y</w>
gro w
ce "</w>
ar th
ta i
orig em</w>
aproxim adamente</w>
==== ==
graphy ==
so und
forma ção</w>
sur e</w>
p h</w>
f ar</w>
dirigi do</w>
tour nam
wi de</w>
ver mel
inst al
dr a
" ==
pres são</w>
par al
hom em</w>
ation s.</w>
últi ma</w>
vi zin
stand ard</w>
p seu
st adi
pa tric
consel ho</w>
ces ,</w>
ç os</w>
fran ch
writ ing</w>
remain ed</w>
ain ed</w>
us u
su ces
de ve</w>
ag o
st one</w>
partici pou</w>
ent .</w>
catho lic</w>
auth or
anti -
re pe
nov amente</w>
fri end
bro wn
sub jec
chin ese</w>
ac ross</w>
( 16
lor d</w>
4 ),</w>
se ja</w>
o me
do -
de gre
6 ),</w>
ê n
ex clus
( in</w>
épo ca</w>
mai ores</w>
ti do</w>
res ist
caus a</w>
tr adu
an á
al ista</w>
ad el
9 ),</w>
ww e</w>
v ot
ro te
próxim o</w>
homen s</w>
ra ther</w>
in ci
hum an
ac tiv
in de
der .</w>
caracter ís
16 ,</w>
municip al
ni e</w>
ch er</w>
bro ,</w>
ne go
ad op
h at
especi ally</w>
c ân
bulbophyll um</w>
ag ricul
u ses</w>
ma tic</w>
cri ado</w>
au t
apo i
ó l
year ,</w>
mé dia</w>
l ap
il li
bo w
to w
po .</w>
or qu
l he</w>
ativ as</w>
unido s,</w>
s it
produ cer
lat er,</w>
cheg ou</w>
am p
a co
minis tro</w>
at lan
a y,</w>
who m</w>
introdu ced</w>
chr isto
=== as</w>
r is</w>
obr a</w>
exam ple,</w>
organiz ação</w>
l .
entertain ment</w>
tr uc
of fer
in spir
19 ,</w>
ul a</w>
sty le</w>
re t
on y</w>
=== *
hy dro
w id
energ y</w>
âni a,</w>
vel o
r um
er n
em er
a ;</w>
bo mb
b ati
ad am
17 6
po d</w>
cin ema</w>
offic e</w>
institu te</w>
em .</w>
at mos
amo un
sing er</w>
ma xim
ch u
a ==
0 s,</w>
liv ing</w>
le ast</w>
den tes</w>
ar ch</w>
ho ur
ac o</w>
su ce
mil es</w>
im ple
é re
p ter
he ar
gol den</w>
dioces e</w>
t ap
per da</w>
mi ke</w>
ad v
reach ed</w>
pro tec
fa ther
di z
di ver
de tec
199 7</w>
it er
com munic
ro d
lo m
ho je</w>
es ".</w>
apo io</w>
ag a</w>
de cor
ar ri
americ a</w>
oc cur
k or
habit at</w>
euro pe</w>
histor ical</w>
en sin
201 2.</w>
mi l</w>
f a</w>
ã s</w>
ar ab
si x
r .
prin ces
ev ent</w>
cont ém</w>
trat ado</w>
su í
200 2,</w>
we e
ven do</w>
i j
dv d</w>
franc ês</w>
vit ória</w>
t a.</w>
s mith</w>
yo un
star s</w>
reg ular</w>
appoin ted</w>
sh in
pre en
chi ef</w>
ende mic</w>
x vi
r in
me chan
( p
ver sion
dis ney</w>
des en
s cal
s pa
possi b
3 5</w>
f all</w>
as h</w>
ô nia</w>
mo le
as pec
" comun
sol d</w>
bal ler</w>
du t
cy clo
bisho p</w>
poder ia</w>
partic ular</w>
en ds</w>
c es.</w>
rest aur
i '
pro cess</w>
c il
al a</w>
sch ol
ou tro
g ed</w>
for ne
foot baller</w>
fant as
dis cus
ma ur
inter net</w>
im ,</w>
al i</w>
8 *</w>
8 ),</w>
z es</w>
ta -
par li
as se
n ak
me "</w>
m al</w>
3 *</w>
geo grafia</w>
especi almente</w>
dis pu
us h
trabal h
terce ira</w>
equ iv
si te
a xi
u ro
k ill
con sum
ci ent
anti ga</w>
á n
k i,</w>
inclu i</w>
g all
do s,</w>
comer ci
c t
ad as,</w>
qu il
le vel
5 6
bet ter</w>
199 5</w>
tropic ais</w>
to o</w>
p av
mar sh
lí der</w>
le w
t est</w>
je an</w>
holl y
bur g
pres er
chec a</w>
elec ted</w>
nor u
ju an</w>
estru tura</w>
em o
" )*</w>
venez u
sour ce</w>
refer red</w>
le gen
est ar</w>
dr ama</w>
ti mes
re placed</w>
arqui te
pro ce
pen s
ma x</w>
in fer
áre as</w>
stat es,</w>
l este</w>
con du
ish ing</w>
espos a</w>
we ek
re mix
le i</w>
cant ora</w>
fl am
apar eceu</w>
http:// www.
ge org
tor .</w>
on o
phys ical</w>
washing ton</w>
av anç
and y</w>
7 0
1 :</w>
( ou</w>
territ ório</w>
200 0.</w>
par e
k it
si ze</w>
lev ou</w>
el i
deci ded</w>
tion ary</w>
profis sional</w>
pal ácio</w>
gu i
as cen
é m
ate ly</w>
"comun e"</w>
o d.</w>
dest in
ac t
pol ic
f í
cer tain</w>
f la
di men
í nio</w>
th om
comple te</w>
a b</w>
re cu
p to
is ed</w>
so und</w>
plan t</w>
mes es</w>
" m
web site</w>
inclu em</w>
habit ats</w>
fron t</w>
famí li
ever y
del i
ân ia</w>
sl av
pos to</w>
p .
jul i
ingl ês</w>
sistem as</w>
s ó
ear th
7 ),</w>
ru n</w>
n este</w>
gener ally</w>
p )</w>
metro polit
des er
centur y,</w>
astero ide</w>
sa w</w>
quar to</w>
progr am</w>
do s.</w>
prin cess</w>
l es,</w>
gu itar</w>
so mente</w>
proble mas</w>
manu el</w>
cr is
4 6
no s
me dia</w>
win ter</w>
claim ed</w>
cient í
th in
gi an</w>
g y
e *
3 ).</w>
2 :</w>
pp ed</w>
fun ção</w>
fe atur
municipali ti
fri ed
er 's</w>
b loc
" in</w>
re al
f íci
energ ia</w>
ch a</w>
par tes</w>
lati n</w>
199 2</w>
k e,</w>
a ére
9 *</w>
s ter</w>
mus ici
bil l</w>
b ag
200 6
voc al</w>
ten ha</w>
lo .</w>
brit âni
5 ).</w>
inter ior</w>
e ight</w>
bo y</w>
y am
pedr o</w>
o *</w>
199 4</w>
mé xi
it 's</w>
afric an</w>
w ig
tar de,</w>
ro und</w>
ex pec
leg isl
ang eles</w>
) ;
" al
jo vem</w>
ide a</w>
( or</w>
po is</w>
har ry</w>
ck ,</w>
b es</w>
jo e</w>
bo x
ment al</w>
v ,</w>
tor ne
go ing</w>
bro ught</w>
ö r
ur al</w>
u -
religi ous</w>
hel p</w>
ear th</w>
b .
( r
" o
medi ev
k is
je w
progr es
eiro ,</w>
w on
er ic</w>
0 ),</w>
v or
pri me</w>
person agens</w>
i x</w>
c t</w>
anunci ou</w>
ênci a,</w>
i di
h it</w>
en fr
sol di
mon ths</w>
eng th</w>
as "</w>
a )*</w>
n es</w>
moun tain
ich ,</w>
el é
cul tura</w>
care er
baix o</w>
yor k,</w>
resul tado</w>
portugu ese</w>
fran ça</w>
countri es</w>
ch or
s ak
fac il
t 's</w>
lan des
common ly</w>
rel ativ
com b
ad ri
ac cep
8 5
ó s
vol um
gu e
is ab
fr ag
ando -se</w>
net work</w>
fr ente</w>
thou ght</w>
stre et</w>
gi ve</w>
fr es
ol óg
bri an</w>
poss ível</w>
formul a</w>
cir cu
=== o</w>
pres s.</w>
clas se</w>
sk i
sof t</w>
si on,</w>
anton io</w>
graph ic
es te
fri end</w>
em plo
consegu iu</w>
b la
we ap
f ase</w>
democr atic</w>
associ ated</w>
199 0</w>
tr avel
system s</w>
prov ed</w>
é ia</w>
spe ak
it or
est ação</w>
con ta</w>
col oni
bo s
an da</w>
" de
pro test
it o,</w>
byzant ine</w>
suc cess</w>
própri a</w>
ent rou</w>
ch all
b ill
at ório</w>
ur u
9 ).</w>
199 3</w>
lu í
d ge
ch en
torn ar</w>
gu in
desem pen
v i</w>
par l
bi o</w>
si a.</w>
l er,</w>
fil ip
dre am
=== in</w>
form as</w>
for te</w>
af ter
vis to</w>
p ad
him .</w>
d )</w>
mo tor</w>
equiv al
elen co</w>
commit te
c ing</w>
an y
8 ).</w>
n er,</w>
mas cul
fl ori
en vir
4 ,
hab /km².</w>
for ced</w>
at óri
son s</w>
k az
don 't</w>
dis co</w>
continu ou</w>
servi ço</w>
j uni
for d,</w>
cl á
ch as
" :</w>
tion "</w>
le 's</w>
is i
áfr ica</w>
orb ital</w>
movi e</w>
k id
deix ou</w>
cen do</w>
ba h
stand ing</w>
respon si
k ev
b ig
é ric
nov as</w>
liv ed</w>
k ent
her o
envir on
da m</w>
graphi c</w>
and .</w>
al ia</w>
0 *</w>
pl a</w>
des t</w>
bir d</w>
á vel
pequen a</w>
nav al</w>
success ful</w>
le gi
ex er
c a.</w>
8 0</w>
ven ce
faix as</w>
can ções</w>
á n</w>
== see</w>
plant s</w>
ly ric
h t
ch i</w>
mon te</w>
go d</w>
==references ==*</w>
univers al</w>
co n</w>
cab e
( consul
war ,</w>
il l</w>
5 *</w>
out side</w>
compo sed</w>
mas s</w>
ev ents</w>
er e
v es
t z
p ing</w>
lead er</w>
is ol
0 ).</w>
pro jet
me xi
ken ne
a fe
4 *</w>
kil led</w>
influ ência</w>
gol d
fos se</w>
com um</w>
br y
a tribu
- *</w>
tro u
dis put
produzi do</w>
on line</w>
nov os</w>
n ative</w>
am i</w>
ai l</w>
5 9
( m
tradi tional</w>
o ito</w>
mag ne
á tico</w>
to c
por ém</w>
identi fic
femal e</w>
des cr
oper a</w>
kar l</w>
u se
in as</w>
turn ê</w>
r av
group s</w>
dif fic
di vis
v ai</w>
ten nes
paul o</w>
fund ament
d í
canadi an</w>
reg im
di e
colo mbi
==== references
== em</w>
us ada</w>
trabal hou</w>
fif a</w>
commun ity</w>
al s,</w>
al bert</w>
rain ha</w>
pl as
d 's</w>
con cor
( with</w>
year s,</w>
un a</w>
st ro
sh ak
8 7
of f
op s</w>
ent al</w>
appear s</w>
ad ul
tex to</w>
ou ,</w>
heav y
en ded</w>
americ ana</w>
tu red</w>
pro cur
me ans</w>
frequen temente</w>
film s</w>
con vi
worl d.</w>
pe ,</w>
in o,</w>
gastro pod</w>
chang ed</w>
e ur
des ,</w>
at ory</w>
al ways</w>
4 ).</w>
. com
it h</w>
fi re
att ack</w>
r at
ir a,</w>
elec tron
mon o
ma h
influ ence</w>
em pre
cur so</w>
y l
tex t</w>
exis tem</w>
dr ag
book s</w>
ador .</w>
200 2.</w>
zon a</w>
mo b
in es</w>
cre di
cl au
al an</w>
on to</w>
mas ter</w>
mar ket
6 7
reg ular
eliz abeth</w>
dar k</w>
be hin
priv ate</w>
municipaliti es:</w>
ma ck
fran ce,</w>
dire ito</w>
busin ess</w>
== ligações</w>
ti an</w>
e ch
ár ab
windo ws</w>
su éci
k -
g ia</w>
ap or
2 2
ç a,</w>
km² .</w>
co de</w>
3 2</w>
lo r</w>
gas tró
divers os</w>
" in
vic e-
famil i
p -
no vel</w>
n ão-
go od
ev ento</w>
termin ou</w>
chic ago</w>
mad on
do g
dest roy
( also</w>
fin d</w>
lad y</w>
importan tes</w>
fund ada</w>
y ".</w>
ro c
ful ly</w>
pres s</w>
mo do</w>
z u
voc als</w>
mad ri
ic ,</w>
( ),</w>
previ ously</w>
poli tici
lo y
co ro
b it</w>
ata que</w>
s le
el o
colle ction</w>
"b ill
te or
id ,</w>
com unidade</w>
bro wn</w>
ra il
lanç ada</w>
co ast</w>
ath le
== demo
nor te,</w>
econ ô
e dif
wat er.</w>
steph en</w>
po u
im o</w>
cri min
al ready</w>
j an</w>
a te,</w>
tam an
sh ap
divers as</w>
cap tur
y :</w>
sh u
public ado</w>
co log
de fes
cru z
( 15
land s</w>
ber ,</w>
=== em</w>
ven ceu</w>
ti al</w>
r ab
mun do.</w>
jap ão</w>
es s,</w>
con de</w>
be yon
produ tor</w>
d il
ti es.</w>
super fíci
e w
swe dish</w>
pal ace</w>
o :</w>
min er
ec er</w>
divi ded</w>
cas amento</w>
201 4</w>
st ated</w>
respon s
em in
álb uns</w>
ki m</w>
cro s
a ul
lond on,</w>
d ó
ativ os</w>
ing les
al ed</w>
se j
f o</w>
ensis "</w>
us ar</w>
sh el
ar ts</w>
a cion
w as
seguin te</w>
men or</w>
hon or
gir l</w>
element os</w>
astron om
arti st</w>
ant ,</w>
iro ,</w>
er y</w>
confl ic
studi es</w>
n d</w>
man .</w>
je an-
de v
we al
sul .</w>
res ol
li k
are as</w>
natur e</w>
inste ad</w>
expl ic
1 :
á ci
mús icas</w>
ab r
1 st</w>
washing ton,</w>
str a
limi ted</w>
is on</w>
fór mul
dg e,</w>
am ente.</w>
wal ter</w>
vent u
ti veram</w>
ro w</w>
heavy weight</w>
dire itos</w>
3 0,</w>
t y.</w>
h .
fu ture</w>
200 3.</w>
r ho
país es:</w>
le tr
est ende
em e
actr ess</w>
tech ni
tak es</w>
har mon
con jun
con cep
ber li
2 2,</w>
ti ,</w>
t wo
play ers</w>
i v</w>
cri ação</w>
behin d</w>
um in
tion ed</w>
ti o</w>
i dae</w>
" v
scienti fic</w>
pon tos</w>
mic hig
lín gu
com ent
10 0
v ista</w>
ta king</w>
man "</w>
j um
ist .</w>
form al</w>
ar mas</w>
am az
soci edade</w>
inici almente</w>
in titul
chil d</w>
superi or</w>
studi ed</w>
p age</w>
la w
cl es</w>
ak a</w>
trop as</w>
ric h
o ph
fe ,</w>
con feder
ri ,</w>
ji m</w>
ja co
fir e</w>
ci ties</w>
ênci a.</w>
á .</w>
st af
por ém,</w>
open ed</w>
esp aço</w>
ac u
p ico</w>
o p</w>
( 189
pi ano</w>
event os</w>
ad .</w>
ter ed</w>
oc cu
he in
construc tion</w>
cal cul
tra de</w>
o to</w>
simpl y</w>
sa y</w>
ly n
en temente</w>
comun ic
ab aix
re ci
ma chin
glo bal</w>
*" bulbophyllum</w>
águ a.</w>
sex u
dist ingu
co is
th r
pro t
on -
jack son</w>
escrit or</w>
con dados</w>
cen a</w>
r é
cro ss</w>
ban k</w>
as se</w>
we b</w>
ta de</w>
ro se</w>
gastró pode</w>
198 0</w>
sex ual</w>
re n</w>
públ ico</w>
de ver
*" the</w>
( d
dy nas
do ug
di z</w>
ament o,</w>
h an</w>
es co
com ed
su pre
londres ,</w>
h ir
form ing</w>
tu re,</w>
su fici
n ica</w>
ity )</w>
faix a</w>
c and
addi tion</w>
199 9,</w>
ton y</w>
leg al</w>
andre w</w>
tu do</w>
med ical</w>
fab ric
deno min
ad e
tex as,</w>
go s
fe ita</w>
fac tor
estu dos</w>
bo b</w>
bar cel
allow ed</w>
y s
vo ic
ro r</w>
en os</w>
di ag
i da
elec tric</w>
ban de
estende -se</w>
en "</w>
el o</w>
campan ha</w>
im medi
ex tin
d *</w>
conheci mento</w>
character s</w>
b es
:: ::
tur al</w>
sil v
fer n
cas ion
an os
air craft</w>
: formula_
5 8
2 1,</w>
year .</w>
mollus k</w>
lu z</w>
le o
es es</w>
dr al</w>
an i</w>
200 1.</w>
199 1</w>
pen n
lin col
famil y,</w>
2 4,</w>
to k
industri al</w>
form ada</w>
car go</w>
to wards</w>
mo tor
er *</w>
av es</w>
"* ::
tur as</w>
lu x
d ings</w>
awar ded</w>
2 5,</w>
t )</w>
it áli
h ag
el ements</w>
bas s</w>
seri es,</w>
se y</w>
n ature
fa to</w>
=== 2000</w>
ti pos</w>
n g
col labor
co oper
struc ture</w>
sna il,</w>
other s</w>
especi al</w>
centur y.</w>
bras il</w>
on e,</w>
ent a</w>
dy nam
carol ina</w>
repor ted</w>
census ===as</w>
up per</w>
uni do</w>
ste in
righ ts</w>
i ria</w>
b ang
198 9</w>
" )*"
ti co,</w>
pre fer
fo x</w>
itu de</w>
h ori
de al</w>
indi ano</w>
he art</w>
des se</w>
br ad
bio grafia</w>
íci a</w>
t ac
pr us
na po
h ong</w>
assi m,</w>
arth ur</w>
fun ction</w>
direc t</w>
manu fac
m ó
j el
brit ânico</w>
br in
201 3.</w>
trabal hos</w>
pri ze</w>
ol a</w>
capa z</w>
sub tropical</w>
qu ia</w>
gover nor</w>
fo to
desco bri
abo ve</w>
st ,</w>
form er
fil e</w>
campe ão</w>
blo od</w>
war .</w>
offici ally</w>
is s
inv as
as sem
ab ly</w>
6 ).</w>
commer cial</w>
stat us</w>
seguin te,</w>
re cus
na qu
g abri
ex ibi
de b
rel ações</w>
f .
exec ut
york :</w>
trabal har</w>
se melh
re qu
per ce
mar k
cri ar</w>
br a
po pe</w>
great est</w>
alem ã
sp ace
mov ement</w>
go t</w>
cri ada</w>
cr y
con sis
ay ed</w>
ari es</w>
popul ar
high est</w>
euro p
ent os</w>
di o,</w>
y n</w>
signific ant</w>
se e
r af
govern ador</w>
especi fic
y el
princes a</w>
ni co
f ight</w>
califor nia</w>
australi an</w>
201 4,</w>
open ing</w>
mi gr
elec tro
u d
play station</w>
geor gi
com ando</w>
bro ok
addi tional</w>
ste in</w>
j ú
island s</w>
eng land</w>
b on</w>
angel es,</w>
wh it
tim os</w>
high er</w>
de bu
particular ly</w>
i rel
h ic
conqu ist
ar i</w>
ach u
a pol
w a,</w>
tele vis
n ap
gro und
capa cidade</w>
ti es,</w>
pun k</w>
estr ang
es ia</w>
ed s</w>
bis po</w>
< br
wan ted</w>
ser em</w>
roman ce</w>
mon d</w>
lar ger</w>
jor ge</w>
ger s</w>
er ed</w>
ent es,</w>
as :</w>
pr o</w>
hol d</w>
den ,</w>
9 9
g li
estre ou</w>
e o
có di
suf fer
prov avelmente</w>
natur ais</w>
de cre
to -
re gr
pro por
l é
jer us
in come</w>
arti sta</w>
recu per
mari e</w>
invol ved</w>
hil l</w>
x "</w>
per son</w>
is tic</w>
g ig
pi e
melh ores</w>
sub st
mid -
estu dou</w>
dut ch</w>
==referências ==*</w>
treat y</w>
su n</w>
recor ds.</w>
fe ature</w>
2 8,</w>
win ning</w>
tem po,</w>
h is
en 's</w>
pro mis
kent uc
individu al</w>
su ger
pe ace</w>
inter est</w>
al ph
ii "</w>
bru ce</w>
t ag
sett le
pier re</w>
ing s,</w>
u el</w>
re cen
med al</w>
fe it
f á
exem plo</w>
poin ts</w>
in os</w>
ger many</w>
g an</w>
aleman ha,</w>
== geo
r hy
ph er</w>
n esta</w>
min as</w>
le o</w>
h all
ani a,</w>
univer si
nation s</w>
enter ed</w>
companh ia</w>
vit óri
utiliz ado</w>
sho t</w>
d y,</w>
s ér
s par
relation ship</w>
initi ally</w>
fil ho
an s.</w>
sequ ência</w>
produc er</w>
per m
da y.</w>
can al</w>
ber lin
an te.</w>
r a.</w>
pr en
mar c
car l</w>
j as</w>
8 6
( com</w>
re com
lin es</w>
jour nal</w>
b ai
z a,</w>
sol ar</w>
min or</w>
d :</w>
beli eved</w>
al s.</w>
te atro</w>
es ;</w>
en e</w>
apro v
: "
198 8</w>
p ack
min nes
b ar</w>
ro o
li ve
jog adores</w>
5 4
tru e</w>
s car
res olu
ne ther
ligh t
l i</w>
re ver
nar r
mu seu</w>
ant es,</w>
199 8,</w>
star t</w>
qu ad
gr a
sel f-
par que</w>
mul her</w>
mo mento</w>
mar y
ap par
uru gu
prime iras</w>
liber t
featur ing</w>
exam ple</w>
be coming</w>
vil le,</w>
on t
kev in</w>
c ai
am ent</w>
== bio
( o</w>
bel l</w>
aç ões,</w>
altitu de</w>
pesso a</w>
imple ment
7 0</w>
sil ver</w>
s atis
fac ul
comple x</w>
17 4
posteri ormente</w>
n 't</w>
cidad e.</w>
back ing</w>
0 s.</w>
pap a</w>
m -
l ang
fer r
faz endo</w>
1 )*"
region al</w>
in fin
bil ity</w>
7 ).</w>
" ho
y ed</w>
re de</w>
pa tr
ox ford</w>
mo us</w>
bl an
se "</w>
provi ded</w>
d ores</w>
3 6</w>
wo man</w>
franch e-
" po
marri age</w>
estrel as</w>
cen so
2 7,</w>
( as</w>
paí s.</w>
class ical</w>
chin a,</w>
aju da</w>
5 ,
2 6,</w>
t au
s u</w>
pas -de-
pas-de- cal
la ur
form ado</w>
be hav
v lad
secre t</w>
20 th</w>
ph ili
ho st</w>
franche- com
el li
am os</w>
alg um</w>
é mica</w>
wo men</w>
k as
gi c</w>
et y</w>
censo -design
ári o,</w>
in fec
est ,</w>
chem ical</w>
br and
ad ded</w>
tor nar
reti red</w>
life ==
iro n</w>
산 ;</w>
tem a</w>
sp ent</w>
norm almente</w>
en ças</w>
censo-design ada</w>
apar ece</w>
tre s</w>
p si
m ing
h es</w>
experi en
es quer
6 6
( que</w>
ro ger</w>
spe ed</w>
n ações</w>
me et
h ai
cau sed</w>
amoun t</w>
ag o,</w>
scre en
h ell
estadunid ense</w>
bure au</w>
s pen
qu e.</w>
pl ano</w>
pe ix
hau te-
começ aram</w>
b -
al )</w>
tu re.</w>
pol ice</w>
ne ws</w>
mo ve</w>
laun ched</w>
educ ation</w>
a pos
7 *</w>
í dos</w>
l ago</w>
ic amente</w>
estu do</w>
cham pi
c )</w>
ar rang
" sh
ôn ica</w>
os as</w>
bo a</w>
ser ve</w>
not es
mo ther
k un
clá ss
am e</w>
3 :</w>
signific a</w>
run ning</w>
gu ine
an as</w>
al iment
-l he</w>
un ds</w>
tur k
sele ção</w>
me tro</w>
e iros</w>
y n
val or</w>
tan to,</w>
s lo
per deu</w>
min ist
austri an</w>
" e
vi aj
moun tain</w>
king do
gen e</w>
cal end
z o</w>
us "*"
to s
regi ões</w>
jon es</w>
fil m,</w>
in aug
cze ch</w>
vie ws</w>
sch les
ko w
en te
wil hel
ship s</w>
realiz ado</w>
col abor
cap e</w>
re view
composit or</w>
3 3</w>
** **</w>
ment o,</w>
m í
m r.</w>
gre ater</w>
es pa
an at
quali fic
l ac
im ig
aci ma</w>
7 )*"
10 .
you "</w>
venezu el
t .
pri mary</w>
orqu estr
mon ey</w>
/ 0
vol tou</w>
organiz ation</w>
me asu
i medi
fil mo
códi go</w>
comple ted</w>
ó gi
h i</w>
earli er</w>
disco ver
cru z</w>
cor te</w>
vers ões</w>
pro min
dis ci
con gres
2 3,</w>
ter ms</w>
numer ous</w>
nam es</w>
austr áli
198 4</w>
ti m</w>
sur roun
ocorre u</w>
mis sou
du bl
d ando</w>
cul p
( municipal
"bill boar
t us</w>
princi pal
g us
be ,</w>
star ting</w>
ro y</w>
jas on</w>
et te</w>
en se.</w>
cri tical</w>
attemp t</w>
ar ma
sp ac
iz ed</w>
et .</w>
si an</w>
r ado</w>
jo se
ele tr
am éric
( 18
sof ia</w>
op ini
l ul
des sa</w>
b ay</w>
sur face</w>
nigh t
mat the
econom ia</w>
== "
entre tanto,</w>
compos to</w>
== de</w>
( -
tit led</w>
qu ím
prot agon
pequen o</w>
mel hor
figh ting</w>
des .</w>
amig o</w>
199 9.</w>
ur ban
um ent</w>
micro soft</w>
in spi
h l
gi ov
ger ,</w>
chang es</w>
aná lis
enfr ent
== external</w>
% )</w>
t á
n ine</w>
h es
fun dado</w>
th -
padr ão</w>
m igu
f y</w>
espan ho
2 9,</w>
(municipal ity)</w>
ph al
je f
fif th</w>
cro ss
sk y
end émica</w>
defin ed</w>
úl timos</w>
reg ul
dr aw
an ni
9 0</w>
tr ad
tho log
s cor
pris on
im a</w>
trans l
the at
pl os</w>
liv ros</w>
technolog y</w>
probab ly</w>
ori as</w>
in sul
ch en</w>
c .,</w>
k re
institu to</w>
der am</w>
b ad</w>
9 )*"
6 *</w>
mediev al</w>
enti re</w>
ent es.</w>
descri p
christo pher</w>
t um
n em</w>
med alha</w>
i re
fórmul a</w>
cre ate</w>
ar em</w>
v e,</w>
p he
main ly</w>
ic ally</w>
di visi
co t
tr ap
remain s</w>
r d</w>
o cor
nic hol
bi um</w>
zi do</w>
tic ally</w>
man us
al eg
199 7,</w>
sy d
swit zer
loc ais</w>
cd p</w>
" d
suc ce
s atur
pr agu
pr acti
m ico</w>
pri or</w>
he at</w>
em erg
contr ato</w>
ch ing</w>
acab ou</w>
' ,</w>
u d</w>
ne -
ir ,</w>
ill a</w>
gl as
fin almente</w>
ele ito</w>
apresent a</w>
tur n</w>
tim ate</w>
ter mos</w>
sh er
r ing
pli ed</w>
p ati
la ho
ho ly</w>
fu tur
com pr
ches ter</w>
auth or</w>
to ky
qu ick
no mes</w>
k le
former ly</w>
ati vely</w>
r ,</w>
g ado</w>
di al
cap tain</w>
band 's</w>
album s</w>
portug al</w>
li on</w>
in fr
atu a</w>
ad am</w>
8 8
val ley</w>
so m</w>
most ly</w>
hosp ital</w>
forma tion</w>
estima ted</w>
co vered</w>
inter view</w>
i bn</w>
ad dres
ab solu
5 )*"
2 nd</w>
wo men's</w>
st al
chin a.</w>
arqu iv
t ante</w>
mak es</w>
ma d</w>
g at
c tu
2 "</w>
vi a,</w>
team s</w>
an ces
) ===</w>
( re
near ly</w>
fil hos</w>
car bon
ass un
ar y,</w>
8 )*"
4 5</w>
vis ual</w>
sub -
russi a</w>
com posi
198 5</w>
" dendro
w es
territ ory</w>
sto ck
ofici almente</w>
let ter</w>
f ish</w>
bil ly</w>
ur ban</w>
q ü
prime iro
fon te</w>
contr at
consist s</w>
ok laho
k es</w>
fin ally</w>
aliz ação</w>
a o
ro om
r ace</w>
ne gr
d ada</w>
bre tan
viv o</w>
kin s</w>
franc is</w>
e igh
din as
ament o.</w>
2 )*"
us tri
s pain
pl y</w>
fr u
fig u
char t</w>
bat al
b a,</w>
ain e</w>
" ep
" de</w>
ze al
t at
sus pen
dav e</w>
bel ong
u l</w>
resul ts</w>
pesquis a</w>
own ed</w>
mon te
mean ing</w>
nic as</w>
ess as</w>
as tro
align=center _
ak i</w>
them .</w>
ter s,</w>
t able</w>
n -
li t</w>
ent ão,</w>
an te,</w>
é li
str ate
pol ish</w>
l t
gr ad
du ch
de ad</w>
appear ance</w>
sis ter</w>
secur ity</w>
post os</w>
mulher es</w>
john ny</w>
co as
an ças</w>
aliz ed</w>
álb um,</w>
ug h</w>
sel l</w>
ple uro
o le
m ight</w>
aero porto</w>
aer on
; *</w>
( ="
pa z</w>
nor theast</w>
mu dou</w>
in imig
cul ture</w>
c all</w>
ham ,</w>
freder ick</w>
del eg
títul os</w>
dr um</w>
bu enos</w>
inv ent
guil her
est at
com posta</w>
==== ==</w>
str ong
se ction</w>
palav ra</w>
indepen den
hist ór
fon tes</w>
dou ble</w>
con sci
õ es
u kr
são :</w>
nenh um</w>
g es</w>
199 6,</w>
so ph
ro me</w>
re f
norm al</w>
irm ã</w>
im ento</w>
es s.</w>
ad es
198 7</w>
mat t</w>
en cyclo
câ mar
conheci dos</w>
rapid amente</w>
ho us
competi tion</w>
cl am
c z
5 :</w>
198 6</w>
ü n
tur ned</w>
tro ops</w>
ste l
il h
represent a</w>
publ is
patric k</w>
p us</w>
al fred</w>
201 0
( b
us ",</w>
luí s</w>
lom bar
guitar r
fin ished</w>
( h
whe ther</w>
seman a</w>
lu d
ill ustr
en em
eiro .</w>
aç ões.</w>
art ís
( k
rús sia</w>
ot to
mal e</w>
id s</w>
for mou</w>
ed ades</w>
ap ren
v a
s mo
it o
illino is,</w>
i k
da "</w>
cap ita</w>
<br >
197 0</w>
tu do,</w>
g es
exist e</w>
de man
all -
air port</w>
ac ts</w>
mon tre
ar gu
am or
pr ac
pa y
com pri
track s</w>
them sel
s anto</w>
mem or
man ter</w>
langu ag
deci diu</w>
ang e</w>
tri bun
s bur
fl ag
arti cle</w>
3 00</w>
197 6</w>
-design ated</w>
un it</w>
se -
s a,</w>
census -designated</w>
cambri dge</w>
ân dia</w>
velo cidade</w>
ra w
com é
car reg
ant es.</w>
sho wn</w>
cu ri
campa ign</w>
appe ar</w>
an "</w>
199 0,</w>
( cd
se x</w>
o logi
not able</w>
gar den
te les
r ate</w>
em s</w>
derro t
bor ough</w>
an ce,</w>
4 )*"
3 8</w>
tan e
ale x</w>
200 8
tol d</w>
o .
joh ann</w>
it self</w>
is lam
199 2,</w>
í vel
ven s</w>
presen ça</w>
ht m
a tre</w>
sci mo</w>
pe qu
jour nal
je ff</w>
j r.</w>
gre e
fr ac
braz il</w>
ator s</w>
arg ument
an ces</w>
ne ed</w>
n h
ex ig
ex hi
cour se</w>
committe e</w>
mex ico</w>
g ina</w>
wa y,</w>
ta "</w>
reve aled</w>
re uni
pri mar
ph as
mar gar
desenvol vido</w>
mass achu
is s</w>
bel o
av en
voc ê</w>
proble ma</w>
o ds</w>
liv re</w>
flow ering</w>
es por
d ico</w>
6 8
( g
un idades</w>
stand ar
col leg
anth ony</w>
m ú
ex tr
dr af
cr at
ace it
spor ts</w>
selec ted</w>
segur ança</w>
mar ket</w>
at aqu
wat er
star ring</w>
sh a
result ados</w>
pré -
mo log
me tade</w>
constru ído</w>
am ed</w>
sim on</w>
shor tly</w>
apar e
separ ate</w>
s am</w>
franç a,</w>
de pres
bo b
=== *"
3 )*"
wrest ling
ser á</w>
lon ger</w>
ex teri
cer tific
atlan tic</w>
==demo graphic
penn syl
ex cep
ay a</w>
"*:: ::</w>
ou -
nov el
" w
line ar</w>
lin d
k in</w>
i z</w>
fac t</w>
exten ded</w>
espe cí
de cré
concer t</w>
car t
ber k
au x
199 5,</w>
" rus
us ados</w>
re cent
mundi al.</w>
inter esse</w>
guitar ra</w>
forma r</w>
a "*</w>
su d
major ity</w>
los s.</w>
lo o
h und
fin al
bor der</w>
ann i</w>
um ents</w>
habit at.</w>
fer a</w>
bu ck
st atis
re cent</w>
men cion
di ,</w>
ameaç ada</w>
( 188
sobre vi
jew ish</w>
decré scimo</w>
c á
vo ice</w>
t *</w>
p s
men ,</w>
ho od</w>
defes a</w>
ve y</w>
sto p</w>
ocident al</w>
fic ar</w>
cin tura</w>
caracterís ticas</w>
ai m</w>
afir mou</w>
5 3
w ag
ti co.</w>
republic .</w>
mach ine</w>
es *
cy cl
"billboar d"</w>
v s.</w>
si cos</w>
pr ati
pas sed</w>
nic k</w>
f light</w>
comed y</w>
19 th</w>
" l
system .</w>
sen ,</w>
schles wig
moun t</w>
ell ,</w>
come ça</w>
c -
worl d,</w>
ve hic
kno w</w>
hid ro
ch el
bas ket
at amente</w>
sym phon
school ,</w>
s ím
fiel d,</w>
en s
di c</w>
stadi um</w>
mo dific
me tal
4 00</w>
vari ety</w>
tho us
me i
magaz ine</w>
m assi
go th
ation "</w>
m tv</w>
de "</w>
superfíci e</w>
revolu ção</w>
par ece</w>
orient al</w>
ni col
n au
fri ends</w>
en or
comm and</w>
also ==*</w>
" no
we ek</w>
or tho
med al
brother s</w>
bb c</w>
b i</w>
s k</w>
res pe
no ted</w>
mass a</w>
dav is</w>
competi ção</w>
chan nel</w>
" ar
tent ativa</w>
tay lor</w>
taman ho</w>
so ul
s ad
s =====
realiz ada</w>
p t</w>
n é
lin u
ex cept</w>
17 0
ári o.</w>
william s</w>
servi ços</w>
ro om</w>
love "</w>
198 2</w>
0 )*"
" con
suppor ted</w>
edit or</w>
da d</w>
speci fic</w>
ko v
jaz z</w>
inv asi
britân ica</w>
5 2
wid ely</w>
te cl
m ia</w>
efe itos</w>
can tor</w>
an u
200 9
phili p</w>
per u.</w>
mix ed</w>
mic hel
mi x</w>
loc k</w>
libr ary</w>
in e.</w>
da to</w>
cor on
" ".</w>
perm ite</w>
youn ger</w>
servi u</w>
event u
al ab
wil d</w>
tri ple</w>
qu í
particip ação</w>
london :</w>
sh i</w>
s mal
regis tr
l an</w>
fo od</w>
está dio</w>
estre ia</w>
com it
c ípi
au ton
administr ative</w>
academ ia</w>
us i
prin cípi
bre ak</w>
ab sor
4 3
sur -
n ing
it o.</w>
artist as</w>
ann ual</w>
al )**</w>
semi -
rest or
de tail
con fron
ber lin</w>
y l</w>
pri m
paci fic</w>
os "</w>
nomin ated</w>
l es.</w>
instr uc
in habitant
dis posi
av o
sou theast</w>
sch l
pre -
lo ok</w>
bas ic</w>
ôni o</w>
valu e</w>
simpl es
sch e</w>
rul e</w>
ir amente</w>
for est
produ ce</w>
pre ci
par ad
ol der</w>
nenh uma</w>
ne y,</w>
leav ing</w>
an 's</w>
po se</w>
ma tri
itali ano</w>
henri que</w>
fa ther,</w>
e e</w>
compan i
an ia</w>
196 0</w>
web site
vlad im
tur ri
t :</w>
se quen
pres sure</w>
po e
inglater ra</w>
col ô
pe ar
inter nation
initi al</w>
influ enci
id el
f an</w>
ec u
con gr
riv al</w>
primar ily</w>
langu ages</w>
ho me
== early</w>
7 6
198 1</w>
yo ung
u ef
perman eceu</w>
north west</w>
john son</w>
e a</w>
á ustri
tex as</w>
m i</w>
gu n</w>
fel t</w>
bas tante</w>
psy ch
man eira</w>
isra el
in clus
di dos</w>
alis mo</w>
the atre</w>
sof t
schleswig -
pe tro
number s</w>
n ers</w>
man do</w>
l y.</w>
imp ac
espan hol
conce ito</w>
b ap
tr ig
town .</w>
r í
i ri
holly wood</w>
g la
en ough</w>
decis ão</w>
classific ação</w>
ay s</w>
as ked</w>
obje tivo</w>
ma x
i' m</w>
be at
associ ação</w>
==demographic s==
pro s
pe ak
nov em
ima ge</w>
" co
w ant</w>
seri es.</w>
respons ável</w>
r up
mexic an</w>
d as,</w>
ca the
abaix o</w>
ug g
tic s,</w>
tamb ém
plan et</w>
n i</w>
ist a.</w>
er o</w>
degre e</w>
bo ston</w>
199 4,</w>
( b.</w>
" t
spr ing
ro bin
p ent
ho st
har v
direc tor
é is</w>
s ão,</w>
ro ad
es qu
com mission
8 9
u e</w>
sol dados</w>
recor ds,</w>
know le
al as
a í
ti da</w>
pre v
educ ação</w>
d one</w>
r &
on ia</w>
es '</w>
califor nia,</w>
c i</w>
b au
ant a</w>
th el
sum mer
rá pi
proble m</w>
pre ce
lingu agem</w>
gr éci
d d
b í
ac tions</w>
6 )*"
who le</w>
v ão</w>
tribu t
ni kol
g ó
flor estas</w>
av o</w>
ain s</w>
tur ing</w>
trans port
speci fic
smal ler</w>
mar ca</w>
g ö
effec ts</w>
vir gin
them e</w>
p y</w>
hor as</w>
fec t</w>
) :
stor m</w>
plan ej
númer os</w>
neg ó
gh ,</w>
as ==
ar men
ac es
king s</w>
go t
din am
ang ol
heal th</w>
bron ze</w>
all is</w>
a f</w>
a ")</w>
" sing
th at
mathema tical</w>
li gen
k u</w>
itu al</w>
ho s
fried rich</w>
scen e</w>
r y,</w>
isra el</w>
sa ú
qui ri
mon th
camin ho</w>
on e
napo le
contin ental</w>
con cept</w>
anim al</w>
ani an</w>
2 )*
" di
vo z</w>
p ia</w>
mudan ça</w>
ma ce
lu ci
l s</w>
atten ded</w>
ac cess</w>
19 20
, *</w>
th m</w>
system ,</w>
ph or
is so,</w>
cri ou</w>
v al</w>
ul ti
copi es</w>
b ic
( como</w>
wor ds</w>
tr az
po vo</w>
ot a,</w>
n .
indus try</w>
evi dence</w>
encontr ar</w>
en ce,</w>
e to</w>
champi on</w>
6 9
vel mente</w>
tem ple</w>
sím bol
st ad
sam uel</w>
n ad
madon na</w>
bir th</w>
ap h
proble ms</w>
por tr
199 1,</w>
16 8
(cd p)</w>
ty pic
or es,</w>
oper ation</w>
língu as</w>
ish ,</w>
effec t</w>
derro tou</w>
declar ed</w>
" cr
t an</w>
no ite</w>
ma c</w>
in i</w>
fil o
ev a</w>
contempor ary</w>
cin em
cent uri
adop ted</w>
978- 0-
6 5
k im
i des
ham il
ris e</w>
ri a,</w>
go al
cir cul
chem is
( 3
n a.</w>
k ö
grap h</w>
dinas tia</w>
arm s</w>
7 8
wh ich,</w>
ur ,</w>
s pre
or dered</w>
kin d</w>
fla g</w>
ec em</w>
cas i
6 ,
possib ly</w>
migu el</w>
le i
irm ãos</w>
est -
e _
dom ínio</w>
6 4</w>
16 0
" le</w>
óri os</w>
ã ,</w>
se bas
roll ing</w>
pol ici
med iter
i ted</w>
cro wn</w>
con clus
ado -
" new</w>
pú bli
lu is</w>
loc ation</w>
ju dic
ed "</w>
competi u</w>
4 8</w>
ur a,</w>
i um</w>
f an
bri dge</w>
artist s</w>
al go</w>
ô s</w>
lo ss</w>
k er,</w>
execu tive</w>
eng ine</w>
de u
de tal
afr ica</w>
viet nam
s anti
rac ing</w>
ph one</w>
ne v
lik ely</w>
la wr
h ans</w>
cus to
ch air
car din
b in</w>
as pis
wilhel m</w>
vic tor</w>
primeiro -
per cus
multi ple</w>
inten ded</w>
in side</w>
ici dade</w>
finan ce
comun as</w>
au tor</w>
ac ting</w>
ver sions</w>
no bel</w>
l -
com ér
actu ally</w>
imp act</w>
har ris
finan cial</w>
f est
b ach</w>
al idades</w>
9 5
y et</w>
two -
tec nolog
seas on.</w>
i e
hy po
gal á
econo mic
direc tly</w>
conse cu
altern ative</w>
tan z
str ia</w>
fi z
con fi
tor re</w>
premi er</w>
jim my</w>
de cl
cin e
cer em
ben jam
as ia</w>
ó n
tiv as</w>
responsi ble</w>
on a,</w>
life .</w>
in ven
disci pl
consider ada</w>
x x
val e</w>
provi de</w>
propri edade</w>
manag er</w>
k os
d as.</w>
b c</w>
( un
os car</w>
califór nia,</w>
cab o</w>
z im
ric k</w>
re plac
gar am</w>
fe ch
do -se</w>
album .</w>
" ch
ó per
wor th</w>
to day</w>
re presented</w>
pro fun
gram my</w>
en a,</w>
ber g.</w>
also ==*
victor y</w>
u t</w>
tr ilha</w>
neigh bour
ne o
manag ement</w>
le it
g -
ç ões,</w>
power ful</w>
pho en
hori zon
grav ação</w>
gmin a</w>
espan ha</w>
distribu ição</w>
da tes</w>
199 7.</w>
" ro
the astern</w>
segu ida,</w>
s /
requi red</w>
nego ci
n on</w>
i al</w>
he im
decis ion</w>
197 8</w>
) #
x o</w>
tor na</w>
re pres
quanti dade</w>
lo -
in dia</w>
bar bar
an fí
am or</w>
acti vi
) #"
ty pes</w>
seas on,</w>
parti l
high -
h and</w>
di zen
cro w
compan y,</w>
ar ran
nes se</w>
mov ing</w>
g .
es cu
entr ada</w>
em bar
6 :
4 2</w>
( and</w>
y ar
ve get
so c
mostr a</w>
ma "</w>
jel :</w>
ind ú
ed ge</w>
co dic
"dendro bium</w>
well -
se arch</w>
pri mi
on e.</w>
lond res</w>
le ave</w>
introdu ction</w>
go og
el le</w>
del es</w>
be comes</w>
_ -
mem orial</w>
m it</w>
j av
be ck
ando -
am on
alis m</w>
tecnolog ia</w>
s cri
s ar</w>
multi -
cidad e,</w>
categ oria</w>
ar re
am a,</w>
198 3</w>
simples mente</w>
high ly</w>
d ents</w>
colo r</w>
v ac
ste in,</w>
ro ma</w>
quer ia</w>
ma z
indú stria</w>
hav iam</w>
de ut
con so
ben ef
é tica</w>
sou l</w>
posi tive</w>
pe .</w>
noru eg
mundi al,</w>
min im
inspi red</w>
har ia</w>
al low</w>
t é</w>
ro und
pa i,</w>
mo on</w>
mar am</w>
hou se,</w>
com is
ci enti
asse mb
al ong
íci os</w>
subjec t</w>
si e
preser v
pesso al</w>
p ar</w>
kore an</w>
kans as,</w>
ho p
cre ation</w>
con stell
" c
simpl es</w>
sec und
pr on
ment o.</w>
la ted</w>
l us
con tudo,</w>
" j
ve c
ro -
pá gina</w>
no ve</w>
nin tendo</w>
neigh bor
mo tion</w>
ital y</w>
ide ia</w>
cópi as</w>
au s</w>
af fair
199 4.</w>
í r
studi os</w>
so fre
pro posed</w>
orch id
ob rig
mes s
merc ado</w>
guilher me</w>
ev angel
at in
7 5
vol un
ste war
r ati
nú cle
ir ish</w>
go es</w>
ex isti
escol hi
consist e</w>
colum bia</w>
base ada</w>
3 7</w>
ve io</w>
torne io</w>
municip al</w>
lew is</w>
hel ped</w>
foot ball
fam oso</w>
don ald</w>
bri g
ai ,</w>
é tico</w>
ste ven</w>
sk i,</w>
schleswig- hol
oc cup
n em
magn itude</w>
k ab
it ália</w>
is m
am pl
1 /
" un
é e</w>
á- lo</w>
us s
tu al</w>
ry an</w>
on s,</w>
o ta</w>
des af
bo di
==demographics== as</w>
" ",</w>
res our
re put
nic k
mar g
l óg
issu e</w>
h ad
ay .</w>
ac coun
z an
sell ing</w>
re conhe
inver no</w>
ingl ê
cat ól
can ada</w>
"rus sula</w>
un its</w>
to do
t ",</w>
re y
ra ised</w>
ke ep</w>
chron ic
198 0,</w>
197 3</w>
situ ada</w>
post -
imag em</w>
cr isti
cam pos</w>
as )</w>
al ice</w>
200 0
sour ce
re tornou</w>
pseu do
dat ab
201 4.</w>
sp ap
sim ple</w>
norman dia,</w>
mat o
indepen dente</w>
for tun
car ri
ad quiri
3 4</w>
r ada</w>
mor ph
issu ed</w>
il e
h ado</w>
uef a</w>
u fc</w>
tournam ent</w>
some thing</w>
res to</w>
e feito</w>
d ang
can cel
key boar
is land,</w>
h ul
giov anni</w>
ad mir
7 ,
virg ini
t ese</w>
ju da
her ,</w>
tw el
ti vel
th u
par ents</w>
ke ep
con den
a e"</w>
í li
w ür
w are</w>
u t,</w>
u cr
pal est
lon ga</w>
liter atura</w>
iro .</w>
hi er
defe at</w>
de an</w>
d á</w>
band ,</w>
anteri or</w>
( também</w>
remain ing</w>
princip al,</w>
pres ence</w>
pol on
k om
ho tel</w>
gi e</w>
el e,</w>
ant .</w>
199 3,</w>
war ner</w>
univers it
th an
new spap
mé todo</w>
fun ções</w>
co r</w>
s )*</w>
rom ê
refer ence</w>
or bit
mo z
char lot
bande ira</w>
th y
th at,</w>
r .,</w>
no tes</w>
militar es</w>
metropolit an</w>
fer ro
ar isto
" z
wor k,</w>
r an</w>
mar .</w>
for tal
d ac
con go,</w>
arti go</w>
4 7</w>
vel ho</w>
v in</w>
pres ente</w>
parl amento</w>
car ta</w>
beau ti
199 5.</w>
199 0.</w>
( 187
( 17
sp lit</w>
par agu
e za</w>
d ",</w>
cre dit
comand ante</w>
aqu it
á sia</w>
wol f
larg ely</w>
e x</w>
dr u
d ary</w>
y an
revolu tion</w>
per spec
oto man
mo ths</w>
is a</w>
ior que,</w>
indepen dence</w>
in o.</w>
gi ving</w>
found ation</w>
fil me,</w>
fig ure</w>
f ai
doc tor</w>
cu jo</w>
cr us
codic e_
ben e
) _</w>
seman as</w>
is e
gro s
fo under</w>
do ll
3 1,</w>
( →</w>
te ca</w>
pa ted</w>
m uni
de pic
anteri ormente</w>
197 9</w>
pó s-
pe dia</w>
jac ques</w>
dedic ated</w>
d um
bud d
a p</w>
s core</w>
s af
re fer</w>
possu em</w>
p ast</w>
ofici ais</w>
indepen dência</w>
immedi ately</w>
de vo
c ô
tw ent
pur su
fav or</w>
( 4
ç a.</w>
th a</w>
stat es
sa ô
quick ly</w>
pleuro th
metho d</w>
lo ok
homen agem</w>
fo ught</w>
vide o
terr or
soft war
si mon
se min
re dor</w>
man n,</w>
car ried</w>
ad os
15 9
1 %</w>
( 0.
profis sion
planet a</w>
in e-
com por
" tr
ã -
sa tell
hou ve</w>
en ces</w>
( t
sim p
o es
music ,</w>
lin has</w>
k s,</w>
fe el
en o</w>
electron ic</w>
elec tion</w>
câmar a</w>
épo ca,</w>
s ap
rá dio</w>
publi cou</w>
prêmi os</w>
ot to</w>
mé di
m ate</w>
liv es</w>
incre ase</w>
inaug ur
in :</w>
g ang
es to
contr act</w>
campa ign
b os</w>
it z</w>
influen ced</w>
episó dios</w>
at trac
al un
aber tura</w>
w ave</w>
ve ter
stan ley</w>
recogni zed</w>
qu est
oper ating</w>
marin ha</w>
her .</w>
fís ica</w>
est en
ef for
e pi
cr on
coun ty
ch ann
basket ball</w>
as tr
arch ae
advan ced</w>
su ec
servic es</w>
north western</w>
ear l</w>
con sequ
as *</w>
* *"
wr ite</w>
w ing</w>
vol t
v ér
indi ví
i do
hour s</w>
him ,</w>
fund ador</w>
al len</w>
wis con
mov ement
mic as</w>
indiví du
increas ed</w>
divis ões</w>
gover nor
ent en
de ep</w>
cen as</w>
c ell</w>
anális e</w>
- -
victor ia</w>
tent ou</w>
t su
mar ked</w>
ima gens</w>
av ali
ativi dade</w>
ari a,</w>
ang le</w>
ter s.</w>
suppor ting</w>
south west</w>
r or
hosp it
gi u</w>
estr at
aç os</w>
no i
es e,</w>
cri anças</w>
contr as
cap tured</w>
bio graphy</w>
wil son</w>
to "</w>
ship ,</w>
ohi o,</w>
lincol n</w>
l um
ele ições</w>
disco very</w>
mob ile</w>
man n
intitul ado</w>
fail ed</w>
escre ver</w>
comple tamente</w>
clas ses</w>
bat eri
" my</w>
í das</w>
wor k.</w>
s h</w>
rein ado</w>
pleuroth allis</w>
par is
o il</w>
me y
descober ta</w>
196 8</w>
" #"
typic ally</w>
terr as</w>
r ug
p d
an a"</w>
( 2</w>
train ing</w>
son 's</w>
re "</w>
pp ing</w>
m )</w>
lis ted</w>
k ong</w>
gi b
estr éia</w>
á ve
wee ks</w>
vi agem</w>
ther ine</w>
roman o</w>
mar ch
har t</w>
dis eas
com preen
cat ar
accep ted</w>
a tem
( f
" ma
promin ent</w>
mem ory</w>
encontr ado</w>
196 9</w>
í ram</w>
well .</w>
subsequ ently</w>
schl tr
refer ência</w>
men te.</w>
letr as</w>
lat ter</w>
hi p</w>
g ill
es có
encontr a</w>
du b
coun ter
ap plied</w>
al de
0 7
wo od,</w>
un it
pr ais
pic ar
no logi
gran t</w>
ex- futebolista</w>
cap ac
a te.</w>
ân gul
x ico</w>
w all</w>
ustr ia</w>
tre e</w>
smi th
ph ere</w>
mun do,</w>
j on</w>
ital y.</w>
ho ward</w>
en ce
distribu tion</w>
capit ão</w>
ari o</w>
( see</w>
ve í
tech n
pre ten
matem á
mar s</w>
fern ando</w>
espa cial</w>
clar k</w>
cho ice</w>
a z</w>
v as</w>
sour ces</w>
o is</w>
mi k
lyric s</w>
ci ência</w>
bi do</w>
tow er</w>
gi ves</w>
fi cos</w>
e v</w>
contain ing</w>
bo m</w>
al ban
a que
philosoph y</w>
má xim
la "</w>
guerr a,</w>
fel low</w>
evolu tion</w>
et c.</w>
do mes
death ,</w>
alg uma</w>
( 14
' .</w>
ukr ain
t ing
r ico</w>
i )</w>
g ained</w>
doug las</w>
di minu
da qu
==geo graphy==
( 186
á ustria</w>
rus so</w>
per mit
or es.</w>
con vers
alem ão.</w>
" an
y m</w>
wh ere
th ur
franç a.</w>
d in</w>
anunci ado</w>
al u
16 6
vill a</w>
sugg ested</w>
ro ch
r ar</w>
pil oto</w>
mb ia</w>
imag in
guitarr ista</w>
g s</w>
es ),</w>
elec tr
chil d
ander son</w>
pragu e.</w>
pl an</w>
k ist
instr u
go al</w>
gam e
dire ction</w>
career ==
bo li
ate d.</w>
te :</w>
peop le's</w>
ov ,</w>
n ation</w>
gu est</w>
fol k</w>
confir med</w>
af lu
st atu
oper ação</w>
n ico</w>
loc k
il a</w>
gi a,</w>
exclus iv
da e
can not</w>
at le
" le
z e,</w>
w an</w>
vez ,</w>
s pon
prin ce
pre dic
mis sis
m r
i des</w>
howe ver</w>
da e,</w>
d all
c al</w>
bro .</w>
b á
av ent
u ta
temper ature</w>
sp in
program as</w>
produc tion
mo us
fam e</w>
cul as</w>
compo ser
ai d</w>
4 1</w>
( n.</w>
è re</w>
ver s</w>
ter "</w>
sal a</w>
resul ting</w>
produc t</w>
otto man</w>
o ch
grá fica</w>
flori da</w>
esp ir
e -se</w>
cer im
st and</w>
sar ah</w>
orquestr a</w>
mo d
m as,</w>
ex il
arc tic</w>
( 13
th ol
produ tos</w>
ocor re</w>
o h
dist ância</w>
contempor âne
condi ções</w>
com posição</w>
anim e</w>
a ar
197 2</w>
sovié tica</w>
medi da</w>
man ch
he art
gar anti
e h
con stel
band as</w>
and ro
197 5</w>
tennes se
pan ch
inici ou</w>
ho mo
german y,</w>
gener ation</w>
da ted</w>
al *</w>
aces so</w>
3 2
19 18
ôn imo</w>
tic ,</w>
se y
rou te</w>
res tri
im pro
des truc
death .</w>
commun ist</w>
bo tan
197 7</w>
ve "</w>
tem ente,</w>
spr ing</w>
sing le,</w>
produz ir</w>
inter ven
comman der</w>
cho sen</w>
7 5</w>
( which</w>
z ig
re vis
g ary</w>
3 9</w>
1 "</w>
res posta</w>
r ural</w>
er s
d as
austr alia</w>
appro ach
9 8
0 6
*" pleurothallis</w>
sta te.</w>
per u
pap er</w>
liber al</w>
g ur
es sen
es -
anti gos</w>
4 4</w>
th ings</w>
r h
nav io</w>
gal ax
cé lul
con for
way .</w>
us ou</w>
r al
pou cos</w>
particular mente</w>
o mi
estab elec
englis h
car i
al co
_ align=center_
198 9,</w>
ó li
wi g</w>
se ts</w>
qu ant
model os</w>
dr y</w>
arm ed</w>
agre ed</w>
ad vis
0 8
w en
se di
refer s</w>
pro pag
no te</w>
nature za</w>
g az
ter e
se ven
re ly</w>
pe p
parli ament
palav ras</w>
nor we
j os</w>
head quar
bel gi
3 )*
196 7</w>
sh ir
par is.</w>
" me
vis u
river .</w>
ox y
o ",</w>
guitar ist</w>
f fe
cu t</w>
comer cial</w>
ador es,</w>
por ta</w>
meet ing</w>
magne tic</w>
m m</w>
isab el</w>
dad e,</w>
cas ou</w>
argent ina</w>
aju dar</w>
199 1.</w>
197 4</w>
viet n
themsel ves</w>
th is,</w>
refle c
re je
o z
mu t
matthe w</w>
k ing,</w>
inter nal</w>
graf o</w>
go l</w>
dre am</w>
an to
( nascido</w>
pr a
mat a</w>
inter face</w>
h ora</w>
guar di
gon z
administr ação</w>
ê -
s pel
polic y</w>
plat a
mudan ças</w>
edu ardo</w>
crí tica</w>
come ço</w>
coloni al</w>
argent ina,</w>
administr ation</w>
vi ve</w>
dist ance</w>
difer ente</w>
cor n
compar ed</w>
com pl
actu al</w>
te en
so l</w>
man h
ir a.</w>
im i
iden drum</w>
core ia</w>
co us
ar tes</w>
ac count</w>
4 :</w>
well ,</w>
rel ations</w>
n ós</w>
kno wn
e an</w>
dre w</w>
aére a</w>
as ian</w>
win d
ten ,</w>
tax a</w>
respec tivel
pic ture</w>
mo tiv
k e.</w>
it z
ing er</w>
indon é
incorpor ated</w>
debu ted</w>
de ad
dal e</w>
are a.</w>
15 6
" lo
world 's</w>
t ú
succe eded</w>
stre am</w>
se vent
po st</w>
parti da</w>
objec t</w>
li ver
h ere</w>
exist ência</w>
er a,</w>
vari edade</w>
tr al</w>
s port
performan ces</w>
oc casion
jan eiro,</w>
gre w</w>
gen o
dig it
cu ja</w>
cres cimento</w>
con te
col lin
bu ried</w>
ar ca</w>
ak ,</w>
suffer ed</w>
g ate</w>
fundament al</w>
en ce.</w>
div or
cer e
atu ou</w>
ac ces
[ http://www.
temper atura</w>
t es,</w>
reg ist
r ag
gr ã-
gar den</w>
fro g</w>
es teve</w>
en jo
col d</w>
beyon d</w>
allow s</w>
7 9
"ep idendrum</w>
ôni a.</w>
u a</w>
simil ar
re view</w>
post as</w>
missou ri,</w>
ge ór
europe ,</w>
en ted</w>
cr yp
199 2.</w>
19 13
pow ers</w>
parli ament</w>
o ber
n ada</w>
mon aster
ili ties</w>
fo li
fal ta</w>
di r</w>
ar ab</w>
199 3.</w>
198 8,</w>
1 )*
ver e
there fore</w>
te ent
smi th,</w>
s pl
rel atively</w>
re port</w>
occu pi
is a
at tribu
apresent ou</w>
v ag
us ".</w>
sti c</w>
spa in</w>
sh ire</w>
re jec
p sis</w>
nas cida</w>
mé dio</w>
missis si
lí der
en re
=== "
4 6</w>
v au
teent h</w>
music .</w>
liter ary</w>
iv o
gan har</w>
expedi ção</w>
ant ly</w>
200 5
ô no
recor d
popul ari
on 's</w>
mis s
jor nal</w>
j a,</w>
il le</w>
hab il
gu atem
es ).</w>
dó lar
constru ída</w>
con figur
bran ch</w>
bi a,</w>
( w
pon te</w>
pi ece</w>
pequ enas</w>
o st
n ab
mole cular</w>
f ell</w>
cre w</w>
ain ,</w>
éri a</w>
su g
su do
secret ary</w>
polí ticas</w>
mar ,</w>
ma ti
informa ções</w>
com plic
4 9</w>
tri ed</w>
semelh ante</w>
r us</w>
life ,</w>
l á</w>
il s</w>
ent revista</w>
d ão</w>
10 .</w>
vladim ir</w>
offer ed</w>
ne gro
men s
fre y</w>
f ace
z ir</w>
qu into</w>
pi an
neu ro
m on</w>
en contro
el abor
ca de</w>
auth ori
aceae "*::::</w>
( tv
% ,</w>
í de
oper ações</w>
mor e,</w>
i us</w>
grafia ==
es cen
assin ou</w>
ar ing</w>
analy sis</w>
0 9
y a,</w>
we d
univers ity,</w>
ti mo</w>
regim e</w>
re almente</w>
li qu
g a,</w>
fl óri
en ding</w>
aten ção</w>
ap el
ad e,</w>
a "
5 5</w>
*" scopula</w>
ç ões.</w>
trans miti
son y</w>
son ora</w>
pennsyl v
or der
jet os</w>
estrat é
de vic
cu sed</w>
uc k</w>
mus li
ham p
group ,</w>
equ at
e ),</w>
deix ar</w>
countr y.</w>
constant in
along side</w>
( "the</w>
situ ação</w>
pac í
ob teve</w>
iv an</w>
fe itas</w>
episo des</w>
destroy ed</w>
bi an</w>
austr í
== históri
:: jel:</w>
:: formula_
197 0,</w>
w er</w>
ro dri
respon se</w>
pre ocup
perman ent</w>
nor te.</w>
de vem</w>
cle ar</w>
tor onto</w>
re m
mor r
char lie</w>
cas ti
alcanç ou</w>
achi ev
rel at
posi ções</w>
on es</w>
graph ical</w>
empres as</w>
confer ence</w>
benjam in</w>
ba ir
ataqu es</w>
six th</w>
sion .</w>
s ====
ri t</w>
respec tiv
forma to</w>
cri tics</w>
civ iliz
cabe ça</w>
bo ys</w>
ban co</w>
alber to</w>
9 6
5 2</w>
ti ma</w>
scot tish</w>
ra ch
portan to,</w>
plan ned</w>
per segu
pen ín
nel son</w>
mé xico</w>
he l</w>
dial ec
constell ation</w>
co le</w>
belo w</w>
as ure</w>
an ce
15 7
( c.</w>
( 185
s son</w>
l ack</w>
ing ly</w>
her ó
eu a</w>
amb as</w>
al og
so lar
organiz ed</w>
ativ es</w>
ad ot
_ _</w>
ár v
pr ades
nav eg
mo bil
mar cou</w>
k o,</w>
fic ação</w>
comér cio</w>
ci a,</w>
ador es.</w>
aci a</w>
ac ted</w>
ó logo</w>
way ne</w>
ver .</w>
ul man
spain .</w>
pic tures</w>
p us
en er
chur ch
championship .</w>
19 14
í p
st on,</w>
si va</w>
sele cion
satell ite</w>
men ted</w>
her de
go -
comple tely</w>
agre ement</w>
ur i</w>
tell s</w>
sufici ente</w>
stu dent</w>
sh ado
s n
par an
on y
nav ios</w>
man 's</w>
li ,</w>
jo in</w>
ha us
ell o</w>
ay at</w>
amig os</w>
alg ori
alem ã</w>
ad ver
" all</w>
vo y
trans lated</w>
p ig
orig in</w>
or a,</w>
k .
da ily</w>
com ment
brasil ,</w>
bas is</w>
assi g
anfí bio</w>
an *</w>
wür t
s culp
m ali
kil l</w>
din heiro</w>
cry st
constel ação</w>
bur n
br ing</w>
afir ma</w>
adel ph
ac qui
196 4</w>
you th</w>
sen s
s burg</w>
poss es
ob jetos</w>
n í
die go</w>
clo sed</w>
ab ol
x e</w>
ul timate</w>
str ugg
mon th</w>
medi an</w>
juni or</w>
inclu de
hit ler</w>
al es</w>
af fec
sta tem
si er
le tra</w>
i a"</w>
colô mbi
ch ro
b a.</w>
al ist
==history ==
l ength</w>
jan e</w>
her it
blo od
biblio teca</w>
aliz ado</w>
. org
würt tem
tur a,</w>
ten nis</w>
st as</w>
poten tial</w>
on s.</w>
bom bar
be .</w>
andr é</w>
' re</w>
ó w</w>
s .,</w>
jap an.</w>
ir lan
fic tion</w>
experi ence</w>
en ing</w>
dispon ível</w>
whi te
vi o</w>
ti vely</w>
tem plo</w>
se l</w>
o bl
ma u
ex p
el e.</w>
distric ts</w>
derro ta</w>
corri da</w>
christ mas</w>
bur n</w>
bri gh
bon d</w>
am ph
a than</w>
197 1</w>
yor k.</w>
vocal ista</w>
tent a</w>
ro ugh
ren amed</w>
prin t</w>
pass a</w>
nav y</w>
mon itor
le *</w>
lab el</w>
k aw
j ak
f ly</w>
conte ú
ad equ
a )*
( v
" on</w>
st ories</w>
quar ta</w>
ortho do
on e-
him sel
bo und
beli eve</w>
author ity</w>
w ise</w>
tron o</w>
su deste</w>
son *</w>
re ign</w>
propri edades</w>
paí s,</w>
mu ç
futur o</w>
cri me</w>
con c
car ro</w>
be ach</w>
7 7
16 9
( from</w>
( ed
" raw
sch war
s ir
relativ amente</w>
oce ano</w>
m ão</w>
join t</w>
invasi on</w>
inter fer
girl s</w>
be ij
atr ás</w>
== cast
ôn ico</w>
é .</w>
re c
or it
mor ris
km /
fas hi
en cer
chall eng
biblio grafia</w>
arri ved</w>
ai red</w>
3 rd</w>
10 -
y ak
writ er,</w>
ul ,</w>
trat amento</w>
techn ical</w>
spe e
pe d
paul o,</w>
nego ti
muç ulman
he iros</w>
e gu
4 3</w>
se cu
ri ver,</w>
re ally</w>
próxim a</w>
pro me
mes tre</w>
k ai
dire tamente</w>
diffic ult</w>
defin ição</w>
constitu ição</w>
bor dered</w>
" -
wh il
vol can
t ada</w>
sen se</w>
orchestr a</w>
mer ,</w>
h á
grow th</w>
extre me</w>
engine ering</w>
alexand re</w>
2 1
th "</w>
sul -
situ ated</w>
pen silv
nether land
negó ci
kel ly</w>
inter ess
id .</w>
fil m.</w>
comé dia</w>
ar y.</w>
ac e,</w>
we igh
t led</w>
g y</w>
externas ==</w>
dou b
do ença</w>
ar -se</w>
ári a,</w>
year -
tot almente</w>
tor a</w>
scal e</w>
ren ov
qu ist
per forming</w>
panch ayat</w>
of fen
me teor
g len
classi c</w>
ativi dades</w>
á cido</w>
syn thes
sel y</w>
s port</w>
pedi u</w>
partici pated</w>
le man
el is
desempen ho</w>
ch ance</w>
band a,</w>
atten tion</w>
ar d,</w>
6 5</w>
trans por
que br
par tí
lo u</w>
exper im
exam ples</w>
en d,</w>
e ag
d éci
cr it
con spir
ci almente</w>
bus ca</w>
ani mais</w>
16 7
vi u</w>
ve -
tu de</w>
is o
i u
expec ted</w>
distric t,</w>
brasil .</w>
) ",</w>
weal th</w>
thre e-
stu dents</w>
s á
ro ma,</w>
mari do</w>
knowle dge</w>
informa ção</w>
fund ação</w>
fiz eram</w>
et- lo
enter pris
book s,</w>
be ach
as hi
americ a,</w>
war ri
ty p
scre en</w>
mel o
me an</w>
j ay</w>
inglater ra,</w>
go s,</w>
declar ou</w>
cas os</w>
adv ant
( 12
wi fe,</w>
sa ur
rote iro</w>
recur sos</w>
recor de</w>
op pon
matem ática</w>
jor nal
fran ce
d ito</w>
bap ti
ar nol
a /
19 12
í gen
substitu ído</w>
se ine-
rus so
mem ória</w>
líder es</w>
imedi atamente</w>
gabri el</w>
dific ul
bur go,</w>
199 9
tin a</w>
primeiro- ministro</w>
naqu ele</w>
ho p</w>
históri as</w>
gre go</w>
e gr
confl ito</w>
bat eria</w>
aci d</w>
zi u</w>
to mou</w>
temp est
ro ll</w>
po log
pe t
invas ão</w>
il o</w>
histori c</w>
for est</w>
envol vi
e is
car e</w>
ag ri
ab u</w>
to ol
ru dol
oper ations</w>
offic er</w>
mosco w</w>
manag ed</w>
lo t</w>
let ters</w>
jap an,</w>
ii i,</w>
extre m
expedi tion</w>
con ec
ur as</w>
show ed</w>
pat ro
ni c</w>
lev a</w>
histór ico</w>
fil ho,</w>
e .,</w>
chall en
cad e
4 2
" mar
te u</w>
politici an</w>
pa ir</w>
mor to</w>
mon arch
filo sofia</w>
edif ício</w>
des ej
cl er
ci mentos</w>
c aç
b av
ang lo-
ver i
soldi ers</w>
sa il
pri x</w>
nig eri
mit ch
conflic t</w>
attack ed</w>
at ta
ass is
vo g
t ér
possi velmente</w>
men .</w>
inv és</w>
h ando</w>
grav ou</w>
gam e,</w>
franc ês.</w>
f ying</w>
estadunid ense.</w>
bur go</w>
ari ,</w>
8 ,
( l
y *
un d.</w>
tr y,</w>
ne um
k ap
gê ner
fal e
elo gi
dis sol
den .</w>
at us</w>
0 5
v os</w>
scrip t</w>
na d</w>
m ês</w>
lead er
jap ão,</w>
in du
der ived</w>
championship s</w>
zer o</w>
sta te,</w>
o ".</w>
norwe gian</w>
ev itar</w>
es forç
en cy</w>
en cour
ef fici
caracter iz
cam p</w>
bo o
auto ma
atl ân
at a,</w>
aqu eles</w>
198 9.</w>
198 4,</w>
x box</w>
t us
s ===*</w>
res tric
per gun
liter ature</w>
jef fer
import ância</w>
gam es,</w>
free dom</w>
feder ation</w>
exhi bi
a wi
val ent
team .</w>
simul tane
shi re,</w>
ser ver</w>
n á
lux em
h ão</w>
g .,</w>
espanho l</w>
ele ição</w>
buil d</w>
blu es</w>
an e
al :</w>
v ant
ter y</w>
solu ção</w>
si tes</w>
ser ge
quím ica</w>
mer s</w>
men tioned</w>
f ü
estrel ado</w>
e th</w>
dis cu
defen se</w>
d ele</w>
constru ir</w>
ag em.</w>
sig n</w>
presen te
k nigh
ex change</w>
com bus
cole ção</w>
cl aim</w>
bi e</w>
be at</w>
bat er
==references ==*
198 0.</w>
​ ​
z en</w>
uni do,</w>
tribut ary</w>
toky o</w>
re ign
re ach</w>
pu er
jon athan</w>
frequ ently</w>
congr ess</w>
c em</w>
braz il,</w>
bill board</w>
ber nar
" par
v ing
tic amente</w>
sex o</w>
re vi
pion e
it "</w>
fran z</w>
e z</w>
dad e.</w>
cl esi
c w</w>
assemb ly</w>
a companh
8 :</w>
15 0</w>
" car
y a
sco red</w>
o se</w>
in vi
hu d
externas ==*
do or</w>
brit ain</w>
bl es</w>
at o,</w>
am pli
( 6
terr a.</w>
sym bol
propri et
physic s</w>
l loy
intel ligen
im it
guitar ,</w>
experi ência</w>
ch al
bo d
y ==
tem as</w>
sant os</w>
radi o
p "</w>
méxi co.</w>
est .</w>
en i
d ella</w>
continu e</w>
an ce.</w>
aceae *
" ti
" el</w>
v az
ofer e
mar co</w>
gr au</w>
back ground
applic ation</w>
and a,</w>
a ther</w>
" **
í ni
si o</w>
por tra
per hap
naz i</w>
inici al</w>
em is
cou ple</w>
concer to</w>
back ground</w>
b ita</w>
tion ally</w>
t t</w>
si di
re torno</w>
mole cul
io wa,</w>
dar k
bro ke</w>
be d
ari amente</w>
15 5
" one</w>
wri ght</w>
wiscon sin
s g
qu ina</w>
or eg
minu tos</w>
li e
it or</w>
fin ais</w>
ev ol
em -
ê ni
ver a</w>
val ores</w>
um ".</w>
tem po.</w>
sub tropicais</w>
scen es</w>
penín sula</w>
ne ces
g ás</w>
e o</w>
din os
di r
bir th
re ven
prov a</w>
pre domin
per ig
pass ar</w>
ou .</w>
ob ter</w>
n ba</w>
k a.</w>
harv ard</w>
equ al</w>
din amar
198 6,</w>
15 -
" no</w>
âni a.</w>
w ak
vi g
the od
peri od,</w>
long -
laun ch</w>
goog le</w>
az er
astron au
subsequ ent</w>
ro g
proble m
mer cur
ci ências</w>
char ge</w>
catól ica</w>
ad ventu
ab str
we i
vez es,</w>
tri pul
tr ag
plo t
ni k
gam es.</w>
colleg e,</w>
ci tiz
cheg ar</w>
bro w
assum iu</w>
15 0
( 184
ó w
ç o,</w>
star red</w>
s a.</w>
ru b
o des</w>
m ck
iv a</w>
estu d
entr ar</w>
ri os</w>
ques tion
phil adelph
ner .</w>
mar qu
jap ão.</w>
ig nor
ho c
gran tes</w>
fun er
de clin
constant ino
ac a</w>
. 000</w>
v y
tradi ção</w>
tic ul
ou gh
occur red</w>
obje to</w>
mou th</w>
in a
hap pen
h é
cover s</w>
com ba
alli ance</w>
% .</w>
ís tica</w>
í lio</w>
regar ded</w>
public ada</w>
pre ven
philip pin
nes sa</w>
movi mentos</w>
l á
har t
encontr ados</w>
com ic</w>
broad cast</w>
band s</w>
aus tin</w>
ar que
a que</w>
19 19
w ing
ta il</w>
str ing</w>
sing le
pu r</w>
pl anos</w>
lin k</w>
fil ó
exam in
en do
continu a</w>
con fes
autor idade</w>
ar ena</w>
ân dia,</w>
r il
ng c</w>
ke pt</w>
im prov
fl ying</w>
connec ted</w>
" x
win ner</w>
torn ando-se</w>
staf f</w>
solu tion</w>
segu ido</w>
re form
or mente,</w>
inf an
( 183
ú r
z -
visi ted</w>
r ó
r hin
que da</w>
provi des</w>
pe ças</w>
n "</w>
lin e.</w>
group .</w>
grav e</w>
europe .</w>
dis c</w>
crí ticos</w>
cro ati
bur y</w>
a .,</w>
ver de</w>
u "</w>
sen si
sac ri
ro s,</w>
produzi da</w>
practi ce</w>
oli ver</w>
ne eded</w>
hur ric
de tro
b él
argent ina.</w>
198 5,</w>
16 5
" um</w>
recor ds
neighbour ing</w>
ir s</w>
ir .</w>
gi ant</w>
f air</w>
dizen do</w>
dis se
cle vel
" hal
vi da.</w>
tic es</w>
re ad</w>
qu estão</w>
noru egu
marsh all</w>
mari time</w>
kentuc k
k us
acqui red</w>
treat ment</w>
regi on.</w>
rece iv
mi z
logi c</w>
la y</w>
j. j.
ital y,</w>
hum anos</w>
histor y,</w>
europ a,</w>
envi ou</w>
compo ser</w>
austr ália</w>
attemp ted</w>
ang ,</w>
ac er
7 :</w>
writ ers</w>
v ice</w>
ulti ma
tr us
pri ma
perhap s</w>
op pos
gan g</w>
es senti
ear ned</w>
d d</w>
( 5
tiv esse</w>
sevent h</w>
s as
produ to</w>
pequen os</w>
par ish</w>
leo pol
lawr ence</w>
k ok
exem plos</w>
edi ted</w>
diffic ul
be c
b ing</w>
un e</w>
sch af
s ín
ri e</w>
quant um</w>
per -
op position</w>
oce an</w>
objec ts</w>
nam or
mo di
iv ,</w>
gu ide</w>
grav ado</w>
freder ico</w>
c af
úl gar
ô nic
w ic
v esti
ther .</w>
south- east</w>
sa fe
my r
mo ther,</w>
fin anci
ensin o</w>
drum s</w>
cri anç
constitu tion</w>
al tura</w>
ab ilidade</w>
( e.
íci l</w>
senti do</w>
por tion</w>
minu tes</w>
minnes ota,</w>
mad ag
dif ícil</w>
com pris
br and</w>
bl in
berk ele
aspis "*"
. com</w>
"* *"
weap ons</w>
tr af
to mar</w>
p s,</w>
ma cro
m h
lin e,</w>
fir st
escol as</w>
di apor
crí ticas</w>
cro wn
attemp ts</w>
" ==</w>
refu sed</w>
nam e.</w>
ir á</w>
grav adora</w>
dever ia</w>
c aix
bri ef
ber ry</w>
at as</w>
as -
trein ador</w>
torn ando</w>
tic s.</w>
rus sell</w>
repe ti
re r</w>
over all</w>
o lo
loo king</w>
k ri
fe itos</w>
a post
tradicion al</w>
tent ar</w>
s li
per u,</w>
hol ds</w>
hel i
har am</w>
g ust
fre gu
ed ing</w>
ca therine</w>
ble .</w>
" y
o it
n íveis</w>
allow ing</w>
turk ish</w>
t z</w>
run s</w>
principal .</w>
ob tained</w>
near by</w>
jen ni
ic .</w>
ex tra
ex ter
escal a</w>
corr up
corpor ation</w>
architec ture</w>
apos ent
ag em,</w>
aflu ente</w>
" to
scienti st
publ ishing</w>
phy si
o posição</w>
méxi co,</w>
man g
is m,</w>
i f
e da</w>
broad cas
ash i</w>
" )*
time "</w>
sy non
re main</w>
organiz ações</w>
or o
la v</w>
inter medi
hap py</w>
gam e.</w>
complex o</w>
ab oli
sur g
sk y,</w>
segu ir</w>
s wi
pro file</w>
portugu es
or al</w>
ne p
king .</w>
i ti
g au
des e
con vin
comit ê</w>
00 .</w>
( co
vin te</w>
utiliz ada</w>
téc nica</w>
trav el</w>
trans porte</w>
sm all
sal es</w>
pré mi
occupi ed</w>
mathema tici
indi a.</w>
histor y.</w>
govern ment.</w>
fin al,</w>
f ish
ex pul
edi tion
diapor the</w>
col a</w>
bor gon
al ge
ê s:</w>
west ,</w>
town ,</w>
tan t</w>
school .</w>
saú de</w>
resul ted</w>
presid ential</w>
pr ática</w>
pan am
ol dest</w>
des tes</w>
da -
con f
combin ed</w>
ci dos</w>
afir ma
* the</w>
" **</w>
tra il
sen ior</w>
rober to</w>
nor d-
ministr y</w>
fil me.</w>
fil i
exist ence</w>
ed die</w>
cre ating</w>
ch o</w>
ab ra
) ====
plac es</w>
pes o</w>
nichol as</w>
london .</w>
liver po
exce to</w>
eng land,</w>
defini tion</w>
c c
ber .</w>
arquite tura</w>
ag ente</w>
15 8
z h
regi ons</w>
pe ti
pa kist
or todo
mani pul
land ês</w>
e ;</w>
di das</w>
d us
congres so</w>
con quis
bob by</w>
b ac
and -
7 )*
- up</w>
ter ry</w>
tem pl
serv ing</w>
o corr
h ú
feder ação</w>
elé tr
construc ted</w>
ci ais</w>
cat alo
car to
begin s</w>
ar dia</w>
álb um.</w>
y e</w>
ti co
símbol o</w>
pro pos
moder na</w>
maxim um</w>
ligh tly</w>
k ra
ju dg
he ter
gor don</w>
fo cus</w>
az es</w>
al fab
196 0,</w>
su r</w>
ste el</w>
retur ning</w>
ne ver
mit ted</w>
me u</w>
mathema tics</w>
jerus al
iz ação</w>
ell i</w>
d aram</w>
cy cle</w>
conquis tou</w>
cas al</w>
ate d,</w>
anima ted</w>
and or
am an
tempest ade</w>
surroun ding</w>
po le</w>
ph y</w>
má quina</w>
lig ação</w>
it a,</w>
grow ing</w>
en sis</w>
e /
control led</w>
cont ent</w>
cer am</w>
au x</w>
assist ant</w>
8 00</w>
voc ais</w>
ver dade</w>
un d,</w>
pe ça</w>
identi fied</w>
hon or</w>
gu ign
fer din
esp ír
ella "*"
candi dat
196 6</w>
о в
ter em</w>
te la</w>
stor y
shak espe
pl us</w>
pi ec
ko v</w>
impres sion
func tions</w>
champion s</w>
am ster
0 1
" li
vo ivo
town s</w>
times "</w>
roman ia.</w>
r he
proto col
program ming</w>
pol ícia</w>
o port
montan has</w>
mon ument
mes o
linu x</w>
g ad
consist ing</w>
com partil
c y,</w>
19 17
south western</w>
scien ces</w>
say ing</w>
s tic
proper ty</w>
par ty
ma gic</w>
liber dade</w>
jo vens</w>
indepen dent
in clin
hus band</w>
gel o</w>
comun s</w>
beauti ful</w>
b eng
volum es</w>
vent ure</w>
u a.</w>
tit les</w>
temp os</w>
sudo este</w>
sho w,</w>
probab il
p w
nor man</w>
n f
mil an</w>
k es
es pal
bo ,</w>
6 :</w>
- in-
z a
y i
wrest l
wal t</w>
o casi
jer se
in gr
ig ual</w>
gi a.</w>
econom y</w>
wrest leman
spo ken</w>
quar ter
pol ar</w>
pal e
mar io</w>
jus tin</w>
devel op</w>
cres ceu</w>
conserv ation</w>
comb ate</w>
col lap
cate dral</w>
bro ken</w>
bas il
198 7,</w>
" love</w>
" do
vil la
ton s</w>
suéci a</w>
su cess
st eri
rob in</w>
pris ão</w>
he im</w>
exten sive</w>
dan ish</w>
b y,</w>
ab le.</w>
4 )*
*" ix
( isbn</w>
" les</w>
thin k</w>
ro les</w>
rece ber</w>
produzi u</w>
pin tor</w>
ne bras
lis a</w>
lin ,</w>
ent s,</w>
en s,</w>
chic ago,</w>
cap í
as ed</w>
andre a</w>
198 8.</w>
195 0</w>
192 0</w>
ú nci
ul i
tr y
sw iss</w>
si l</w>
re ac
ic s,</w>
graphy =====
gla ci
gen .</w>
em baix
e ).</w>
da y"</w>
chur ch,</w>
bro ther,</w>
b id
ation :</w>
" die</w>
ín dia</w>
zi da</w>
te *</w>
spre ad</w>
so ber
repres ents</w>
po m
plan s</w>
on *</w>
inhabitant s</w>
grá fico</w>
fac ed</w>
ec eram</w>
do u-se</w>
capí tul
bél g
braz il
ar -
al istas</w>
8 )*
th ron
th en
s :
recent ly</w>
po vo
pl u
nor deste</w>
nam e,</w>
mo ham
japon es
j ug
dri ve</w>
contro ver
cas es</w>
bar re
arc ti
and s</w>
( now</w>
to po</w>
re moved</w>
re action</w>
pro clam
n s
m g
k 's</w>
g i</w>
d ita</w>
can 't</w>
awar ds
and ro</w>
am i
ad jac
== *"
" l'
ol ,</w>
k ell
haw ai
ex pen
ent reg
du pla</w>
du o</w>
de d.</w>
confer ência</w>
auto -
arma zen
ag ent</w>
9 ,
4 th</w>
0. 000</w>
( 1.
wi ki
ship .</w>
mor te.</w>
mar ía</w>
jog ou</w>
enti tled</w>
descre veu</w>
coun ties</w>
ch â
== ver</w>
1 20
to ward</w>
th ing
tempor ada,</w>
so lo
run ner
po di
pa th
li eu
claim s</w>
census .</w>
alli ed</w>
ór g
territ órios</w>
par k,</w>
pal atin
indon es
fig ura</w>
e y,</w>
califor nia.</w>
ate d
== source
196 1</w>
( for</w>
" as</w>
u ser</w>
su e
situ ado</w>
revolu cion
rel ative</w>
perten ce</w>
no bre
me ados</w>
loc alidades</w>
guign ardia</w>
g em
er )</w>
dan ç
che on</w>
bran co</w>
a ult</w>
tr á
te )</w>
peix e</w>
l ó
jenni fer</w>
franç ois</w>
c p
aju dou</w>
academ ic</w>
ab le,</w>
3 "</w>
1 1.
vence dor</w>
ve d.</w>
té ,</w>
tal vez</w>
res cu
pr est
pl ace
nas a</w>
min or
man teve</w>
fus ão</w>
escol ha</w>
e ase</w>
con tain</w>
at or,</w>
at a.</w>
assem ble
ari am</w>
19 -
* '</w>
ân dia.</w>
vi veu</w>
uni que</w>
t are
symphon y</w>
sur ren
po p
jar di
ge l</w>
frank lin</w>
europe u</w>
cir cum
ch ave</w>
bri dg
awar ds,</w>
ani ,</w>
óper a</w>
ol o</w>
in c.</w>
ev ,</w>
escap e</w>
ed war
e colog
c adas</w>
bu f
ant ár
ani a.</w>
aber to</w>
ä r
ti mo
promo ted</w>
other s.</w>
lud wig</w>
e i</w>
dan ny</w>
b am
al ing</w>
wh y</w>
ti dos</w>
school s</w>
qu ir
par adas</w>
op .</w>
margar et</w>
ira q
f ati
co st</w>
charlot te</w>
americ anos</w>
aleman ha.</w>
aconte ceu</w>
a w</w>
== as</w>
"n "</w>
" mo
vie w,</w>
uni do.</w>
sé culos</w>
sing ing</w>
quar te
ne i
mil ler</w>
inglater ra.</w>
histori ador</w>
greg ory</w>
ed ic
di o.</w>
defen der</w>
d n't</w>
const ant</w>
co c
br en
201 1
windo w
war s</w>
vi da,</w>
trabalh ando</w>
tom my</w>
sub sidi
st ay</w>
ran ked</w>
portugu ês</w>
pas s</w>
or le
n ur
li dae.</w>
guerr a.</w>
er up
con sor
al leg
achi eved</w>
ac ri
5 %</w>
2 *
197 9,</w>
ular ia</w>
tribu te</w>
tim es,</w>
secon dary</w>
portu gal
op port
om y
le l</w>
el em
dac ty
célul as</w>
cas ou-se</w>
c ál
1 º</w>
ã .</w>
un able</w>
tor on
s ave</w>
portug al,</w>
orthodo x</w>
life "</w>
ho s,</w>
her o</w>
grav it
g e,</w>
f arm
eir a,</w>
drum mer</w>
democr ática</w>
deix ando</w>
credi ted</w>
contain ed</w>
anteri ores</w>
196 2</w>
194 8</w>
( 7
stre et
shi el
ro se
ri c</w>
empi re.</w>
deci de</w>
christi an
8 4
198 3,</w>
" bo
w inter
vizin has</w>
virtu al</w>
swe den</w>
rul es</w>
mé dico</w>
mass ac
in sec
ho sti
gi or
fís ico</w>
frank fur
fab aceae.</w>
estabele ceu</w>
dispu ta</w>
bri ef</w>
atu re,</w>
ato mic</w>
ambi ente</w>
3 00
u z
trans port</w>
thom p
t ad
su ici
sofre u</w>
re z</w>
my tholog
lóg ica</w>
g ag
edit or
de f
b úlgar
== ;
un like</w>
tel l</w>
p c</w>
o do
o ),</w>
mu ham
ide al</w>
i an
desenvol veu</w>
des enh
cal v
c ór
bizant ino</w>
worl d"</w>
vis it</w>
ve d
twel ve</w>
russi a,</w>
pro emin
poder iam</w>
po or</w>
ph eno
núcle o</w>
mé todos</w>
mu dou-se</w>
k s.</w>
hi ro
determin ed</w>
dan tes</w>
compan y.</w>
==source ==*</w>
1 1.</w>
s lightly</w>
river s</w>
quil ô
puer to</w>
of en
kno ck
j ay
fin al.</w>
f lan
con tendo</w>
c em
é t
ânci as</w>
á ticas</w>
yel low</w>
vi a.</w>
tok ug
sty les</w>
sh are</w>
secret ário</w>
reser v
publis her
ph il</w>
op on
mon t</w>
massachu sett
k ul
jam a
is -
inte lig
ho j
gran ted</w>
film ed</w>
envi ado</w>
ent s.</w>
ed in
comput ador</w>
compan ies</w>
comis são</w>
co de
af gh
ti cos,</w>
shar ed</w>
provínci as</w>
pro ven
per form</w>
per ,</w>
or ders</w>
o ci
mús ico</w>
mo ist</w>
il ustr
ger ação</w>
fun do</w>
fo go</w>
fic tional</w>
dom ing
d ências</w>
d t</w>
ci ti
cam ar
as ur
ag o.</w>
:: :</w>
"sing le"</w>
ável .</w>
tiv amente</w>
ti fied</w>
str on
song writer</w>
sk ,</w>
religi ão</w>
realiz ou</w>
qu ite</w>
mer ch
level s</w>
itáli a,</w>
in er
i con
go mer
g ym
fiel ds</w>
faz em</w>
el a,</w>
cham ados</w>
br us
ac us
==== *</w>
t ".</w>
respe ito</w>
raz ão</w>
rad ic
provin ce,</w>
pr ay
op posed</w>
o th
land s
he ard</w>
guar da</w>
din â
descre ve</w>
cl ã</w>
bur gh</w>
afric a,</w>
y ;</w>
vill ages</w>
van cou
v all
sax e-
ro me,</w>
revolu tionary</w>
pó s
projet os</w>
mo ste
le is</w>
king 's</w>
imag es</w>
i dio
espos a,</w>
engen heiro</w>
bre vi
" you</w>
" te
vi i</w>
ten ham</w>
re i
provin ces</w>
par ce
orb it</w>
model s</w>
mal ay
le y.</w>
h as,</w>
famíli as</w>
f é
compri mento</w>
car d</w>
ad e.</w>
194 5,</w>
ven deu</w>
v ati
t ent</w>
su porte</w>
plo t</w>
p am
new ly</w>
mi cos</w>
mel y</w>
lead ers</w>
fic as</w>
fall s</w>
estru turas</w>
earli est</w>
dra wn</w>
cont est</w>
co res</w>
appro ach</w>
air e</w>
tu a</w>
tribun al</w>
te ",</w>
pr ice</w>
po eta</w>
outro s.</w>
ori z
not as</w>
neg ative</w>
n il
it sel
franche-com té</w>
emer gen
con tex
cap ture</w>
cam ente</w>
bol í
americ a.</w>
== disco
196 5</w>
u tric
religi on</w>
part ner
on )</w>
nord- pas-de-cal
list ing
jog a</w>
franche-com té,</w>
ferr ament
deb ate</w>
countr y,</w>
cathe dral</w>
aux ili
ad ult</w>
== notes
" be
win d</w>
tr ying</w>
speci alist</w>
ro b</w>
re present</w>
plat in
l il
jer ry</w>
g ain
dor f</w>
contr ário</w>
c m</w>
aceae* ::::
*"ix odes</w>
í n</w>
z one</w>
vill age.</w>
ti r
them ,</w>
t na</w>
su bor
ru led</w>
redu ced</w>
premi ered</w>
pr ata</w>
play er.</w>
pa is
nor oeste</w>
mor gan</w>
metho ds</w>
mer idi
le ip
la h</w>
hund red</w>
gu y</w>
gu s</w>
gu ard</w>
expan são</w>
encontro u</w>
distr itos</w>
de d,</w>
d *
cul a</w>
com o
at om
actr ess.</w>
10 00</w>
vill ag
un ded</w>
sty le
sequ ence</w>
se ems</w>
produc ts</w>
ph an
mix )</w>
me tres</w>
l eng
indi ana</w>
histori an</w>
gal axi
fin e</w>
escolhi do</w>
conteú do</w>
bater ista</w>
b acter
arcti idae.</w>
196 3</w>
" pro
we ak
visi ble</w>
un ity</w>
transl ation</w>
t este</w>
sto ck</w>
ser ra</w>
repor ts</w>
re ag
perman ente</w>
per cent</w>
men ores</w>
me et</w>
grã- bretan
escr av
en try</w>
e c</w>
datab ase</w>
ch ess</w>
ation s
tor i
ta to</w>
spi rit</w>
s ang
po de
mo dul
im plic
hen ri</w>
guerr as</w>
fantas y</w>
bern ard</w>
at ro
arti l
ann es</w>
a te-
8 6</w>
198 7.</w>
1 _</w>
) "*</w>
transfer red</w>
to x
t av
sing les
sin op
s no
po em
pic tur
on da</w>
observ ator
nas cimento</w>
mat ter</w>
lieu ten
inv ad
fic aram</w>
er *
dy ing</w>
d j</w>
cir cun
car lo
canad á</w>
ar á</w>
" american</w>
se an</w>
reas on</w>
pil ot
pat ter
observ ed</w>
mor ning</w>
me tric</w>
infer ior</w>
hand s</w>
fle et</w>
fic ção</w>
dic tionary</w>
d c</w>
br ain</w>
bas que
attack s</w>
193 0</w>
yo shi
yo sh
vol tar</w>
ti r</w>
the ore
re views</w>
li thu
ing ton</w>
hal f-
ha -
gr aç
fiel d.</w>
estu dar</w>
estr ada</w>
e fici
domes tic</w>
cu t
cois as</w>
ating iu</w>
an thro
addi tion,</w>
ad voc
5 )*
( 10
us ")</w>
tri es</w>
sch edu
res tr
ques a</w>
o 's</w>
montre al</w>
mic hel</w>
le u
j in
fun dou</w>
extrem amente</w>
en se,</w>
en der
domin ic
dis cre
co :</w>
bur g.</w>
ável ,</w>
tu ber
say s</w>
ric ardo</w>
republic an</w>
mar x
manus crip
hein rich</w>
get s</w>
f ans</w>
er s"</w>
effor ts</w>
di vin
a ===
==history ==the</w>
14 9
) ".</w>
" we</w>
ór bita</w>
tradu ção</w>
thou gh
soci alist</w>
o si
lou isi
h ó
ey e</w>
di amon
descr ito</w>
des ses</w>
cant on</w>
bab y</w>
ar t,</w>
_- _</w>
" se
ári a.</w>
v é
sym bol</w>
son g,</w>
realiz ados</w>
pri de</w>
h ún
expan ded</w>
er a.</w>
dynas ty</w>
di es
ar sen
alg orit
ad s</w>
195 6</w>
** *
utric ularia</w>
tr ás</w>
ti .</w>
switzer land.</w>
ol ógi
mountain s</w>
hu go</w>
h n
gu es</w>
grav ações</w>
ex clu
du pl
come di
cientí fica</w>
atur as</w>
ar m</w>
== os</w>
5 4</w>
198 1)</w>
( e</w>
x a</w>
wri gh
s wor
inf ant
hon our
h its</w>
fin l
f it</w>
el ement</w>
divi dido</w>
cab in
c zy
are a,</w>
ap ple</w>
( i.
th- century</w>
so pr
mack down
kill ing</w>
is land.</w>
in ner</w>
in ho</w>
ho ff
dis play</w>
conduc ted</w>
chap ter</w>
2 %</w>
" live</w>
sur pris
pap éis</w>
neu tr
mar c</w>
la ws</w>
guitar ra
ger m
ex cel
c eme
bo hem
bar ry</w>
ah ,</w>
6 6</w>
st ori
sej am</w>
ric har
qu o
publ ish
prov oc
ox id
od or
my ster
londres .</w>
im e</w>
ge "</w>
femin ino</w>
fe el</w>
el eg
den nis</w>
comm uni
buil dings</w>
big g
ac el
ty r
r ica</w>
prev ent</w>
lor enz
lo sing</w>
it ou</w>
ic a"</w>
ha z
h ang
f ãs</w>
espe c
eng land.</w>
ar ag
ali ança</w>
al es
ac ci
x ia</w>
w av
us adas</w>
univer so</w>
success fully</w>
sho ot
pi a,</w>
man chester</w>
m unido
impac to</w>
hoc key</w>
har old</w>
escr itos</w>
des per
argent ine</w>
ac ess
194 5</w>
" uma</w>
" star</w>
wi e</w>
ro men
ro me
olog y,</w>
oc li
norman die</w>
mor al</w>
hún gar
ger al,</w>
equip es</w>
design ated</w>
ver g
to car</w>
the ater</w>
stock hol
sho p</w>
ro up
rai o</w>
pre fec
pe z</w>
no thing</w>
munido psis</w>
ma p</w>
kur t</w>
jog ar</w>
father 's</w>
f ing
do v
conheci das</w>
co ach</w>
cant ão</w>
bombar de
ban ks</w>
anni vers
am es</w>
ac compani
wor ks
virgin ia</w>
ve ja</w>
up ,</w>
um i</w>
rus sa</w>
ro sa</w>
rece ber
lu er</w>
is m.</w>
influ ential</w>
en ter</w>
dis ne
de t
co pen
burg -
al ",</w>
6 00</w>
201 3
tr as
ti er</w>
s ores</w>
republic ,</w>
r are</w>
o ).</w>
mã os</w>
j ess
form ally</w>
for ward</w>
externas ==*</w>
en com
desen ho</w>
an ual</w>
tr y.</w>
tr il
sur ve
str eng
recep ção</w>
re trat
prin ted</w>
ph ase</w>
p pe
oklaho ma,</w>
north- central</w>
m ü
localiz a-se</w>
kore a</w>
ig a</w>
fá br
an )</w>
ak h
accompani ed</w>
ven das</w>
ti u</w>
terr a,</w>
tau ght</w>
sti cos</w>
s cr
read ing</w>
raf a
pur chas
pre de
ni cos</w>
me g
m "</w>
invi ted</w>
ic ia</w>
heav ily</w>
ga ther
engen haria</w>
elem ento</w>
de p
cr ai
co ok
clo sely</w>
cic lo</w>
apar ição</w>
_ align=center_</w>
ven dido</w>
ti cos.</w>
tex as.</w>
suí ça,</w>
seri am</w>
permiti u</w>
per su
my steri
fin n
en sai
com um
co let
c s</w>
ar ce
y ),</w>
territ orial</w>
son ic</w>
organi c</w>
ni k</w>
mont gomer
ma te
ill ,</w>
hu t
empi re,</w>
distribu ted</w>
dest ac
artís tico</w>
ó lic
z ap
y ok
us ual</w>
um "*</w>
séri e,</w>
pen sam
o ak
mid as</w>
mexi co,</w>
go s.</w>
filó sof
er ",</w>
d on,</w>
corr ente</w>
cinem ato
ch a
care y</w>
capit al,</w>
b its</w>
5 6</w>
194 0</w>
wa it
sil va</w>
per fect</w>
pa y</w>
norte-americ ano.</w>
min d</w>
mat ches</w>
lou ise</w>
expres sed</w>
drag on</w>
d ".</w>
conqu ista</w>
co ordin
cir cle</w>
3 d</w>
12 -
ângul o</w>
wal k</w>
t ando</w>
re p
qu ality</w>
ov ich</w>
mis sões</w>
lu cas</w>
l us</w>
ingles a</w>
i er</w>
esquer da</w>
espír ito</w>
em or
do ze</w>
do "</w>
conjun tos</w>
condi tions</w>
com mission</w>
co inci
ch "</w>
aw are</w>
alemã es</w>
200 3
tro ca</w>
tour ,</w>
so yu
occur s</w>
ni e
mai l</w>
le -de-
lat er.</w>
it un
inv est
in ú
ho ok
gi u
em phas
el a.</w>
eir a.</w>
doc tor
descri bes</w>
del a</w>
vers ário</w>
tr aça</w>
sy ri
supre me</w>
s ess
rús sia,</w>
regr as</w>
pro xim
poder es</w>
plant as</w>
pheno men
pe ak</w>
pa quist
p pi
log ical</w>
li on
ior que</w>
hou ses</w>
h all,</w>
gus ta
factor y</w>
develop ing</w>
descrip tion</w>
depen ding</w>
del ta</w>
de pu
contro vers
combin ation</w>
bry an</w>
197 0.</w>
( 3</w>
î le-de-
pedi do</w>
mor te,</w>
matem ático</w>
lov ak
jog o,</w>
indi a,</w>
fl av
en cial</w>
d ing,</w>
ari a"</w>
a compan
197 2,</w>
vi vi
v est
tr ain</w>
tic as,</w>
tem un
res ign
read ing
lev ar</w>
k ho
expan sion</w>
esp aç
classi fied</w>
cham ou</w>
cal yp
ba ía</w>
australi a.</w>
198 6.</w>
tic as.</w>
th al
tes temun
st ur
seri ous</w>
resist ência</w>
realiz ar</w>
re is</w>
pre t
posteri ormente,</w>
pil ot</w>
mist ura</w>
mid fiel
k an</w>
fit z
comple ta</w>
cer .</w>
centr al,</w>
auton o
australi a,</w>
adapt ação</w>
197 5,</w>
( por</w>
ä n
v ali
ton 's</w>
to p
st en
sour ces
rús sia.</w>
rap per</w>
pris ion
paral lel</w>
par ó
oni a,</w>
japon ês</w>
in "</w>
hip ó
europ a.</w>
conven tion</w>
cham ber
band .</w>
az ul</w>
an arch
ag ing</w>
adapt ation</w>
15 .</w>
( de</w>
ter ren
st er,</w>
occu r</w>
leon ard</w>
lar ry</w>
k *</w>
ic el
hill s</w>
govern ment
for tes</w>
eth nic</w>
dest aque</w>
car bon</w>
as a</w>
195 7</w>
theor y,</w>
suf fici
sound track</w>
schltr .</w>
re conhecimento</w>
r& b</w>
process os</w>
pol is</w>
ov a</w>
oc u
music ais</w>
mur ray</w>
hi de
galax y</w>
g as,</w>
fo ot</w>
f low</w>
ex posição</w>
en coun
cor ps</w>
compil ation</w>
collec ted</w>
col é
clau de</w>
chr ist</w>
cent ro,</w>
can ada.</w>
an gi
á u
si des</w>
re y</w>
pouc as</w>
plan e</w>
nag ar</w>
k ay
iz e</w>
ic e.</w>
grav ada</w>
experiment al</w>
do w
de mo</w>
comunic ação</w>
brit tan
b s
atu re.</w>
assig ned</w>
aliz ada</w>
adam s</w>
=== on</w>
195 8</w>
vi ver</w>
univer se</w>
tri o</w>
sí tio</w>
on y,</w>
nos sa</w>
mexi co.</w>
ma p
jos h</w>
in ju
h ões</w>
go als</w>
fil ma
ch lor
barbar a</w>
ativ amente</w>
ang ular</w>
6 )*
ó nio</w>
ári os,</w>
world wide</w>
wi el
vermel ho</w>
re d,</w>
prov as</w>
or "</w>
norte-americ ana</w>
j ab
fur ac
dra w</w>
desenvol ver</w>
compor tamento</w>
y o</w>
var .</w>
sou ght</w>
s lam
mús ic
mu dar</w>
justi ce</w>
islam ic</w>
in cen
fro ta</w>
fam osa</w>
exist ing</w>
ent o,</w>
em on
cu ba</w>
cont act</w>
cell s</w>
arnol d</w>
ali ados</w>
al p
adol f</w>
activ ity</w>
” .</w>
ta ke
st ation
sk a</w>
sch mid
re cru
pur pose</w>
ing en</w>
in c
hung arian</w>
da w
com position</w>
cer to</w>
cer ,</w>
califor ni
16 4
( asteróide</w>
" black</w>
wh er
univers ity.</w>
th en,</w>
sier ra</w>
seas on
rece ive</w>
produc ing</w>
pa id</w>
issu es</w>
ingl ês,</w>
har es</w>
har a</w>
frances co</w>
exten são</w>
em ente</w>
du s</w>
d' ar
chair man</w>
canad ense</w>
can o
arqu ia</w>
ar a,</w>
ali en
193 6</w>
13 -
un known</w>
trans fer</w>
ri d
res or
quest ões</w>
polí ticos</w>
per ry</w>
lay er</w>
jer em
inten ção</w>
i ",</w>
for d.</w>
enor me</w>
empre g
e ing</w>
disco grafia</w>
dis per
design er</w>
d war
d na</w>
contribu tions</w>
borgon ha,</w>
ôni a,</w>
ín as</w>
z *</w>
syd ney</w>
so vere
sim pli
sen hor</w>
ne il</w>
mo ore</w>
im pren
hol ding</w>
fun dad
forma ,</w>
extre mely</w>
descobri u</w>
conse quen
comple to</w>
char ts</w>
ch ase</w>
car lo</w>
c ado</w>
brown ,</w>
autor es</w>
ar y
====references ====external</w>
typ ical</w>
sig n
piec es</w>
ne bul
musli m</w>
me ant</w>
m s
lan ,</w>
in ed</w>
ide as</w>
hos ted</w>
gol s</w>
enre do</w>
con soli
ch -
ap er
7 :
( po
v on
v .
tain ing</w>
s in</w>
popul ares</w>
n en
jor dan</w>
jardi m</w>
gi os</w>
fre qü
fr ame
fol low</w>
f ast</w>
ch ev
cap a</w>
au tó
al gu
ah am</w>
197 6,</w>
19 19</w>
( who</w>
thr one</w>
sex to</w>
schol ar
s low
r y.</w>
pa inter
hy per
hon dur
foun ding</w>
establish ment</w>
ed mon
dr agon
cor pos</w>
ch er,</w>
c ement</w>
break ing</w>
afric a.</w>
ac res
12 .
( i
war ren</w>
vocal s,</w>
v os
rough ly</w>
re ação</w>
pro fil
pres su
por no
necess ary</w>
má r
mem óri
massi ve</w>
li f
headquar ters</w>
head ed</w>
gen es
fin ds</w>
esforç os</w>
ern st</w>
equival ent</w>
dro pped</w>
divi dida</w>
connec tic
cat al
cas as</w>
beli ev
austri a.</w>
ampl amente</w>
198 1,</w>
tis mo</w>
ti sta</w>
ther ap
s ri</w>
no u
nh l</w>
mar tí
ma ca
kingdo m,</w>
ke pl
japon esa</w>
est ing</w>
est ado.</w>
cul tiv
chin es
be y</w>
198 2,</w>
téc nicas</w>
schol ars</w>
respectivel y.</w>
ocident al.</w>
mediter ran
me l</w>
ic e
ho pe</w>
gradu ated</w>
figu res</w>
encyclo pedia</w>
do ing</w>
br ag
all y.</w>
==bio graphy==
193 9</w>
res um
re ich
pass ado</w>
mat ch,</w>
ke ith</w>
isl â
geor g</w>
follow s</w>
di mento</w>
co "</w>
bir ds</w>
ai res</w>
1 14
0- 8
í bri
ste in.</w>
situ ation</w>
settle ment</w>
própri os</w>
pro ut,</w>
ju deus</w>
gol pe</w>
go "</w>
en se
coro a</w>
ch ip
canad á,</w>
c ),</w>
an ex
aco us
== plot
9 5</w>
6 7</w>
w ai
tru th</w>
sur fac
ro bo
r ak
pri vil
per cep
pain t
od y</w>
kh an</w>
gi l</w>
ex tra</w>
especi ais</w>
consis ted</w>
cheg ada</w>
av an
arm y,</w>
appar ent</w>
an do,</w>
am y</w>
( no</w>
w ick
vien na</w>
vide ocli
str ic
stor e</w>
s al</w>
rece bido</w>
ram o</w>
me can
lider ança</w>
it y"</w>
introdu ção</w>
dr in
dic e</w>
derro tado</w>
cu id
coun t
conhe ceu</w>
common wealth</w>
co ach
cli f
car am</w>
bal ti
b est-
austráli a.</w>
anim als</w>
6 4
3 %</w>
(200 2)*</w>
” ,</w>
vi r</w>
torn aram</w>
sej a,</w>
revol ta</w>
photo graph
pesquis as</w>
os -
oper ated</w>
o t,</w>
net t</w>
min ut
mar í
ma th
jaco b</w>
hard ware</w>
fri ed</w>
ella "</w>
e iras</w>
div ul
co w
bulg arian</w>
bas es</w>
ac tors</w>
19 12</w>
á to
won der
vi das</w>
ultima tely</w>
te x</w>
reach ing</w>
re ment</w>
rail way</w>
ques tion</w>
posi tions</w>
ou ter</w>
os :</w>
or ange</w>
n wa</w>
mo to
minist ério</w>
log ia</w>
is tic
instrument al</w>
indic ado</w>
i ano</w>
hor ror</w>
he igh
fus ion</w>
europe ia</w>
elev ation</w>
con cre
comun ista</w>
chi ef
cau ses</w>
b é
ass isti
apresent ado</w>
al ".</w>
5 3</w>
5 1</w>
(consul ado-
árab e</w>
wrestleman ia</w>
t es.</w>
re m</w>
pres ti
per s</w>
m s,</w>
in her
facul dade</w>
con e</w>
assun tos</w>
197 4,</w>
x *</w>
vel oc
t ment</w>
rhy thm</w>
qu alidade</w>
particip ar</w>
par am</w>
madag as
ly ing</w>
gr as
govern ment,</w>
func tion
for d
ern est</w>
contribu ted</w>
con ten
at ória</w>
assem bl
197 9.</w>
196 7,</w>
19 16
ão :</w>
wo o
unid as</w>
th ail
rote ir
pre feit
prades h.</w>
leav es</w>
la u</w>
ingl ês.</w>
gr aham</w>
go le
es tro</w>
end or
cul min
club es</w>
bigg est</w>
be e
au dio</w>
ation ==
as ".</w>
ant on</w>
ani e</w>
album 's</w>
" mon
áustri a.</w>
zeal and</w>
soli d</w>
si e</w>
se pul
sa "</w>
r andy</w>
pro posta</w>
pon tu
n ação</w>
lloy d</w>
lin da</w>
isa ac</w>
gener al)**</w>
et ta</w>
es paci
effec tive</w>
do ur
distingu ished</w>
d ag
combin ação</w>
comb at</w>
ca thol
ac cur
25 0</w>
198 5.</w>
195 2</w>
(200 4)</w>
" an</w>
tennes see</w>
ste p</w>
ste f
so brin
se arch
ob s
la z
ich i</w>
fos sem</w>
for tr
challen ge</w>
b ent
ari a.</w>
amo to</w>
ain .</w>
9 :</w>
9 )*
( including</w>
( do</w>
"*" guignardia</w>
website *</w>
valu es</w>
tes tes</w>
t ang
sen eg
rel l</w>
par ty,</w>
olím pico</w>
o casion
north- western</w>
mer a</w>
madri d</w>
m .,</w>
in ha</w>
h ack
expres são</w>
du rou</w>
do main</w>
declar ação</w>
championship ,</w>
bon us</w>
applic ations</w>
anat om
activi ties</w>
a **</w>
199 0
197 8,</w>
tele visi
russi a.</w>
re gres
pr ono
pen insul
particular ,</w>
mo ment
ic hi
es lov
dez em
cryst al</w>
book ,</w>
arti gos</w>
arch iv
am -
a ther
5 00
194 6</w>
vo o</w>
utiliz ando</w>
speak ing</w>
si de,</w>
sai u</w>
ren ais
ra in</w>
peri od.</w>
not ably</w>
mat ch.</w>
landes a</w>
ki e</w>
kenne dy</w>
fr as
dis ease</w>
che garam</w>
cer tain
cap azes</w>
c y.</w>
brun o</w>
bre ve</w>
195 9</w>
( br
vin cent</w>
sin al</w>
sett led</w>
remix )</w>
not ável</w>
ju ventu
intel lec
figh ter</w>
f ós
aw ay
arquiv os</w>
ari zon
anti gas</w>
8 8</w>
198 2)</w>
195 0,</w>
utiliz ados</w>
tam il</w>
sal t</w>
rele v
p ush
mú sicos</w>
mel bour
l er.</w>
grav ar</w>
dic ion
const ante</w>
broad way</w>
baix a-
angel es.</w>
an ist
194 2</w>
- based</w>
(200 5)</w>
ti ll
t ),</w>
se i
san gue</w>
n y,</w>
hem is
he y
eas ily</w>
dic k</w>
daugh ter,</w>
ca es
b at</w>
assemble ia</w>
anti o
ak i
( 3.
í fer
ther e,</w>
rock ,</w>
ri f
regi on,</w>
ral ph</w>
qu é
promo ver</w>
pris on</w>
po et</w>
pe ace
oppos ite</w>
nat al</w>
le ",</w>
la w,</w>
l on</w>
interpre tou</w>
fres h
fic ation</w>
dr ug
defin e</w>
dan ,</w>
cí r
coun ty.</w>
communic ation</w>
baixa- normandia,</w>
azer bai
as sem</w>
ar an
al tamente</w>
aci dente</w>
ac tor.</w>
, 00
(consulado- ger
(200 7)</w>
us ers</w>
ur b
sis "</w>
re u
ran king</w>
rad ical</w>
per u</w>
most rou</w>
maur ice</w>
mascul ino</w>
jun tos</w>
g ay</w>
franc ês,</w>
cri mes</w>
con ex
av a-se</w>
ari z
adv ance</w>
ab les</w>
16 -
ás tica</w>
year- old</w>
spe ars</w>
so cor
ri val
ra w</w>
phys ici
ph ry
minu te</w>
h ex
h ada</w>
go i
er y
ec lip
draf t</w>
crai g</w>
com bat
can ada,</w>
2 *"
( al
" this</w>
un ,</w>
um ",</w>
sil ver
separ ated</w>
po et
pensilv ânia,</w>
par ado
ol .</w>
mun d</w>
ist as,</w>
hu gh
forma m</w>
estru tur
es co</w>
d .,</w>
chur ch.</w>
car ga</w>
apresent ação</w>
ang el</w>
198 5)</w>
18 th</w>
( ii
ther e.</w>
th us,</w>
societ y,</w>
mar cus</w>
lun ar</w>
ligh ts</w>
lear ned</w>
k g
jo b</w>
i or,</w>
fal a</w>
ev it
estu dantes</w>
equ i
en ri
county "*</w>
ap on
ai .</w>
== neighbouring</w>
198 6)</w>
0- 7
tradi tion</w>
show ing</w>
shi f
plata forma</w>
necess ário</w>
me cân
is o</w>
io -
inclu iu</w>
her self</w>
fic ado</w>
em ble
dor o
chap el</w>
ba il
atmos pher
appear ances</w>
ve d,</w>
v a,</w>
synon ym</w>
sul liv
sle ep
sing er,</w>
si vo</w>
ro sen
pr ús
portug al.</w>
pol and</w>
po se
per sian</w>
ot ta
mur der</w>
mil hares</w>
lev ando</w>
irel and</w>
ho li
esto col
er i</w>
do :</w>
cor ação</w>
co ol</w>
chan cel
cambri dge,</w>
7 2</w>
y le</w>
turri dae.</w>
tin e</w>
sal am
quilô metros</w>
pa y-
origin al,</w>
ori ente</w>
nic ar
nes s,</w>
mon ro
li dae</w>
lev ant
le pto
h ind
começ ando</w>
colômbi a,</w>
co up
cli ma</w>
be ta</w>
avo id</w>
associ ado</w>
adap ted</w>
2 /
( um</w>
% ),</w>
él ite</w>
tion ==
si eg
si d
se vel
san g</w>
resul tou</w>
public ação</w>
le pi
jo go.</w>
hurric ane</w>
egyp tian</w>
distin ct</w>
cer ia</w>
austr ia</w>
at ores</w>
0 3
territ or
sam ur
proper ties</w>
plant a</w>
pass agem</w>
or i</w>
low -
li min
j a.</w>
gê nio</w>
do g</w>
d ica</w>
cham ber</w>
cent er,</w>
assum ed</w>
aspec tos</w>
aplic ação</w>
==cast ==*</w>
.com /
(consul ate-
ö l
x i</w>
trans missão</w>
sto od</w>
serv es</w>
sen ate</w>
re mix</w>
joh annes</w>
ing s.</w>
indi ana,</w>
ey es</w>
ement ,</w>
dru g</w>
di um</w>
co orden
can cer</w>
britâni cos</w>
bo und</w>
assist ente</w>
arch bishop</w>
" it's</w>
ári os.</w>
ww f</w>
u re
ty -
tur b
thous and</w>
segu e</w>
resist ance</w>
releas e,</w>
que be
min i
inter ne
im pul
f )</w>
exér cit
encontr a-se</w>
e ix
desco bre</w>
de vas
contro ll
car .</w>
as ser
ar en
ar bit
==references ====
197 7,</w>
1 13
tuber cul
suce dido</w>
sie ge</w>
si ,</w>
sat élite</w>
no -
mi ami</w>
m ín
li b
jon es,</w>
is )</w>
gr en
g ly
enem y</w>
em os</w>
el -
d á
chr y
childr en.</w>
busin ess
au .</w>
ale ks
" don't</w>
" a
é m.</w>
vel ha</w>
te 's</w>
sch u
santi ago</w>
ru a</w>
roo sevel
pin tura</w>
o vi
no .
min a</w>
k night</w>
househol d</w>
gmin as</w>
g im
four -
fe u
evolu ção</w>
estabelec er</w>
dev ice</w>
descen d
depo is.</w>
bodi es</w>
bo w</w>
blo que
berli m,</w>
autono mous</w>
an :</w>
al on
wo ol
v is</w>
tokug awa</w>
sur giu</w>
poli tics</w>
pol ó
orden s</w>
mon ten
le p
j ag
downlo ad</w>
differ ence</w>
cr ise</w>
con quer
cidad ãos</w>
ci a.</w>
ce phal
categ ory</w>
(200 3)*</w>
" eu</w>
th um
s quar
n ave</w>
j in</w>
it a.</w>
in sur
gmin as==
gminas== gmina</w>
eventu almente</w>
em ed</w>
el dest</w>
dendro n</w>
condi ção</w>
canad á.</w>
brief ly</w>
bol a</w>
beg in</w>
b m
arti ficial</w>
virg in</w>
t ados</w>
st am
st able</w>
spee ch</w>
se ção</w>
sa ída</w>
rom ân
ran k</w>
provin cial</w>
pin k</w>
p ab
o xi
mol é
mo on
materi ais</w>
lim ite</w>
langu age,</w>
inú mer
i tem
hav a</w>
georg ia</w>
compe te</w>
car ,</w>
ar o</w>
194 9</w>
(200 5)*</w>
( u
" so
" ac
" ("
ö n
wall s</w>
tre ated</w>
te lef
sw im
su z
segu ida</w>
roun d.</w>
resul t,</w>
pro p
op ter
mar tial</w>
m últi
langu age.</w>
k h</w>
instrument os</w>
har ris</w>
fel d</w>
do d
cor nel
cel er
car ib
c n
brittan y</w>
ar mi
aplic ações</w>
al do</w>
8 5</w>
198 0)</w>
0 4
(200 4)*</w>
(199 8)*</w>
( such</w>
" os</w>
" lu
tan ,</w>
t as,</w>
séri es</w>
sing ap
revel ou</w>
relacion amento</w>
pe tr
olog ist</w>
negóci os</w>
mess age</w>
is tics</w>
introdu zido</w>
greg ori
for temente</w>
et t</w>
estu di
duch ess</w>
countri es.</w>
consider ados</w>
con fu
ck er</w>
b )</w>
198 4.</w>
venezuel a.</w>
tem po
tal k</w>
soyu z</w>
roman tic</w>
public ation</w>
prote ction</w>
ológ ico</w>
man dato</w>
i :</w>
her mann</w>
giu sep
descri ção</w>
descri be</w>
cl ás
bo dy
be ar
at ori
angol a,</w>
ac tor,</w>
198 3.</w>
wol f</w>
w o,</w>
v á
usi as
tex tos</w>
spon sor
spir itual</w>
s ung</w>
re ality</w>
r p
protec t</w>
program ação</w>
mo or
manus cr
man t
lanç ar</w>
kir k</w>
k ne
k ate</w>
i re.</w>
i o,</w>
ger .</w>
espan ha.</w>
ec ,</w>
d al</w>
austráli a,</w>
12 .</w>
1 17
( 4</w>
" he
sing er-
sever e</w>
s cand
ro s.</w>
recom men
reas on
pennsylv ania,</w>
pay- per-
mã e,</w>
k ro
for e,</w>
exteri or</w>
expres s</w>
atu almente,</w>
améric a.</w>
== filmo
198 4)</w>
15 3
( ).</w>
you tu
s now
re per
program s</w>
po dia</w>
pat tern
pass ing</w>
p um
o *
nav ig
jess ica</w>
inf anti
h ugh</w>
glo b
g one</w>
frequ ent
especific amente</w>
des sas</w>
com emor
ce o</w>
as ",</w>
appear ing</w>
7 "</w>
6 2</w>
ó ric
z ep
u. s.
re viv
r ur
pro ibi
pal o
mar ks</w>
la -
kingdo m.</w>
ho mem
eg íp
eas t,</w>
difer ença</w>
di â
ch y
be ck</w>
bah á
sus an</w>
promo te</w>
pos it
pe tró
pain ter</w>
orqu íde
orch id</w>
nor theastern</w>
m in</w>
k ia</w>
intro duc
individu als</w>
h d</w>
gene tic</w>
fu tu
encontr o</w>
em ma</w>
e inste
con tato</w>
bo ul
ber to</w>
ar es,</w>
с к
téc nico</w>
tou ch
su port
spe l</w>
se a,</w>
resolu tion</w>
pedr a</w>
n ell</w>
medic ina</w>
lugar es</w>
importan ce</w>
gu ad
g ain</w>
con cel
cli mate</w>
cai u</w>
bi ological</w>
bati z
aç ões
aw a,</w>
an a
194 1</w>
12 0</w>
ê mia</w>
z er</w>
war ren
war d,</w>
t wit
se at
re d.</w>
ran dom</w>
quin ta</w>
permit indo</w>
min ha</w>
legen d</w>
jul ian</w>
j ava</w>
ia "*"
go m
film 's</w>
econo mi
di as,</w>
collabor ation</w>
capac ity</w>
candi dato</w>
astr ôno
amo str
al fre
addres s</w>
ac compl
9 9</w>
15 4
tour .</w>
sebas ti
se mel
s ph
s mar
s ")</w>
rel ation</w>
produ tores</w>
populari dade</w>
naqu ela</w>
mississi ppi
may or</w>
lit u
in jur
gul f</w>
foto graf
fl ash
fashi on</w>
equat orial</w>
confor me</w>
car tas</w>
cap ital
bow l</w>
arti cles</w>
alexand ra</w>
5 8</w>
197 3,</w>
" what</w>
z ol
z a.</w>
team ,</w>
stewar t</w>
segu indo</w>
represent ing</w>
represent ação</w>
r -
orchid aceae
mús ica,</w>
lan e</w>
jur is
jor n
ic s.</w>
gro ve</w>
go spel</w>
fer ro</w>
ator .</w>
anima tion</w>
198 3)</w>
198 2.</w>
sk ill
ses sion</w>
resid ência</w>
re forç
por ts</w>
p assi
log os</w>
la ura</w>
in '</w>
i ons</w>
fil led</w>
des ig
depen dendo</w>
bi os</w>
atl ant
acres cent
ab c</w>
196 8,</w>
17 3
wat ch</w>
view ed</w>
theod ore</w>
tennesse e,</w>
ste p
sa id,</w>
re fin
re beli
r ating</w>
poten cial</w>
op er</w>
o ts</w>
min e</w>
leagu e.</w>
jar din
increas ing</w>
im .</w>
ho tel
har dy</w>
g a.</w>
facil mente</w>
ex ist</w>
egyp t</w>
direc tor,</w>
dam age</w>
con greg
communic ations</w>
bar r
arm y.</w>
ar á
ar res
agen cy</w>
aar on</w>
20 -
" en
spa in,</w>
soc cer</w>
sab e</w>
s ão.</w>
re port
re cé
posi tiv
n ing,</w>
mani fest
l ado,</w>
jour ney</w>
im pedi
flu xo</w>
enti rely</w>
ele tro
dólar es</w>
dri ver</w>
determin ar</w>
con ne
ci vil
call s</w>
bo g
b esi
autor idades</w>
annivers ary</w>
abor d
19 10</w>
1 18
vi ii</w>
usu ários</w>
ti vi
t l
roc ket</w>
rece be</w>
princípi o</w>
par am
ohi o</w>
municipali ties</w>
mat su
itáli a.</w>
hú midas</w>
hum ano</w>
gall ery</w>
fin almente,</w>
fac tor</w>
every thing</w>
est ado,</w>
el se
e )*</w>
diz er</w>
determin e</w>
colabor ação</w>
cl aus
berlin ,</w>
b j
ac tor
196 4,</w>
(consulate- general)**</w>
(200 6)</w>
ri a.</w>
regar ding</w>
recé m-
popular ity</w>
n es,</w>
mat ar</w>
lí qui
localiz ação</w>
la wy
l s
indic ate</w>
gr ão-
es c
combus tí
coloc ado</w>
childr en,</w>
carib be
bahá '
bach ,</w>
agricul tural</w>
192 8</w>
( ed.</w>
" if</w>
ível .</w>
win ners</w>
str ang
s ali
ro po
ray mond</w>
permiti r</w>
p ica</w>
ordin ary</w>
o ti
o me</w>
negr o</w>
k au
her bert</w>
g lu
fl y
eth io
childr en's</w>
al mente.</w>
ag em
absolu te</w>
a es
(consulado-ger al)**</w>
" to</w>
tent ando</w>
sugg ests</w>
stu dent
sis te
re união</w>
re al,</w>
pr az
pa co
nor d
m um
jose ph
jo v
in 's</w>
gu y
ester ,</w>
eas t
document ary</w>
develop ment
des pre
da i</w>
d z
curr ing</w>
comp ati
chemis try</w>
ch ile</w>
califór nia</w>
c ão</w>
bo êmia</w>
aspec ts</w>
an us</w>
amaz on
al one</w>
197 9)</w>
1 *
éri a,</w>
volun t
thous ands</w>
st s-
setem bro,</w>
schedu led</w>
ry ing</w>
respon sab
pass aram</w>
monaster y</w>
mechan ical</w>
materi als</w>
la k
fl ash</w>
fi l</w>
fa ith</w>
e vil</w>
consider able</w>
consegu ir</w>
conne ction</w>
cion ais</w>
cho se</w>
b avi
assassin ato</w>
ass ent
as ;</w>
ar ily</w>
ar "</w>
an temente</w>
(200 6)*</w>
( so
whe el
under standing</w>
se a.</w>
s :*</w>
represent ative</w>
re conhecido</w>
master s</w>
lem br
intelligen ce</w>
in hos</w>
hamil ton</w>
go sl
gab ine
forman do</w>
f ia</w>
equ ili
dan ce
au verg
atu res</w>
194 7</w>
194 4</w>
"r ho
а н
u k,</w>
só li
societ y.</w>
s per
ret t</w>
res em
portr ayed</w>
phy l
p tion</w>
o a</w>
k ot
he bre
gusta v</w>
geo metr
fer rar
diag no
co ck
categ ori
ban da.</w>
arti stic</w>
advant age</w>
201 4
196 9,</w>
193 7</w>
virgini a,</w>
tiv es</w>
t u</w>
semel han
sch ul
ric hard
pres o</w>
ph ar
par ada</w>
ne- et-lo
máxim o</w>
mor ris</w>
mar ro
man *</w>
infan try</w>
in a"</w>
ic k,</w>
gr ade</w>
gi r</w>
get ting</w>
for ests</w>
dest as</w>
cap able</w>
bus h</w>
bu c
bro s.</w>
bo at</w>
ante ce
198 1.</w>
) :*</w>
vi k
sur vey</w>
sh am
settle ments</w>
saô ne-et-lo
pre limin
or ang
mat er
in se
emplo yed</w>
do mé
descr ita</w>
cre ative</w>
ci ted</w>
avi er</w>
aument ar</w>
20 .</w>
z e.</w>
ti ce</w>
ther mo
termin al</w>
surroun ded</w>
prote ção</w>
orden ou</w>
nit ro
las ted</w>
k g</w>
k ath
it amente</w>
hypo thes
harris on</w>
fran co</w>
f um
e b
distin c
cir ur
britâni co.</w>
ac qu
193 1</w>
17 th</w>
( o
week ly</w>
vil le
us s</w>
tu ri
tor na
ter 's</w>
sup ply</w>
struc tures</w>
regis tro</w>
recen temente</w>
pw i</w>
pos sa</w>
peter sbur
pat er
mi r</w>
inter rup
gréci a</w>
giusep pe</w>
d is</w>
cardin al</w>
car ry</w>
b ilidade</w>
at o.</w>
ap aix
af on
4 00
" ne
ñ a</w>
ti be
ted ly</w>
sin ais</w>
s y</w>
s um</w>
ron ald</w>
ro x
recogni tion</w>
pi ter</w>
per cent
peak ed</w>
lan cas
kenne th</w>
jun tou</w>
irlan da</w>
in tele
hu ge</w>
g ent
ff ,</w>
ferro vi
con sen
comum ente</w>
bru x
ber t,</w>
am ate
agu e</w>
194 3</w>
194 0,</w>
" /
vocal ist</w>
to ma</w>
salv ador</w>
rafa el</w>
pi ano,</w>
parti das</w>
pain ting</w>
os a,</w>
ocident al,</w>
nether lands</w>
ne er
met acri
les "</w>
jun g
j ,</w>
is hi
im pl
hou se.</w>
ho ur</w>
gi f
en te-
e in
daqu ele</w>
com promis
cam bo
agos to,</w>
197 1,</w>
í ve
tr am
to yo
ter esa</w>
si vely</w>
si de
set ts</w>
set ting</w>
públ icas</w>
prais ed</w>
pass ando</w>
origin al.</w>
oes te,</w>
newspap er</w>
nacion ais</w>
me ck
magn é
lu tou</w>
lear ning</w>
join ing</w>
in sula</w>
hon ra</w>
he c
fer nan
eng land
dro me</w>
dispon íveis</w>
c at</w>
arrang ed</w>
ant s,</w>
==== ===
7 1</w>
" ri
whil e,</w>
st an</w>
ser ,</w>
se i</w>
receiv ing</w>
poin t,</w>
pesso as.</w>
partí culas</w>
mi kh
mem bran
lu ke</w>
itali ano.</w>
hor se</w>
hel l</w>
gen ,</w>
finn ish</w>
environ mental</w>
dor f,</w>
de pressão</w>
cur ta</w>
condi tion</w>
com pres
califór nia.</w>
autor iz
air es,</w>
abri u</w>
young est</w>
un ced</w>
su it
stre am
specific ally</w>
sk ul
respec t</w>
recor ding
pri mo</w>
observator y.</w>
má quin
mat ch
massachu setts</w>
lieuten ant</w>
li bre
inst all
il o
hydro gen</w>
f im,</w>
f i</w>
execu tivo</w>
ender e
dé cadas</w>
deli ber
cláss ico</w>
char t.</w>
barcel ona</w>
audi ence</w>
ac ,</w>
" ...
wal ker</w>
w ad
s now</w>
represent antes</w>
pro vision
prati camente</w>
pit ts
nome .</w>
ma to</w>
lo we
lic h
jo an</w>
in sis
ger ais</w>
ferdin and</w>
fam a</w>
es :*</w>
dest ino</w>
conven ção</w>
cont ín
batt le
all .</w>
aliz ation</w>
acel er
( new</w>
" cor
zim bab
th é
te br
st ag
so fri
sac er
ris k</w>
resolu ção</w>
por t,</w>
phoen ix</w>
per di
or s,</w>
no ta</w>
mo s,</w>
main tained</w>
j r.,</w>
j esse</w>
est atu
elec tions</w>
di vision
dan t</w>
ch ich
al er
al a,</w>
197 6.</w>
16 th</w>
1 15
1 10
0 :
" it</w>
z or
v u
thre at</w>
teach er</w>
so le
scien ce,</w>
re cente</w>
pen insula</w>
parti es</w>
ni z
michel le</w>
mic a,</w>
medic ine</w>
indivídu os</w>
hu b
ho s.</w>
gre ece</w>
fu ji
fo gue
el even</w>
edit ora</w>
defe ating</w>
crimin al</w>
corre c
brasil eira</w>
at "</w>
astronom ical</w>
aristo cr
ari th
apol lo</w>
acredit ava</w>
6 8</w>
19 17</w>
y ).</w>
ur s</w>
teor ema</w>
t aram</w>
sub stan
sh an
sen d</w>
s ==the</w>
of fer</w>
me ets</w>
ing :</w>
gar cí
ear th.</w>
di ram</w>
d ),</w>
continu ar</w>
con texto</w>
compan hi
colo cou</w>
circu it</w>
budd h
al ty</w>
adventu res</w>
a un
1 1-
us am</w>
ten ção</w>
spec tr
re fr
rach el</w>
r and
pres entes</w>
possib ilidade</w>
mon et
mer ged</w>
le g</w>
jer sey</w>
institu ições</w>
g ay
form almente</w>
exce ção</w>
et ap
es ===
emplo y
edi ções</w>
caus ing</w>
be ar</w>
awar ds.</w>
atle ta</w>
argu ed</w>
alcanç ar</w>
a part</w>
== track</w>
í na</w>
épo ca.</w>
v -
te a</w>
sou theastern</w>
refer e-se</w>
quím ico</w>
pá gin
mar gin
m ís
lu c
lau re
ke y,</w>
ing ing</w>
film ing</w>
desaf i
derro tar</w>
classific ation</w>
angel o</w>
ac cident
6 1</w>
197 4.</w>
( ch
vul ner
v ass
tr ach
to ler
techni que</w>
s m.</w>
ri es</w>
on ly
n ass
monitor ing</w>
m s.</w>
lo mer
lead s</w>
jornal ista</w>
ior que.</w>
inter val
gr ace</w>
ger ais.</w>
g ing</w>
fl ora</w>
fal eceu</w>
ev ich</w>
déci mo</w>
dang er
co o
cap ela</w>
bar b
aus tro
atmos fera</w>
al e,</w>
196 0.</w>
193 8</w>
14 -
... "</w>
year s).</w>
th es</w>
str aus
roman a</w>
ris ing</w>
possu ía</w>
part y.</w>
o de
mostr ar</w>
montan ha</w>
me io-
k new</w>
k ak
jul gam
j am</w>
is mo,</w>
interpret ação</w>
h l</w>
episó di
constitu tional</w>
cere br
alph ab
al is</w>
== biblio
6 3
5 9</w>
" super
you 're</w>
vi ,</w>
trou xe</w>
sk in
os )</w>
or s.</w>
históri a,</w>
he iro
gr ay</w>
georg es</w>
fin ding</w>
eur o</w>
espan ha,</w>
dr a</w>
bad en-
air craf
ab brevi
7 00</w>
y u</w>
x ad
tur a.</w>
to p-
provi ding</w>
prote ger</w>
ou t,</w>
ológ ica</w>
n adu
mar cel
jul ho,</w>
ir on
imp éri
igre jas</w>
i ".</w>
geo graphic</w>
for ço</w>
f s</w>
er :</w>
ef fort</w>
difer enças</w>
cristi anis
co l</w>
car p
ali ,</w>
al um
197 8.</w>
190 0</w>
( e
" am
wi fe
vi br
tt i</w>
ren ome
pen e
n '</w>
mir ac
kil ome
inter rom
identi ty</w>
flo or</w>
f land
establis h</w>
din do</w>
di á
di ame
den i
cru ci
consi der</w>
col ap
cheg a</w>
bran ca</w>
augus to</w>
ac e.</w>
190 8</w>
viaj ou</w>
verdad eiro</w>
v ist
tor res</w>
te ".</w>
son or
sin f
ser es</w>
rápi do</w>
rap id</w>
qu ân
pos se</w>
nigh t"</w>
k l
is ing</w>
is ",</w>
inclus ive</w>
head s</w>
f li
expl ained</w>
est ações</w>
ed as</w>
conduc tor</w>
club ,</w>
cas ,</w>
belong s</w>
anima ção</w>
19 18</w>
á- la</w>
sen ado</w>
re tri
re tr
pol o</w>
new s
nas h
musici an</w>
fix ed</w>
duch y</w>
des conheci
crist ãos</w>
continu es</w>
consegu e</w>
conclu ded</w>
commer ci
com postos</w>
candi date</w>
avi ão</w>
ation ",</w>
36 0</w>
201 2
198 0s</w>
193 2</w>
"rho do
" br
version )</w>
tur qui
super vis
str ength</w>
signific ado</w>
sab er</w>
re forma</w>
prepar ed</w>
portugu esa</w>
phil li
ol e</w>
mor tos</w>
man ga</w>
lu a</w>
ko so
k ad
k ",</w>
ist s,</w>
investig ação</w>
inclu ía</w>
im proved</w>
he idel
go slav
frances es</w>
fin s</w>
execu ted</w>
equ il
duc ado</w>
começ ar</w>
cl an</w>
circu ito</w>
bun des
bair ro</w>
apar entemente</w>
alis "</w>
192 9</w>
(1 ):</w>
ó pter
statem ent</w>
si te.</w>
segu iu</w>
pow er.</w>
per .</w>
pe g
pe de</w>
pat h</w>
origin s</w>
michig an,</w>
m us</w>
lu tar</w>
in e"</w>
h 2
fi a,</w>
fe ar</w>
estr an
d zi
cup .</w>
citiz ens</w>
chin ês</w>
ch os
c ú
barcel ona,</w>
ation *</w>
as ).</w>
amb igu
amb ass
6 %</w>
197 7.</w>
195 5</w>
195 3</w>
y an</w>
ton *</w>
seri e</w>
s ü
resid ence</w>
re alis
qu el
próxim os</w>
platin um</w>
nome ,</w>
nam ent
mc cart
mar ço,</w>
mar cos</w>
liqu id</w>
leader ship</w>
labor atory</w>
je t</w>
ino *</w>
go li
first -
f are</w>
engine er</w>
document os</w>
destru ição</w>
cur to</w>
constru iu</w>
consecu tive</w>
compon ent</w>
but ter
bor is</w>
alli es</w>
al h
acredit a-se</w>
195 4</w>
" for
ível ,</w>
x o
vot os</w>
vi c</w>
up .</w>
to mas</w>
t *
so -
out standing</w>
never thel
mr s.</w>
k ō
is *</w>
intele ctu
inde x</w>
hun gar
habil idades</w>
h r</w>
en car
du quesa</w>
dinam arc
da ko
contr ac
celebr ated</w>
cas ado</w>
berli m</w>
ben s</w>
b le,</w>
auto mobil
ar am-se</w>
al mir
ag ência</w>
5 7</w>
192 4</w>
t to</w>
shap e</w>
scientist s</w>
receber am</w>
lon ge</w>
let as</w>
le ton</w>
inter ested</w>
i *</w>
gil bert</w>
filip in
ent rev
destruc tion</w>
depres sion</w>
cup :</w>
ch ain</w>
abandon ed</w>
196 2,</w>
192 2</w>
16 3
(200 7)*</w>
천 )*
ín dia,</w>
west .</w>
usu ário</w>
under ground</w>
theore tical</w>
tel li
sus pe
surviv ing</w>
resear ch
promo tion</w>
oli ve
mo ç
ma ker</w>
internacion ais</w>
hi red</w>
hard core</w>
gre g</w>
gener al
edif ícios</w>
constant ine</w>
ch i,</w>
aut um
architec t</w>
5 th</w>
13 0
1 1,
) ==references====external</w>
(200 1)*</w>
( nova</w>
zep pel
utiliz ação</w>
tim es.</w>
teach ing</w>
s "*</w>
reci pi
ocup ação</w>
mis sions</w>
lis bo
lad es
ides "</w>
herde iro</w>
goth ic</w>
f esta</w>
execu ção</w>
equival ente</w>
engine er
em my</w>
el os</w>
determin ado</w>
degre es</w>
d aph
car ros</w>
c m
br ilh
ar ro
ar it
al in
193 0,</w>
*" munidopsis</w>
" bar
árv ore</w>
á via</w>
where as</w>
vi er</w>
ur a.</w>
te at
succes sor</w>
ser bian</w>
realiz adas</w>
pe te</w>
padr ões</w>
neces sidade</w>
leon ardo</w>
leg ume</w>
km² ),</w>
it ado</w>
in scri
hen der
fo cused</w>
festiv al,</w>
extre mo</w>
ex port
eu gen
div ine</w>
disposi tivo</w>
cum pri
cres cente</w>
countri es,</w>
club s</w>
br ai
bo ot
an da.</w>
alab ama,</w>
[ ...
" i
uni on.</w>
ty "</w>
subst anti
st ations</w>
son s,</w>
sh aw
ro e
ri dae.</w>
res ,</w>
recor dings</w>
pap ers</w>
on to
n )</w>
mh z</w>
me c
lorenz o</w>
km² )</w>
k um
in duc
ic as,</w>
habitant es,</w>
g est
especi alista</w>
dram atic</w>
clo u
char ts
cham adas</w>
carol ina,</w>
be i
ating ir</w>
alph a</w>
196 1,</w>
(200 2)</w>
(199 9)*</w>
а р
íci as</w>
árab es</w>
vis ita</w>
tri um
tre ati
torna -se</w>
so s,</w>
sh ō
par as
mikh ail</w>
mic k</w>
le d,</w>
lati m</w>
l ack
k ent</w>
island s,</w>
hab ilidade</w>
f ag
environ ment</w>
en da</w>
dire ita</w>
dav id
conver ted</w>
confir m
con tou</w>
chang ing</w>
c ag
bel gian</w>
bang lades
baix os</w>
baix ista</w>
ar ma</w>
193 3</w>
192 6</w>
( asteroide</w>
( 8
venezu ela</w>
to po
tec nologi
tam entos</w>
stu art</w>
so zin
seguin te.</w>
pl ay,</w>
ofer ece</w>
mer .</w>
mc mah
mar e</w>
kans as</w>
ja ime</w>
irm ã
ii i.</w>
ic "</w>
herit age</w>
el ite</w>
dou ble
dis par
d ating</w>
convi dado</w>
con vic
camp us</w>
bloc k</w>
blo om
at t</w>
ab a</w>
: **</w>
196 5,</w>
194 5.</w>
"rhodo dendron</w>
õ e</w>
z am
up "</w>
the ories</w>
t ch
respectiv amente.</w>
relacion ados</w>
pros per
nicol as</w>
loc al.</w>
l .,</w>
identi dade</w>
di as.</w>
detal hes</w>
clar o</w>
ci ma</w>
call ing</w>
ben do</w>
195 1</w>
192 3</w>
10 –
( r.</w>
y er
x on</w>
tic .</w>
ter ap
sol ic
pas so</w>
o ;</w>
muse um
main tain</w>
ma -
ju ven
ju de
ing *</w>
ig en
hid den</w>
han na
fin als</w>
el der</w>
descre ver</w>
caracterís tica</w>
ani versário</w>
aer os
ac celer
abra ham</w>
194 6,</w>
( a
ã es</w>
y ang</w>
ven er
twent y-
tr um
th under
ta x</w>
stra ight</w>
spe cul
ri d</w>
ra ci
pra ia</w>
philosoph ical</w>
pe t</w>
mí dia</w>
moste iro</w>
mens agem</w>
kentuc ky</w>
ke "</w>
ind ica</w>
i 's</w>
htm l
hill ,</w>
ge of
fre d
fo x
faz ia</w>
fal ar</w>
episo de,</w>
eigh th</w>
d itos</w>
countr y's</w>
contro vér
char ged</w>
caus ou</w>
bar ri
ar kansas,</w>
apar ência</w>
7 4
)* *"
( 5</w>
wisconsin ,</w>
trabalh adores</w>
ti das</w>
romê nia,</w>
ro th
produc tions</w>
par aí
ou t.</w>
origin ais</w>
israel i</w>
is on
glen n</w>
del as</w>
def ence</w>
cus to</w>
cienti stas</w>
bal d
ad venture</w>
197 5.</w>
192 5</w>
); *</w>
tempor ada.</w>
ston e,</w>
soci ais</w>
ru ler</w>
rot ten</w>
re ais</w>
pur e</w>
per der</w>
peop le
par k.</w>
o th</w>
low land</w>
land a,</w>
k er.</w>
gru po,</w>
fu ri
forç ado</w>
figur as</w>
espe ct
en ne</w>
comerci ais</w>
bretan ha,</w>
bi da</w>
ben edic
ant arctic</w>
aliz ar</w>
ab un
201 0)</w>
( uma</w>
águ as</w>
wor st</w>
torn ado</w>
ste ven
sound track
sobre viv
represent ante</w>
procur a</w>
po bre
p c
or 's</w>
min o
marg em</w>
lic en
lev ado</w>
l ados</w>
il umin
ig h</w>
for maram</w>
eno vel
differ ences</w>
dec ad
crí tico</w>
cri tici
cent ro-
c lock</w>
at i</w>
armen ian</w>
am iz
a um
190 4</w>
14 .
- day</w>
( ar
( 180
" su
wat er,</w>
vi a
v h
se d,</w>
prémi o</w>
plat form</w>
me asure</w>
mal awi
main stream</w>
l ar</w>
k yo
jo y
ish es</w>
in nov
his pan
g av
eu p</w>
equ ação</w>
elen co
eas y</w>
deut sch
dam as
coun c
con v
colé gio</w>
br il
ascen são</w>
apresent ar</w>
algu ém</w>
14 0
" best</w>
ê nio</w>
work ers</w>
vi vo
tro n</w>
trein amento</w>
to mato
to day,</w>
sh in</w>
s ==*
roun d,</w>
própri as</w>
posi tion
l ica</w>
g e.</w>
fin ishing</w>
fen ô
de ba
ci das</w>
childr en
ch at
car s</w>
bil he
b or</w>
awar d
attribu ted</w>
194 1,</w>
19 14</w>
00 -
voic ed</w>
tri p</w>
se t,</w>
roman ian</w>
recus ou</w>
ra p</w>
ne eds</w>
nan cy</w>
modi fied</w>
mediter r
le d.</w>
k han
is sa</w>
is mo.</w>
hel en</w>
gam es
flóri da,</w>
ev acu
empi re
deser t</w>
c bs</w>
c az
b ü
autó no
ag lomer
ab revi
( 1,
v ê
us )</w>
train ed</w>
tel enovel
tax on
shor e</w>
preci pit
pas ses</w>
pal co</w>
nic a,</w>
ne phe
jus tin
j ér
in tu
in do
im migr
gol fo</w>
flor ida,</w>
earth 's</w>
cri ança</w>
conqu est</w>
compon entes</w>
cit y's</w>
cer ta</w>
camp bell</w>
bou ght</w>
atóri as</w>
americ ana.</w>
am bro
10 ,
ç o.</w>
writ er.</w>
wan g</w>
twent y</w>
tr en
te orias</w>
suces sor</w>
show "</w>
seas ons</w>
safe ty</w>
sac r
ri .</w>
progres sive</w>
offic ers</w>
nor way</w>
nor th,</w>
net work
mor oc
mon s</w>
mad eira</w>
ix ,</w>
interpre tado</w>
integr ated</w>
high way</w>
h and,</w>
graph y,</w>
forest s,</w>
for mo
et os</w>
ele itor
dou tor
cul ture
controver si
co .,</w>
base ball</w>
assin ado</w>
ame aça</w>
ab ad
==bio grafia==
" or
" for</w>
z "</w>
william s,</w>
wil d
vo te</w>
vi da
v am
ti e</w>
spe ak</w>
south- west</w>
sant '
sacri fic
pr ai
perío do,</w>
pear l</w>
p ira</w>
offer s</w>
mo r</w>
loc al,</w>
ki .</w>
it ation</w>
h ans
flor ence</w>
evi den
escrit ores</w>
de vi
coron el</w>
constant ino</w>
cer tified</w>
cade ia</w>
al tar</w>
19 17,</w>
** **
"*" diaporthe</w>
to u-se</w>
sul tan</w>
sch il
retur ns</w>
res pir
pro of</w>
ple r</w>
par ceria</w>
mem ori
inf ância</w>
ide ias</w>
grá ficos</w>
grap her</w>
gar ia</w>
fu el</w>
filip e</w>
ent ly,</w>
disposi tivos</w>
dimen sional</w>
compo und</w>
cam po
b as</w>
and ra</w>
affair s</w>
ac cept</w>
19 20,</w>
" i'm</w>
ti li
territ ories</w>
territ ori
t af
sug ere</w>
sub mission</w>
so ma</w>
sch em
s air</w>
promo ção</w>
pi x
per mi
muham mad</w>
le ão</w>
jeffer son</w>
g w
fail ure</w>
fac es</w>
es cul
er ec
dif í
deut sche</w>
day s.</w>
cor ren
conserv ative</w>
civ is</w>
an as
algori th
ador as</w>
10 0,</w>
(200 1)</w>
( j
" man
éri as</w>
ven cer</w>
vehic le</w>
that 's</w>
sp id
sen hora</w>
s v
qui m</w>
posteri or</w>
or ton</w>
mit ologia</w>
jul ia</w>
fr ustr
for tific
famili ar</w>
dr illi
d j
cr aw
clevel and</w>
cic lo
bil lion</w>
bak er</w>
arce bispo</w>
ap proved</w>
an *
al tos</w>
ag rad
== #</w>
9 8</w>
198 8)</w>
193 5</w>
( 10</w>
"s mackdown
x in
tion ",</w>
t ation</w>
si de.</w>
selec tion</w>
profes sion
pro phe
princípi os</w>
precis a</w>
po it
per fil</w>
paul o.</w>
pag es</w>
n an</w>
mai o,</w>
let ter
juli us</w>
jo el</w>
jer ic
island s.</w>
integr al</w>
inte l</w>
he d.</w>
galá xi
fin ite</w>
ev ans</w>
euro vision</w>
eg ito</w>
e do</w>
del l</w>
cl ay</w>
cl av
ce l</w>
brook ly
bo ston,</w>
bel ous
auton om
asi á
aquit ânia,</w>
any thing</w>
ant oni
ando- o</w>
alfab eto</w>
adi ção</w>
== no</w>
197 4)</w>
197 3)</w>
196 6,</w>
194 8,</w>
12 7
v es,</w>
stat ing</w>
s can
py ram
pron unci
pl ate
or ç
o corri
nei ther</w>
lim it</w>
lepi do
kir ch
k ai</w>
jes u
impren sa</w>
gradu ally</w>
glas s</w>
forma t</w>
fe ar
fa ul
em ir
elec tric
ed gar</w>
decl ine</w>
arab ic</w>
ab u
== recep
6 3</w>
(200 0)*</w>
(199 5)*</w>
xi do</w>
whi te,</w>
u f
tw in</w>
trabal ha</w>
to tal
ti pic
swe den.</w>
subor din
soci alista</w>
s r.</w>
s burg,</w>
pos a</w>
play off
not áveis</w>
mo de</w>
mis sing</w>
mercur y</w>
kentuck y,</w>
im prison
ha i</w>
gradu ate</w>
go tt
equil íbri
do enças</w>
detail s</w>
dav is,</w>
bul l</w>
be ars</w>
b em-
afgh anist
acous tic</w>
ab as
197 5)</w>
- sur-
xi x</w>
w ick</w>
ven e
v are
um er
tol ki
sh ang
sch we
ris co</w>
regi ão.</w>
pi o</w>
ov .</w>
oc y
mur der
mac mil
ma estro</w>
li ge
in do-
igu al
i k</w>
h -
electr ical</w>
ec clesi
earth qu
defin ido</w>
defin ida</w>
dan ça</w>
cr ash
co pe</w>
co )</w>
car th
camer o
c ay
ag res
9 6</w>
7 3
198 7)</w>
" when</w>
" ver
" can
ôni cos</w>
vi an</w>
tent ativas</w>
system s.</w>
su je
st ayed</w>
semelh antes</w>
sel s</w>
se gre
ro ta</w>
ro de
ri be
prus si
poli tic
pap al</w>
p in</w>
nes s.</w>
mo ment</w>
le ts</w>
le ban
lanç ados</w>
je ws</w>
j ó
ist as.</w>
ill o</w>
ic ul
histor ic
filósof o</w>
exérc itos</w>
exclus i
ex centr
es cur
entr ance</w>
e pic</w>
detro it</w>
con go</w>
b ly</w>
at us"</w>
arquite to</w>
ar es.</w>
an alis
americ ano.</w>
alde ia</w>
:: *</w>
: #</w>
0 )*
we ather</w>
tw ice</w>
tri bo</w>
succes sion</w>
statis tical</w>
sho ck
schleswig-hol stein,</w>
sacer do
rejec ted</w>
producer ,</w>
pain ted</w>
no st
n one</w>
n g</w>
micha el
mem o
me ter</w>
me ios</w>
il eg
fir st,</w>
filma gens</w>
difer enci
dest roy</w>
cultur as</w>
cris is</w>
cr ic
cr ater</w>
colum bi
ch it
cerim ônia</w>
auth ors</w>
ation )</w>
apar ecer</w>
again ,</w>
7 3</w>
13 .
( paris,</w>
( 6</w>
( 15</w>
" el
ven to</w>
v or</w>
tó qui
séri e.</w>
sk o
si ble</w>
sho w.</w>
seri es
scot land</w>
pre feito</w>
p isto
own er</w>
oc ul
michig an.</w>
li by
justi ça</w>
j ah
in fl
il ed</w>
histori adores</w>
he u</w>
funer al</w>
fregu esia</w>
ex ac
dri ven</w>
cur ren
corre r</w>
cer co</w>
c c</w>
be ver
base ados</w>
bar on</w>
as t,</w>
ap r
al so,</w>
ab sen
14 .</w>
(200 0)</w>
(199 6)*</w>
( ep
" não</w>
" bu
" ===</w>
vide os</w>
us $
transfer ência</w>
suces são</w>
so mer
prefeit ura</w>
prac tical</w>
peri o
mo tores</w>
m es,</w>
lo ja</w>
l a,</w>
j .,</w>
invol ving</w>
indi an
in ser
har vey</w>
h n</w>
gir am</w>
ev el
espanho la</w>
eng aged</w>
encontr adas</w>
ec w</w>
dispon ib
da is
con fin
commit ted</w>
cl ay
chur ches</w>
care er.</w>
car ne
ad ing</w>
a a</w>
200 1
(199 9)</w>
ânci a,</w>
tor y</w>
te au</w>
suec o</w>
sti g
robin son</w>
ro ut
requi res</w>
ren unci
re pris
promo vido</w>
pre cur
pr ag
perman e
part ner</w>
mo ur
min i-
mar il
madri d,</w>
m ér
in no
ib m</w>
i ção,</w>
hy dr
ful l
f t
evi dências</w>
ear th,</w>
e fic
cross -
contr ast</w>
catar ina</w>
car ter</w>
aus tin
apaix on
197 2.</w>
si mo</w>
pret ty</w>
pre hen
person s</w>
parti al</w>
ol hos</w>
ke e
inte grantes</w>
ho o
hip -
filho s,</w>
en sem
doc uments</w>
dis curso</w>
cr isto</w>
colon el</w>
co ok</w>
bi el
b is</w>
arbit r
an el</w>
afir mando</w>
a en
196 8.</w>
193 4</w>
19 10
(199 7)*</w>
( 1)</w>
" imp
tech nologi
tar get</w>
sig nal</w>
re tro
michig an</w>
magaz ine
lider ou</w>
l ent
gr an</w>
gam a</w>
exibi do</w>
escr itas</w>
di .</w>
den mar
com pens
== on</w>
2004 *"pleurothallis</w>
197 6)</w>
13 8
0 2
( tv</w>
t as.</w>
sub ur
su it</w>
s ==*</w>
re member
re form</w>
pol ônia</w>
po k
p at</w>
me try</w>
mal col
l one</w>
im mor
frankfur t</w>
ex plan
eis en
color ado</w>
co ste
cláss ica</w>
citi zen
ch b.
axi o
ax is</w>
ar rival</w>
apos to
apar ente</w>
a x</w>
< /
9 2</w>
193 9,</w>
" )
under tak
tan a</w>
tal es</w>
shoot ing</w>
r ö
profes sor
producer s</w>
perío dos</w>
perman ece</w>
observ ations</w>
nav ar
my s</w>
le x
har r
graç as</w>
go st
garanti r</w>
equip ment</w>
ed s.</w>
de mais</w>
de i</w>
conso le</w>
coas tal</w>
co *</w>
cas tro</w>
bor g</w>
ans "</w>
agr ama</w>
) _
" rolling</w>
últi mas</w>
system s,</w>
sy no
sil ent</w>
sat éli
rest ante</w>
reput ation</w>
represent ar</w>
prime iramente</w>
ob ser
o be
mean while,</w>
ing en,</w>
ig i</w>
hous ton</w>
ho g
h "</w>
fre i
fi es</w>
estat ís
dr e</w>
desenvol ve
dese jo</w>
de e</w>
centuri es</w>
cen e</w>
bo ts
bo .</w>
arti ll
arqu ip
ali e</w>
alem ão,</w>
==históri a
7 7</w>
201 5</w>
19 16</w>
с т
use ful</w>
th al</w>
syd ney,</w>
span ish
servi r</w>
see ing</w>
san gu
p ô
occup ation</w>
ju dge</w>
ira q</w>
increas ingly</w>
ho w
form ,</w>
favor ite</w>
f ê
ev alu
estabele cido</w>
er ".</w>
el ia</w>
di alo
den mark</w>
crat era</w>
bul l
[... ]</w>
197 0s</w>
( incluindo</w>
í am</w>
ze go
ven da</w>
tre at</w>
to cou</w>
requ ire</w>
o us,</w>
ham mer
g aga</w>
exer c
ex act</w>
don al
dg e.</w>
cous in</w>
conc ili
child hood</w>
campe ões</w>
authori ties</w>
ant s.</w>
algorit mo</w>
adri an</w>
è v
á sia,</w>
z i</w>
w ich</w>
vietn am</w>
us '</w>
un cle</w>
ty ler</w>
te za</w>
some what</w>
scien ce
sa i</w>
pe o
oport unidade</w>
on a.</w>
nadu .</w>
mag is
list s</w>
ish i</w>
infant aria</w>
ho f
gr ay
es lav
ement .</w>
des apare
d ;</w>
cre ek</w>
cerem ony</w>
cal or</w>
b one</w>
atu ais</w>
at es,</w>
[ http://
197 7)</w>
" from</w>
íci o,</w>
águ a,</w>
víde os</w>
transi tion</w>
tom ada</w>
theor y.</w>
the tic</w>
t aça</w>
swe et</w>
sub divisões</w>
sh ack
par ker</w>
pa ix
os *</w>
nacion al.</w>
lin ked</w>
k )</w>
ir ani
g p
fi co,</w>
es forço</w>
econô mica</w>
dal e,</w>
cé sar</w>
cost um
com mo
co dific
cas si
by r
ant ônio</w>
18 -
1 16
xi x,</w>
the o
sé cul
slo ven
romê nia</w>
ref ere</w>
pul mon
pen gu
observ ações</w>
no ble</w>
ly "</w>
kan e</w>
fer ,</w>
f ay
dur ação</w>
cent enas</w>
atmos phere</w>
al tar
; *
196 9)</w>
19 18,</w>
ung -
to mb
ti dae.</w>
t am</w>
sus tent
suici de</w>
sax ony,</w>
re ck
on ",</w>
my an
ma *</w>
lou is
iz ation</w>
itun es</w>
ing ham</w>
ind ígen
illino is</w>
en *</w>
dis ser
dire cion
de ep
d. c.</w>
consegu iram</w>
cheg ando</w>
calend ário</w>
bi an
au -
ass ume</w>
ang lic
agu il
a í</w>
==== ===</w>
(200 1).</w>
ucr ani
tv ,</w>
si gh
revel ado</w>
requ est</w>
prima vera</w>
picar dia,</w>
par cialmente</w>
outu bro,</w>
opport unity</w>
n ari
mad ison</w>
he ight</w>
gen es</w>
fortal eza</w>
fer re
ex ces
est res</w>
es sem</w>
emi gr
diplo matic</w>
cas te
bel a</w>
( 9
" q
" mi
y ang
who ,</w>
ur o</w>
studi os,</w>
sti ll
result ado,</w>
purchas ed</w>
provision al</w>
pro ve</w>
n ine
mil len
men "</w>
m ün
limi tes</w>
lat in
lab el
l or,</w>
ist ão</w>
georgi a,</w>
francis co,</w>
f é</w>
eti ó
em br
descen dentes</w>
de plo
correspon ding</w>
continu aram</w>
con voc
com ics</w>
cois a</w>
cent ros</w>
ben o
ant arc
ambi ent
affec ted</w>
a tel
1, 000</w>
( d.</w>
ó n,</w>
wal es</w>
ver tical</w>
v o,</w>
uni on,</w>
transi ção</w>
tour ing</w>
t le
salv ar</w>
qu eri
poe try</w>
ou- char
mosco u,</w>
matri x</w>
martin ,</w>
lan ce</w>
k el</w>
head ,</w>
h as.</w>
ger al
ex cell
eu gene</w>
equ ation</w>
edi tions</w>
dr il
di ção</w>
destru ir</w>
color ado,</w>
cem it
buf fal
bot tom</w>
bat man</w>
ant agon
ab y
a id
7 th</w>
196 0s</w>
195 8,</w>
(200 9)*</w>
" star
" journal</w>
world wi
w ish</w>
tiv o,</w>
sh ane</w>
s r
ro d</w>
re i,</w>
ra d</w>
pro vis
power ed</w>
possi bil
poit ou-char
plac e.</w>
patr im
on ic</w>
on das</w>
mo s.</w>
mil ton</w>
ment s,</w>
l end
japon eses</w>
in cident
glo s
gan hando</w>
fábr ica</w>
form .</w>
estú dio,</w>
es ter</w>
draw ing</w>
divisi ons</w>
da im
d ú
cor in
cir cular</w>
ch av
cas a,</w>
arres ted</w>
ali en</w>
a j</w>
a g</w>
9 7</w>
á le
win ,</w>
utiliz a</w>
ukrain ian</w>
tur ning</w>
super -
su post
stand s</w>
sour i</w>
sk et
shor t-
s cat
po vos</w>
men do
lev aram</w>
in es.</w>
histór ica</w>
histori ans</w>
guin é</w>
ga tes</w>
experien ced</w>
er r
dan os</w>
cy lin
cour t,</w>
contrat ado</w>
conquist ar</w>
con idae.</w>
competi ções</w>
colombi a,</w>
co ck</w>
car á
c ).</w>
ar d
actr ess,</w>
19 00
13 th</w>
ênci as,</w>
utiliz ar</w>
techni ques</w>
st ages</w>
spe ed
res .</w>
prov ável</w>
po do
norm ally</w>
noi te,</w>
medi das</w>
lider ada</w>
ic as.</w>
ic a
haute- saô
han g</w>
god des
girl "</w>
frances a.</w>
et y
ess ays</w>
electro n</w>
de gener
comman ded</w>
co up</w>
co ul
cas e,</w>
car l
can tou</w>
baix o,</w>
ap ó
al le
8 4</w>
198 9)</w>
197 3.</w>
190 9</w>
(199 8)</w>
wit z</w>
viol in</w>
tis su
ti le</w>
th in</w>
strugg le</w>
seri al</w>
sch i
rod ada</w>
quali fied</w>
popul ation.</w>
pi an</w>
pesso as,</w>
partici pan
p é</w>
on i</w>
on e"</w>
musici ans</w>
mediterran ean</w>
king dom
hum ans</w>
her edit
grá fic
gri f
fü r</w>
formula_ 1</w>
fic t
et "</w>
estabele cimento</w>
ent o
educ ational</w>
edi tion,</w>
countr y
com men
caval eiro</w>
bur gun
buil ding
br a,</w>
bir d
bi us</w>
b ós
atóri os</w>
as ia,</w>
ad vers
acab a</w>
198 0
17 .</w>
wo od.</w>
vi e</w>
tri ang
su ic
style ="
sk in</w>
sebas tian</w>
public ations</w>
public ados</w>
probabil ity</w>
novem bro,</w>
mi y
ler 's</w>
l af
jo ey</w>
in ov
h ass
gru po.</w>
galá xia</w>
gal li
exten sion</w>
ex pon
enfrent ou</w>
em il
e ")</w>
depu ty</w>
da *</w>
cav ale
categ orias</w>
camer a</w>
cam ada</w>
auto bio
atac ar</w>
assum ir</w>
ari as</w>
appar ently</w>
ap ple
9 /
8 2</w>
(e. g.,</w>
" u
wolf gang</w>
wh at
west min
us -
tro m
toc __
tion ally,</w>
sou th,</w>
se d.</w>
resour ces</w>
progr ess</w>
princi ple</w>
pri est
portra it</w>
pi the
massac re</w>
lu cr
le h
kepl er-
iv .</w>
il la
hum ana</w>
fr e</w>
excentr icidade</w>
ecclesi as
d ari
car deal</w>
bre ath
atta ched</w>
an ch
al ta-
ad ding</w>
8 7</w>
197 0)</w>
194 4,</w>
190 7</w>
( con
" der</w>
í zes</w>
x vi</w>
volun te
vil le.</w>
ur .</w>
tex ts</w>
s )*
restor ed</w>
represent ando</w>
raz ões</w>
pri est</w>
ph .
pap u
o z</w>
nu tri
nome ada</w>
mov es</w>
mis souri</w>
milh ão</w>
mes si
les lie</w>
jerem y</w>
in *</w>
gêner os</w>
fl ores</w>
fe et</w>
em i</w>
cé re
cor p
cat óli
bur ning</w>
ar te
apro xima
anos ).</w>
an j
an ab
ad ju
ac um
8 :
8 3</w>
7 8</w>
190 5</w>
19 11</w>
(200 3)</w>
(2 .
( 12</w>
way "</w>
tain s</w>
st e</w>
res ur
r ally</w>
pi emon
peri od
p t
norueg a</w>
north- east</w>
metropolit ana</w>
mediterr âne
me tri
me ga</w>
me ",</w>
lut ador</w>
li a,</w>
l is</w>
kar a</w>
k har
k hal
interpret ada</w>
indic ações</w>
hor n
guitar ra,</w>
geor ge
flow er</w>
fl at</w>
esti los</w>
enjo yed</w>
dro p</w>
design ação</w>
design ado</w>
dedic ado</w>
de fici
cop y</w>
cen ário</w>
ay an</w>
at um"</w>
13 .</w>
0- 0
0, 0</w>
van ia</w>
val le
tr im
tin do</w>
them es</w>
sup pli
star ts</w>
speci fied</w>
secon d-
rudol f</w>
regist ros</w>
re iv
pre g
pow er,</w>
pad re</w>
of -
nebras ka,</w>
n ac
la id</w>
institu ição</w>
i o.</w>
htm l</w>
fr am
englis h,</w>
dynam ic</w>
drum s,</w>
di agrama</w>
den tre</w>
contr a-
cog ni
cin eas
belong ing</w>
behav ior</w>
anti qu
aceit ou</w>
a e.</w>
6 th</w>
196 9.</w>
194 7,</w>
( mo
" how</w>
è ne</w>
we il
ver lag
us *</w>
u tt
u se.</w>
tay lor
strate gic</w>
sg eme
san c
recog nis
pap ua</w>
on ze</w>
indic ação</w>
gre y</w>
ger enci
experi ências</w>
economic s</w>
e k,</w>
deli vered</w>
deix a</w>
cr ater
concel ho</w>
commission ed</w>
cas u
az u
at su
ado "</w>
ab dul
201 1)</w>
veí culos</w>
ven ice</w>
v amp
tou ch</w>
toron to,</w>
também ==*</w>
speci es,</w>
rober ts</w>
resol ver</w>
re place</w>
radi ação</w>
radi ation</w>
ox ig
nomin ation</w>
ne ck
n ice</w>
moder no</w>
medal has</w>
mar ino</w>
mani fes
m b</w>
lag os</w>
ku ro
k ar</w>
ing ",</w>
in ae</w>
gue z</w>
gener al,</w>
ful l-
f "</w>
dis so</w>
dg ed</w>
col in</w>
clar a</w>
cen tes</w>
cathe dr
cas o,</w>
camp bell
bri ght</w>
b c,</w>
aqu i</w>
=== os</w>
== production
7 %</w>
199 7
" x"</w>
wat ers</w>
vol ley
un known
tt gar
tele vision
stu ttgar
strong ly</w>
sh im
secur e</w>
res i
r au
provin ce.</w>
ph us</w>
pe dro
on al</w>
n ó
n ai
mu ita</w>
mic a.</w>
m l
leg ac
le af
is es</w>
internacion al.</w>
her zego
gym nas
gre ga</w>
europe us</w>
et z
domin ant</w>
divul g
de te
conf id
coloc ar</w>
cat ólic
cas tro
bati sta</w>
atl ético</w>
ativ a,</w>
ant ónio</w>
ann ex
al lo
7 9</w>
19 15
( formerly</w>
zi e</w>
ve t
tom b</w>
ti er
the atr
suger iu</w>
some one</w>
s pher
rober t
re formas</w>
p an</w>
nikol ai</w>
napole ão</w>
n est
n ar</w>
log y</w>
les -
k ers</w>
instr uments</w>
ing a</w>
inclu ir</w>
id ores</w>
g ai
film ado</w>
dur a</w>
di dn't</w>
design s</w>
d ).</w>
concentr ation</w>
character ,</w>
car a</w>
back ,</w>
admir al</w>
7 6</w>
13 4
(200 8)*</w>
( am
y as
wi e
tab ela</w>
stre t
spi el
sh ,</w>
roman os</w>
ric e</w>
prus sian</w>
pr u
pr ic
planet .</w>
org an
occasion ally</w>
mul o</w>
l ori
jun ho,</w>
in s,</w>
hung ary</w>
históri a.</w>
funcion ários</w>
forne cer</w>
for ce
fo ,</w>
escrit ório</w>
democr ata</w>
day s,</w>
coun cil
copen hag
constantin ople</w>
carre ira
arqui tec
al tas</w>
again .</w>
ad vo
abr il,</w>
9 3
6 9</w>
2. 0</w>
194 3,</w>
192 7</w>
( in
( 7</w>
" big</w>
também ==*
sax ônia.</w>
s ora</w>
s low</w>
roo ts</w>
result ando</w>
re quis
pie tro</w>
o di
nin th</w>
ne ur
mecân ica</w>
measu res</w>
lider ado</w>
leagu e,</w>
inimig os</w>
i w
hist oria</w>
hi ,</w>
hel ena</w>
exclusiv amente</w>
dinam arqu
de vil
d ill
col un
ch uck</w>
carol ine</w>
c é</w>
bu ri
atac ante.</w>
as pir
as ),</w>
apar ecem</w>
an na
ambi que,</w>
amate ur</w>
adel ai
a :*</w>
== career==
192 1</w>
1. 5</w>
- general</w>
ا ل
á -l
wrestling **
wrest ler</w>
we aring</w>
viv em</w>
vide o,</w>
v ary</w>
trabal ho,</w>
ter ra
sk el
sing le-
ro do
restri al</w>
per si
pag e
p ér
no u</w>
ne to</w>
n ir
multi plic
mi dade</w>
k ris
john son,</w>
iv o</w>
inspir ado</w>
fi ve-
explor er</w>
exis ted</w>
ev o</w>
estudi osos</w>
element ary</w>
domin ated</w>
des loc
cr an
cover ing</w>
cor aj
consider ou</w>
co ali
ch t</w>
bir ming
aqu ele</w>
am i,</w>
acea e,</w>
9 4
4- 0
197 1.</w>
196 3,</w>
194 2,</w>
18 .</w>
( 20</w>
ó ni
wal king</w>
wal d</w>
theor em</w>
substitu ir</w>
projec ts</w>
pass en
parti cles</w>
pap er
other s,</w>
observ atory</w>
mús ica.</w>
iv an
interpret ation</w>
furac ão</w>
fo under
esper ança</w>
do main
col lis
ch air</w>
cer tas</w>
car ni
bl ing</w>
aç õ
ativ a.</w>
at titu
ar tic
andre as</w>
an z
an gr
9 3</w>
8 9</w>
" vi
ús tri
trin ta</w>
t s"</w>
se es</w>
ro dad
represent atives</w>
ren ew
plan e
ph en
parl ament
orig ens</w>
olympic s.</w>
montgomer y</w>
mis sed</w>
met all
market ing</w>
luxem bour
loc ations</w>
liverpo ol</w>
lin ear
keep ing</w>
jo shu
ic us"</w>
group 's</w>
gen ous</w>
festiv al.</w>
estre lou</w>
em ily</w>
ell .</w>
e tern
di ana</w>
des ire</w>
da te,</w>
cri ados</w>
confl itos</w>
capit al.</w>
bri dge
b ôn
ap pen
ach y
9 1</w>
" bi
um -
ul o
tiv ity</w>
son g.</w>
recuper ar</w>
protagon ista</w>
poten ti
po ema</w>
play .</w>
now le
nigh t,</w>
mace don
kar en</w>
k em
inten si
ind ústri
famíli a,</w>
exhibi tion</w>
excep tion</w>
el len</w>
design ,</w>
dem and</w>
dan cing</w>
d ora</w>
cup ,</w>
control ar</w>
concer tos</w>
chil d,</w>
beli ef
bar t</w>
baden- württem
bach el
apresent am</w>
al ger
afe gan
ack nowle
a ł
8 %</w>
196 4)</w>
) "
" her
vermel ha</w>
v ous</w>
tor al</w>
tiv e,</w>
tay lor,</w>
sér via</w>
ses sion
ri de</w>
rho des</w>
ren é</w>
re z
ou ton
ol d,</w>
mon ter
l á,</w>
is mo
is e,</w>
hoj e,</w>
ho hen
ha ir
gre y
gr ab
filho s.</w>
f led</w>
euro visão</w>
en ig
contin ent
compon ents</w>
claim ing</w>
camer on</w>
be b
avi ões</w>
argent in
apro ve
adjac ent</w>
ab ili
199 0)</w>
19 11
12 5
10 ,000</w>
00 0
( 16</w>
" as
yel low
wy om
writ ings</w>
verdad e,</w>
to má
t ari
sur ger
si m</w>
se qü
river s.</w>
riv alidade</w>
re tornar</w>
projet ado</w>
plan ning</w>
p all
ne o-
na than</w>
mcmah on</w>
m n
lic enci
isra el,</w>
instal led</w>
h isto
great ly</w>
gover no.</w>
fo co</w>
ex o
ev ening</w>
envol vendo</w>
down "</w>
dimen sion
devel oper
descri bing</w>
defen sive</w>
clin ton</w>
care er,</w>
asi a.</w>
aquit aine</w>
ak i,</w>
acad ê
: *"
1. 0
( april</w>
" mor
ø r
ânci a.</w>
sh ru
rus sell
pa ys</w>
nacion al,</w>
mov ements</w>
moder n
mar ci
lugar ,</w>
leip zig
le on</w>
k ob
inde x
i. e.
he im,</w>
gener ated</w>
g ate
fe ud</w>
est oni
es tel
epis cop
diplo má
descobri r</w>
cum ul
con curso</w>
cl ap
cast le,</w>
car rying</w>
brad ley</w>
br ah
be gun</w>
avan ço</w>
aus ência</w>
atlant a,</w>
appro pri
abord agem</w>
4 /
1 ;</w>
âni o</w>
wil son,</w>
vant agem</w>
tornar am-se</w>
tipic amente</w>
tion :</w>
ti um</w>
sus pec
sig nature</w>
si ma</w>
separ ação</w>
ru bi
revis ed</w>
re un
re al.</w>
r itu
philadelph ia</w>
ov o</w>
om é
nf l</w>
influ ências</w>
infin ite</w>
gabine te</w>
forne ce</w>
eri "</w>
enter rado</w>
encour aged</w>
ele ph
du d
disput ada</w>
dinamar ca</w>
de put
de miti
d y.</w>
contribu ições</w>
c b
bl es
arquiv o</w>
algori thm</w>
== elenco
== background
197 8)</w>
(199 4)*</w>
( us
( 8</w>
"raw ",</w>
yi el
vir us</w>
vic tim
v ê</w>
the -
suéci a.</w>
suffici ent</w>
siv amente</w>
sequ el</w>
rus h
rug by</w>
ro dr
re tained</w>
propor cion
poss íveis</w>
pi or</w>
p ill
p i</w>
ow en</w>
na th
melhor ar</w>
mari posa</w>
mar ath
lugar .</w>
jun tar</w>
h al</w>
gro und.</w>
gover no,</w>
frequ ência</w>
frances a,</w>
expres sion</w>
es k
envol ve</w>
en d.</w>
el "</w>
educ ated</w>
detail ed</w>
comun idades</w>
coas t,</w>
bom b</w>
b ás
atlân tico</w>
astron o
ari zona</w>
ano :</w>
8 1</w>
18 .
wall ace</w>
tur in</w>
tri al</w>
ti mas</w>
ter ri
tempor adas</w>
teles cópi
t ing,</w>
spo t</w>
sho ul
s —
rest os</w>
reput ação</w>
rebel lion</w>
pós ito</w>
pu desse</w>
princi ples</w>
premi ere</w>
pontu ação</w>
pel led</w>
os amente</w>
me ters</w>
manh ã</w>
m im
jam ie</w>
j.j. sm.</w>
in s.</w>
f as</w>
eu a,</w>
está tua</w>
d ô
d ust</w>
co leg
cambri dge
bin ary</w>
ar co</w>
anç a,</w>
19 13</w>
" just</w>
ç o
yo ur
vizin han
ve -se</w>
there fore,</w>
te is</w>
signific antly</w>
secon ds</w>
re gen
quar ter</w>
partici param</w>
paral elo</w>
ou l</w>
mostr ado</w>
mar vel</w>
invent or</w>
illustr ated</w>
i que</w>
gonz ále
fren ch
fav our
fall ing</w>
fai th
expec t
esco c
e ph
dri ving</w>
cri ti
cri ando</w>
cher ny
book s.</w>
beli ef</w>
beau ty</w>
basque te
at ari</w>
ann ,</w>
a "),</w>
w ander
u pris
statu e</w>
span ="
son )</w>
si te,</w>
sen ador</w>
plac e,</w>
offen sive</w>
in test
il -
hor n</w>
he d,</w>
fri end,</w>
fic ando</w>
en cia</w>
e uc
desenvol vida</w>
dall as</w>
dako ta</w>
bur gh
bu g
bo t</w>
baix as</w>
b /
az y</w>
au ri
arm adas</w>
anteri or,</w>
ân ica</w>
z y</w>
wi i</w>
v ich</w>
ur g
tur ner</w>
ter *</w>
surviv ed</w>
sur in
supost amente</w>
str u
ste fan</w>
shap ed</w>
sco pe</w>
schleswig-hol stein.</w>
s án
roteir ista</w>
re make</w>
re des</w>
ra tes</w>
projec t,</w>
proces ses</w>
person agen
no ctu
n bc</w>
mad ame</w>
m all
les ser</w>
leit ura</w>
le m</w>
ke i
jerusal em</w>
in i,</w>
in hab
in form
impro vis
hy a</w>
ho spe
he ira</w>
gr ass
fil ha,</w>
ed win</w>
e ==
d ’
d ly</w>
ch an</w>
bo eing</w>
bar ro
ais :</w>
2 ",</w>
âne a</w>
x x,</w>
tr é
tr ai
str ange</w>
ste n</w>
st anis
squ ad
so le</w>
sha wn</w>
redu ce</w>
rapid ly</w>
person al
oper acional</w>
ment s.</w>
mant ém</w>
ma cul
m v
lu ck
je ann
gr e</w>
emerg ed</w>
constantin op
br inging</w>
br aço</w>
beij ing</w>
back .</w>
ani c</w>
an al
al be
advo gado</w>
==referências ==</w>
5 /
196 7.</w>
193 6,</w>
" super</w>
vo ted</w>
vin ce</w>
vari ação</w>
tic a"</w>
tere bri
shor t
sa telli
s **</w>
ro me.</w>
resul ta</w>
po d
pil gri
phor us</w>
patro cin
p ine</w>
ob st
o ul
na e
mo th</w>
miner al</w>
met al,</w>
med als</w>
man s</w>
long est</w>
intitul ada</w>
honor ary</w>
gal eria</w>
g and
f *</w>
envol vido</w>
enfrent ar</w>
d ell
conven i
confir mou</w>
comput adores</w>
cle ,</w>
ch and
az i
awar d,</w>
autóno ma</w>
augus ta</w>
atrav ess
alta- normandia,</w>
agr í
a ==</w>
==== the</w>
=== no</w>
== personal</w>
19 .</w>
12 ,
" pe
" a"</w>
un ter
tu des</w>
ton el
to le
tic ed</w>
ti "</w>
ter á</w>
tan k</w>
sé timo</w>
sym pto
sh ann
recen tes</w>
re ds</w>
ques tions</w>
pro -
presti gi
pres i
prede cess
pací fico</w>
os a.</w>
nome ou</w>
no mi
mes mos</w>
irel and,</w>
ip e</w>
inter continental</w>
intelig ência</w>
ill us
he p
h ō
gi do</w>
g d
fle xi
euro pa
estre ito</w>
commun es</w>
bas ti
bas s,</w>
auto mó
ar t.</w>
am bul
al o</w>
ak a,</w>
afon so</w>
acre dita</w>
a the
16 .</w>
( may</w>
" ag
wit nes
vec tor</w>
ul tr
tre es</w>
tit le.</w>
tion ".</w>
spe ar
sis .</w>
s ance</w>
renais sance</w>
re duc
profun di
present -day</w>
pp i</w>
pouc a</w>
por ted</w>
pe n</w>
parti dos</w>
par amount</w>
organiz ations</w>
ocorre m</w>
o don
near -
ne "</w>
mur phy</w>
mary land,</w>
mar te</w>
m m
limit ada</w>
lat ino</w>
jul ie</w>
jerus alem
jerse y,</w>
immedi ate</w>
hipó tese</w>
he d
glo be</w>
gl ori
film s,</w>
father .</w>
equip a</w>
entr a</w>
e to
d ing.</w>
cos mo
constantino pla</w>
cle an</w>
cienti sta</w>
ce d.</w>
bor der
bab y
associ ada</w>
arm ad
americ an
ad en
achi eve</w>
ac cused</w>
195 9,</w>
10 th</w>
"*" utricularia</w>
ó xido</w>
ín dice</w>
ão "</w>
yo shi</w>
visit ou</w>
travel ed</w>
tr id
stell ar</w>
sin te
sh ut
se tor</w>
rel atório</w>
re con
prince ton</w>
pre to</w>
pre d
poder oso</w>
po ver
ple as
outro s,</w>
mo eda</w>
irm ão,</w>
instal ações</w>
in scrip
im mun
glas go
frequen cy</w>
fi x</w>
estatu to</w>
en han
down ,</w>
distric t.</w>
dis crimin
dificul dades</w>
devic es</w>
de ca
cur sos</w>
compar ação</w>
co ffe
che z</w>
bohem ian</w>
av al
6 /
195 2,</w>
( 179
ł aw</w>
y un
x x</w>
toc ando</w>
t ;</w>
sun day</w>
sto pped</w>
sin tomas</w>
s. h.
resign ed</w>
remo te</w>
quis i
prote in</w>
ous .</w>
nico le</w>
municípi os</w>
ló pez</w>
k t</w>
it i</w>
inc ên
guer re
gib son</w>
fo i,</w>
ff er</w>
encontr am</w>
empres s</w>
dic tion
cr ambi
con fun
com prehen
can to</w>
can on
bur gh,</w>
br es
attrac ted</w>
altern ate</w>
al fon
9 th</w>
6 *
3 1
( 4.
í dio</w>
ão )</w>
z om
y i</w>
war d.</w>
war a</w>
viol ência</w>
viol ence</w>
vari able</w>
tri bos</w>
ten -
song s,</w>
sac red</w>
ri dge</w>
rey nol
reser va</w>
rebeli ão</w>
possi bility</w>
por tal</w>
person nel
per dendo</w>
out put</w>
on ian</w>
ok a</w>
mil l
m ig
lou is,</w>
liv ing
le ic
lab or</w>
i red</w>
h en</w>
gi ul
fe et
eas t.</w>
dec em
cent er.</w>
cabin et</w>
bro u</w>
br is
bar to
az ul
av ô</w>
av a,</w>
architec tural</w>
al vo</w>
al ),</w>
adicion al</w>
ab dic
a ten</w>
4 %</w>
work s,</w>
veí culo</w>
ver se</w>
va por</w>
ston e"</w>
ste ad
roc ke
rest antes</w>
represent ation</w>
pro mp
pab lo</w>
pa i.</w>
p ace</w>
olog y.</w>
offici als</w>
north- west</w>
mari on</w>
le :</w>
kis s</w>
kh ali
hol ly</w>
exac tly</w>
ex ile</w>
escol heu</w>
es porte</w>
desem bar
cur tis</w>
cientí fic
cerem oni
cas ada</w>
c ando</w>
an arqu
ak u
(2 4</w>
( dis
" melhor</w>
" geo
él ago</w>
wed ding</w>
wa it</w>
videocli pe</w>
utt ar</w>
tr is
strate gy</w>
spac e.</w>
sis ter,</w>
ses são</w>
rul ing</w>
projec t.</w>
produ ção
planet as</w>
pho to</w>
patric ia</w>
ox ford,</w>
oli mp
napole on</w>
mitch ell</w>
me th
k ind
jour n
jo y</w>
individu ais</w>
gri ff
g estão</w>
explor ação</w>
essenti al</w>
eri e</w>
cân cer</w>
cost as</w>
chel sea</w>
centr al.</w>
bor ough
bo log
bass ist</w>
ba hi
attack ing</w>
ativ e,</w>
as segur
an únci
al ma</w>
agricul tura</w>
adquiri u</w>
ad miti
200 7)</w>
200 2
17 -
15 th</w>
13 ,
11 th</w>
volley ball</w>
ve gas</w>
v ô
termin a</w>
su bi
stri ke</w>
st ap
ra id
protec ted</w>
pro tó
phil harmon
pal áci
op ti
oni dae.</w>
o h</w>
máquin as</w>
lu igi</w>
k lu
j ol
irm ãs</w>
indi e</w>
he i
guine a,</w>
gi ,</w>
gen re</w>
fronte iras</w>
diri g
d ante</w>
comple ment
com memor
chil e,</w>
can o</w>
calend ar</w>
avi ation</w>
at -
associ ados</w>
acredit am</w>
a :
9 %</w>
( october</w>
( november</w>
( ma
ís tico</w>
á s,</w>
wi despre
vitóri as</w>
vien a,</w>
verdad eira</w>
v ast</w>
uni on
substitu iu</w>
stan ford</w>
ro u-se</w>
resid ents</w>
re ments</w>
proto col</w>
pre mis
po em</w>
ori ented</w>
ong -
nam bu
mist ur
mi e</w>
man ti
lo ss
lepido pter
hist óric
h ino</w>
graph ics</w>
fil ad
experim ents</w>
estabele cida</w>
effec tively</w>
diâ metro</w>
compe ting</w>
co oper</w>
clo ud</w>
char t,</w>
cau ght</w>
capítul o</w>
broadcas ting</w>
au to</w>
atr a
armi es</w>
ali ties</w>
agri on</w>
3 )
( z
( nascida</w>
# 1</w>
ł aw
viol ent</w>
v indo</w>
tripul ação</w>
tradi tionally</w>
titul ar</w>
suéci a,</w>
success ful
sk a,</w>
sau di</w>
ro ma.</w>
releas e.</w>
propag anda</w>
produ z</w>
pro li
país es.</w>
oes te.</w>
mam ífer
malcol m</w>
lear n</w>
jan eiro
ir ão</w>
ing -
ham .</w>
gu ide
gr un
go o
g ica</w>
fê me
fo tos</w>
er it
em -se</w>
e co
depar ture</w>
da )</w>
constru í
cole oph
cole ga</w>
archi pel
apro pri
amiz ade</w>
accoun ts</w>
a hu
195 7,</w>
(199 6)</w>
" ta
" il</w>
z u</w>
z il
warren ,</w>
tail ed</w>
stre et,</w>
senti mento</w>
replac ement</w>
ra h
pre ço</w>
no bre</w>
mó dul
mo vie
mathema tics,</w>
lin i</w>
languag es.</w>
kr as
k ais
iz ado</w>
ing )</w>
haute- normandie</w>
gam e's</w>
fin ish</w>
escre ve
en th
elimin ation</w>
e un
dril lia</w>
difer entes.</w>
cul t</w>
concentr ação</w>
con i
ce d,</w>
ca "</w>
apoi ar</w>
am ante</w>
ago st
adicion ais</w>
__ no
==históri a==
(i. e.,</w>
(2 2</w>
(199 7)</w>
( 178
us ão</w>
tri un
sér vi
s ville</w>
rápi da</w>
r as,</w>
pro per</w>
po ses</w>
po esia</w>
par tly</w>
other wise</w>
organis ation</w>
negoci ações</w>
mo edas</w>
mar ry</w>
man ual</w>
li mous
lab our</w>
journal ist</w>
jose f</w>
ir i</w>
invol v
impro ve</w>
fur ther
fortr ess</w>
flo y
fe ira</w>
exist s</w>
evi dência</w>
estraté gia</w>
est ate</w>
eliz abe
ed :</w>
dezem bro,</w>
demo li
conclus ão</w>
complex ity</w>
com pro
co py
christ ine</w>
christ ina</w>
cele bri
bu b
bo t.</w>
apar ições</w>
and /
amig a</w>
a cos</w>
a **
==history =====
=== #</w>
193 8,</w>
(2 5</w>
ín ia</w>
áve is.</w>
z er,</w>
tri be</w>
suí ça</w>
sub family</w>
sent en
sam ple</w>
s ch</w>
reti rada</w>
refer ir</w>
pr aça</w>
pot ência</w>
pass age</w>
oxy gen</w>
op tical</w>
ocu pou</w>
not ícias</w>
nome ação</w>
n us</w>
log o,</w>
joh n,</w>
jam es
internacion al,</w>
hus se
hi bi
ger ald</w>
foto grafia</w>
flow s</w>
every one</w>
es te,</w>
equili bri
eng ag
econ ó
e ye
dupl as</w>
dist or
cul i
contribu tion</w>
cel esti
br as</w>
br ain
az z
at es.</w>
ash ley</w>
arquip élago</w>
aposto lic</w>
ap prov
ab bey</w>
7 4</w>
15 .
( july</w>
v s</w>
trail er</w>
tradicion ais</w>
trad ing</w>
tas k</w>
stu dying</w>
sor t</w>
ri que
po or
ob vi
netherland s,</w>
ne z</w>
nas ci
n ell
mo ur</w>
mo t
mis teri
ma pa</w>
loc aus
judic i
gro w</w>
fr au
fire "</w>
fel low
ev an</w>
equilíbri o</w>
eng er</w>
en ",</w>
danç ar
d l
bro ad</w>
book er</w>
atu ava</w>
as ter</w>
ag gres
aeron ave</w>
197 2)</w>
( 19</w>
z ur</w>
vocal s*</w>
vi ć</w>
u le
ti ous</w>
tent h</w>
tell ing</w>
tap e</w>
t ō
sho gun
sha w</w>
se as</w>
s ass
rus so,</w>
rock .</w>
revel a</w>
reser ve</w>
presid ent,</w>
pres um
pass age
par ent
ol d.</w>
movi ment
mor ce
mar gens</w>
lo se</w>
k ina</w>
instru ções</w>
in es,</w>
i.e. l.
hun ter</w>
hop kins</w>
gi a
far m</w>
em an
dan a</w>
conquer ed</w>
comput ação</w>
col d
ch er.</w>
cer tos</w>
car dí
beach ,</w>
an c
al men
ad ic
==== ligações</w>
(200 7
"raw "</w>
" bulbophyll
washing ton.</w>
w )</w>
vari ações</w>
ul e</w>
trac y</w>
ter ror</w>
tar ia</w>
str ö
sp in-
sen ator</w>
rus so.</w>
releas es</w>
redu zir</w>
r at</w>
person alidade</w>
patter n</w>
otta wa</w>
mosco w,</w>
minnes ota</w>
mat éria</w>
ma ł
lanç aram</w>
land "</w>
inter esses</w>
instr umento</w>
i on.</w>
heró i</w>
her e
gr aded</w>
go ds</w>
gi o,</w>
ge -
f u</w>
emplo ye
devo ted</w>
cór do
critici zed</w>
comp ac
communi ties</w>
coment ários</w>
ch im
c age</w>
bud get</w>
almir ante</w>
air ,</w>
aceae*:::: :::</w>
aber ta</w>
196 8)</w>
196 7)</w>
0 4</w>
(199 3)*</w>
( later</w>
ć ,</w>
z ambi
win ner
tw enti
toky o,</w>
timo thy</w>
te d"</w>
sul tão</w>
suec a</w>
stre ets</w>
so s.</w>
sen .</w>
s.h. i.e.l.
s ati
replac ing</w>
prov o
presid ência</w>
opini ão</w>
lon g,</w>
links==* official</w>
leopol d</w>
la ch
ke e</w>
inici ais</w>
inclu ído</w>
in flam
i. e.</w>
geór gia,</w>
fer i
facil it
exclus ive</w>
es /
cu jos</w>
crown ed</w>
compan ion</w>
cap tura</w>
brun sw
br ad</w>
bal ance</w>
all an</w>
ace itar</w>
(n ée</w>
' s,</w>
"bulbophyll um".</w>
war ds,</w>
w as,</w>
ts :</w>
traf fic</w>
tr ica</w>
t one</w>
sinte tiz
ram os</w>
pene tr
parti cle</w>
nov els</w>
model .</w>
man dat
ma ci
lor rain
leg acy</w>
lati tude</w>
la w.</w>
k ".</w>
jo el
jeann el,</w>
is ".</w>
i ber
gro wn</w>
gr aus</w>
ga ul
g ou
fres h</w>
flor esta</w>
filmo grafia</w>
fat ores</w>
es h
cat aly
car val
bel o</w>
batt les</w>
ban k,</w>
bal lo
at tr
apresent ada</w>
ale j
== **</w>
197 1)</w>
(19 16
ě jo
è s</w>
we is
vo lei
viol in
ver sion,</w>
var ia</w>
tou red</w>
sup ple
sho ot</w>
ric a,</w>
redu ção</w>
py th
produz idos</w>
pri or
present )*</w>
plan íci
parti u</w>
nes s"</w>
ne n</w>
mes a</w>
man te
lo ur
let t</w>
lepto dacty
l ú
interpre tar</w>
indi genous</w>
hun t</w>
ho lo
h at</w>
h air</w>
gro en
gre ek
graphy ==*</w>
go d,</w>
fi co.</w>
fel d
fam osos</w>
extin ct</w>
es ==*</w>
er ic
en s.</w>
cri ador</w>
co bre</w>
co at</w>
cav er
bur go.</w>
bil hões</w>
bi ó
ass ess
alun os</w>
al ess
ach e</w>
__no toc__
9 4</w>
5 "</w>
199 0s</w>
196 6)</w>
190 6</w>
19 15</w>
** ****</w>
(200 8)</w>
( september</w>
ven tes</w>
val enci
tan g</w>
ta *</w>
t adas</w>
stor age</w>
sl am</w>
scor ing</w>
reve als</w>
rela to</w>
re di
public ações</w>
probab ilidade</w>
ox for
ob ama</w>
lo go
li z</w>
kab ak,</w>
k ick
iraq i</w>
im un
hon our</w>
hen ry
g ór
g he
fren ch,</w>
fac ing</w>
em ia</w>
do s
dis played</w>
de vol
cor ner</w>
con text</w>
char d</w>
bulg ária</w>
bi e
bas e,</w>
b af
ativ o,</w>
alexand ria</w>
al ists</w>
==demo grafia
====references ==</w>
3 *
10 %</w>
1 10</w>
( february</w>
( 13</w>
ê u
yu goslav
vi ena</w>
tes -
tamb ém,</w>
tai w
surviv or</w>
suces so,</w>
spen cer</w>
s=== *
rock y</w>
represent am</w>
protest ant</w>
poly nomi
per nambu
per fec
pay-per- view</w>
par ame
olym pi
m :</w>
le e,</w>
lan ded</w>
keep er</w>
k in,</w>
intellec tual</w>
idad es.</w>
i p</w>
hi per
gru po
garcí a</w>
gar d
fin ally,</w>
fac tors</w>
experim ent</w>
espe cul
elli ot
el lip
dis si
depic ted</w>
d r</w>
cu b
co ol
ci ,</w>
bo ca</w>
austri a,</w>
assis pira</w>
anto ine</w>
and/ or</w>
al *
af as
8 th</w>
199 8
195 6,</w>
ü ck
y ale</w>
wal ker,</w>
vent os</w>
ven der</w>
vau gh
v ar</w>
uni fied</w>
ts un
trans cen
sympto ms</w>
ser ão</w>
se t.</w>
ru t
ro ad,</w>
producer .</w>
pol i</w>
pa ir
lu cy</w>
l "</w>
kr ist
j ake</w>
introdu z
in ae
ho locaus
happen ed</w>
gradu almente</w>
ger s,</w>
et as</w>
empres ário</w>
elis abeth</w>
den ci
d ori
colon y</w>
collin s</w>
ceme tery</w>
cat á
car di
ant ro
altern ativa</w>
; "</w>
25 -
196 6.</w>
(19 14
( x
( ro
( mar
zon as</w>
weap on</w>
ví rus</w>
viv a</w>
ti ve.</w>
ti mel
ther mal</w>
teen age</w>
se ga</w>
sal om
ri z
rel atos</w>
philosoph er</w>
pensam ento</w>
pa olo</w>
p /
nor mal
n ings</w>
mor e.</w>
mi o
manufac tur
malawi ,</w>
libert ação</w>
jan et</w>
hear t"</w>
grã-bretan ha</w>
geo graphical</w>
fu ku
ferrament as</w>
exibi ção</w>
ex pos
estud ante</w>
ent o.</w>
ent anto</w>
em ili
cy n
credi ted
convin ced</w>
cont ac
character ized</w>
ber tr
batal has</w>
b y.</w>
b on,</w>
am ong
agricul ture</w>
a #</w>
196 2.</w>
19 14,</w>
á s.</w>
° c</w>
w ir
tur ns</w>
shakespe are</w>
sco tt
relation ships</w>
que ens
prono unced</w>
posi tion.</w>
po tam
peri ó
parliament ary</w>
nos so</w>
mor e
month s.</w>
me do</w>
les te,</w>
jon as</w>
jef frey</w>
jardin s</w>
inci dent</w>
i or.</w>
hund reds</w>
host s</w>
ho le</w>
geo graphy</w>
for ce,</w>
flor est
f ú
eu r</w>
especi aliz
escó cia</w>
er o,</w>
en umer
em en
e ve
dwar f</w>
defen ded</w>
dad os.</w>
d )*</w>
concer ning</w>
ci p
bul le
bul garia</w>
bots w
belous ov</w>
ata cou</w>
ari o,</w>
ar n
ar am
anthro polog
af ter,</w>
ab le
=== ;
2. 0
éri os</w>
wor ker
well- known</w>
ver tic
ti g
termin ar</w>
su ple
singer- songwriter</w>
roosevel t</w>
ren as
r ine</w>
pro fe
pr á
pos icion
piemon te,</w>
os ".</w>
oce an,</w>
no cau
na "</w>
mus so
mon arquia</w>
mis tr
maril yn</w>
mari a,</w>
m 's</w>
lu tas</w>
lo ire</w>
ligh t.</w>
len e</w>
l ava</w>
joshu a</w>
jack son,</w>
j af
institu tion</w>
inimig o</w>
gover nos</w>
ge ar</w>
fr ic
fos ter</w>
fil me
fas c
execut ar</w>
est aria</w>
en co
e ties</w>
doc ument</w>
d mit
con us</w>
colap so</w>
co li
ces sor</w>
c s
ben nett</w>
be i</w>
aw ak
au dit
ar e,</w>
ach ,</w>
ac lam
197 0
*" a.</w>
( 9</w>
( 3:
" st
" mal
voivo dia</w>
transfer ido</w>
televis ão,</w>
tai wan</w>
símbol os</w>
sinop se</w>
si x-
sch e
sant u
rescu e</w>
pé s).</w>
port as</w>
petró leo</w>
per deram</w>
pag ar</w>
orient al,</w>
oklaho ma</w>
net works</w>
n u</w>
l umin
jus tific
jor dan
je wel
i en
ho od
hi po
her r
gé ner
for ces.</w>
fir m</w>
famíli a.</w>
ex pli
er z
en ed</w>
der "</w>
cré ditos</w>
comple xi
cemit ério</w>
bomb a</w>
bal let</w>
ar cade</w>
americ ano,</w>
al ;</w>
195 4,</w>
( de
ó nia</w>
álb um
á- los</w>
z â
yok o
wh is
vo tes</w>
universi dades</w>
thro w</w>
teri am</w>
ston es</w>
standar ds</w>
serge i</w>
rot ação</w>
qu e"</w>
phy lo
mé dic
mes qu
mel ano
lig ado</w>
kon g,</w>
k ip
iu gosl
inter active</w>
hugh es</w>
ha "</w>
g host</w>
frame work</w>
for ce.</w>
f at</w>
econô mico</w>
document ário</w>
divisi on,</w>
diplo ma
denomin ado</w>
de e
dam ,</w>
cro co
conce itos</w>
colo mbia</w>
bur un
buddh ist</w>
band sgeme
b u</w>
auverg ne,</w>
aument ou</w>
at letas</w>
ar bor
among st</w>
am in
aeron aves</w>
4 "</w>
3 /
1 /km²).</w>
( june</w>
zi g</w>
wes tern
vari ant</w>
tro op
trans forma
tit le,</w>
situ a-se</w>
senti u</w>
regr a</w>
re par
r ados</w>
por ção</w>
po p,</w>
pi edmon
pa tron
other .</w>
neverthel ess,</w>
n *</w>
myster y</w>
magn us</w>
kin son</w>
intel lig
inte iramente</w>
igu almente</w>
hud son</w>
grav es</w>
gas es</w>
ex trac
event ,</w>
estad ual</w>
est acion
down .</w>
dom íni
dec ades</w>
d s"</w>
d h
crist ã</w>
credi t</w>
correspon de</w>
cau cas
br av
bet ty</w>
augus tus</w>
agu ar
a. c.</w>
196 4.</w>
(199 2)*</w>
ér ico</w>
árv ores</w>
xi ii</w>
wat son</w>
vez .</w>
us a,</w>
spo t
so unds</w>
sis ters</w>
roe dor</w>
podi am</w>
mostr am</w>
lo como
leg ado</w>
k :</w>
indic ates</w>
inaug ural</w>
in tr
hel ic
g p</w>
fin land</w>
f ad
es cav
en fer
elimin atórias</w>
ed .,</w>
de cade</w>
dam aged</w>
cír culo</w>
compro u</w>
class ic
cham a</w>
beat les</w>
bar o
ay ing</w>
aver y</w>
ab du
__ __
194 9,</w>
192 2,</w>
190 2</w>
12 th</w>
(199 9).</w>
" little</w>
âni cos</w>
well s</w>
voy age</w>
un esco</w>
tornar -se</w>
tool s</w>
tax ono
su gar</w>
ro ot</w>
restor ation</w>
remo ve</w>
re col
qu io</w>
produc tion,</w>
por t.</w>
planet ary</w>
parti ally</w>
op us</w>
ligh t,</w>
liber ation</w>
labor atório</w>
l ö
ker nel</w>
k op
influenci ado</w>
in put</w>
il ler</w>
i ção.</w>
ho b
g )</w>
func tional</w>
fac t,</w>
f ator</w>
escre vendo</w>
er mo</w>
do w</w>
dire to</w>
có pia</w>
contribu iu</w>
consist ent</w>
concor dou</w>
comple tar</w>
caus ar</w>
c aça</w>
bre v
bound ary</w>
at las</w>
ari es,</w>
adver ti
0- 80
( na</w>
" he</w>
á cia</w>
youtu be</w>
xi v</w>
we ak</w>
w ants</w>
vis ível</w>
vi agens</w>
v ä
under stand</w>
th ar
ter restrial</w>
sym bo
simp son
si .</w>
relacion adas</w>
reg iment
pro stitu
p a,</w>
ou ro,</w>
observ atório</w>
ob tain</w>
manufac turing</w>
ma ck</w>
later al</w>
l adi
ir anian</w>
garden s</w>
g lad
form at
fol has</w>
flo r</w>
eri k</w>
ent "</w>
doming o</w>
direc ção</w>
dire ta</w>
depart ment,</w>
cy pr
compon ente</w>
combustí vel</w>
colum bia,</w>
career =====
b c
ati ,</w>
at ô
ar ticul
aprov ação</w>
ant "</w>
(200 5).</w>
(2 7</w>
' "</w>
" tur
" qu
" cas
č esk
ê- lo</w>
vez es.</w>
ven u
v o.</w>
toge ther.</w>
to ol</w>
sí ria</w>
swe den,</w>
succes s,</w>
st ak
st age,</w>
spr ings</w>
song s.</w>
ri o,</w>
responsab ilidade</w>
ra cial</w>
psy cho
pin turas</w>
pe as
os a"</w>
organiz ado</w>
of f,</w>
necess ária</w>
mysteri ous</w>
mon ot
mis sion,</w>
minim um</w>
milli on
mechan ics</w>
lom on</w>
lo jas</w>
jum p</w>
jan eiro.</w>
introdu ziu</w>
hier arch
guad al
go me
g le
ex trat
ex atamente</w>
equip amentos</w>
e clesi
deriv ado</w>
depen de</w>
dad os,</w>
cul ture,</w>
cross ing</w>
conven tional</w>
com iss
co b
cho ose</w>
brother s,</w>
bar ão</w>
assist ance</w>
as tic</w>
as so</w>
archae ological</w>
ann a,</w>
am pla</w>
aconte ce</w>
ab el
] *</w>
5: 00
( december</w>
"s il
é cole</w>
youn g,</w>
x en
windo w</w>
v es.</w>
um "*"
ul trap
tiv essem</w>
t ).</w>
sig ns</w>
rad ar</w>
quin ze</w>
quadr inhos</w>
planet s</w>
per sist
particip ate</w>
mo squ
mem br
lou v
lor de</w>
lin a</w>
lat ina</w>
l ü
ke 's</w>
k ah
juventu de</w>
j up
is :</w>
gree ce,</w>
gr aci
govern ante</w>
fis her
film s.</w>
expl ain
espir itu
edi m
di gi
den te,</w>
declar ation</w>
dani el
cri me
constantino pl
certific ado</w>
bur y,</w>
ati ve
arith me
advan ce
adol es
ad -
4 1
20 .
" ni
о р
а л
ôni bus</w>
è res</w>
widespre ad</w>
us os</w>
tempor ary</w>
te u
t z,</w>
spo ke</w>
sovié tico</w>
sing er.</w>
s ke
ri os.</w>
publish ing,</w>
pu ri
produ ces</w>
proces s.</w>
pro claimed</w>
pione er</w>
philip pe</w>
passage iros</w>
paint ings</w>
out "</w>
oso .</w>
orient ação</w>
noctu idae</w>
mil k</w>
men o</w>
measu red</w>
k ha
h e,</w>
ges chich
fr itz</w>
down town</w>
danger ous</w>
cru cial</w>
contín u
continu ing</w>
constru ídos</w>
conclu iu</w>
compil ação</w>
col una</w>
co el
astronom er</w>
190 3</w>
14 7
13 0</w>
12 "</w>
(2 1</w>
" s</w>
wh ist
universi ties</w>
to ma
tal e</w>
sulliv an</w>
suces so.</w>
sk ir
s mas
roup as</w>
rom is</w>
rodr í
regular ly</w>
rebel li
re man
rai l</w>
qualific ation</w>
po ul
per egr
or o</w>
or der.</w>
om ys</w>
no ss
militar ,</w>
ma y,</w>
lo s,</w>
liter acy</w>
kin s,</w>
j ō</w>
isol ated</w>
il ing</w>
hung ria</w>
fá cil</w>
fol k
fi or
es con
disse :</w>
dies el</w>
des por
d f
cu ban</w>
con cí
com um,</w>
but ler</w>
bo as</w>
bizant inos</w>
beyon cé</w>
b log
atr as
alfre do</w>
ale gre
ag i
ag entes</w>
ag e"</w>
== villag
19 .
10 0.</w>
( 30</w>
( 14</w>
"s we
" good</w>
ôni as</w>
z ak
wi at</w>
vari áveis</w>
ter -
t man</w>
struc k</w>
south .</w>
sol it
sh all</w>
sar a</w>
reje it
physic s,</w>
performan ce
país es,</w>
paró quia</w>
pal m</w>
om i</w>
nic k,</w>
n ate</w>
mu da</w>
mor pho
moder nos</w>
ma is.</w>
loc alidade</w>
item s</w>
isra el.</w>
ir an</w>
in al</w>
homen s,</w>
head .</w>
gro unds</w>
fe ction</w>
en coraj
e us
direc tor.</w>
dever iam</w>
determin ada</w>
deci des</w>
datab as
crus ad
co ven
chb. f.</w>
car ol</w>
bor do</w>
atl anta</w>
at p</w>
ani z
al ).</w>
5 1
195 1,</w>
( lo
( january</w>
" my
" du
órg ão</w>
ó p
ênci as.</w>
z hou</w>
w cw</w>
ti tan
the ca</w>
terren o</w>
str ess</w>
st ation,</w>
song "</w>
screen play</w>
ro dent</w>
refer ido</w>
quanti dades</w>
proce ed
poss am</w>
po mer
plat y
plas ma</w>
per turb
per dido</w>
pas-de-cal ais</w>
otoman o</w>
oper acion
ocorr eram</w>
ob lig
n '
moun ted</w>
mostr ando</w>
may a</w>
mag dal
liv re
inher ited</w>
inclu ída</w>
inci dente</w>
frequ ent</w>
fran co-
en sure</w>
en burg</w>
el es.</w>
con dem
co la
ci ón</w>
caval aria</w>
captur ar</w>
bag h
acompanh ado</w>
9 3.
199 2)</w>
193 2,</w>
189 9</w>
189 3</w>
( atual</w>
z agu
w ings</w>
vi ú
vi ria</w>
tur ismo</w>
trans lat
te tr
tax as</w>
tar a</w>
sup posed</w>
statis tics</w>
sin ônimo</w>
scienti st</w>
samur ai</w>
restaur ação</w>
religi osa</w>
que z</w>
po ol</w>
pl um
pl ug
pel e</w>
pe tal
p p</w>
ol ho</w>
nov el,</w>
nord-pas-de-cal ais</w>
nicar agu
nic kel
nam e
n ingu
mosco u</w>
millen ni
mer ce
mecan ismo</w>
ma ine</w>
m ö
m /
lingu agens</w>
lic ença</w>
li ke
it os,</w>
interne t.</w>
inter cep
instr ument</w>
inst ance,</w>
ho lan
gos pel
frag ment
fr ame</w>
fi red</w>
fal se</w>
equ ações</w>
edit )</w>
dire tor
de cep
critic ism</w>
concer ned</w>
col ônia</w>
cit ing</w>
ci am</w>
ch e,</w>
caix a</w>
br uc
az zo</w>
ar a.</w>
anç a.</w>
ant -
absen ce</w>
a _</w>
201 0–
189 2</w>
(200 9)</w>
(19 12
( march</w>
" em</w>
í lia</w>
z ia</w>
veloc ity</w>
transi t</w>
tr un
test ing</w>
ten ed</w>
sub me
sovere ign
sh ei
sav o
s cu
re visão</w>
pró xi
pl ain</w>
orchestr a,</w>
olimp í
obs cur
ne y.</w>
morr eram</w>
monro e</w>
mo mento,</w>
men s</w>
me h
lo me
ki "</w>
jan u
jack son
ida e,</w>
gr ac
formula_ 2</w>
figh ters</w>
fever eiro,</w>
elev ado</w>
di ab
cont est
concer ts</w>
con sequência</w>
classific ado</w>
cas tell
caribbe an</w>
blu -
awar d.</w>
av a.</w>
audi ência</w>
arm ê
aci dent
ac amp
a e,</w>
a co.</w>
97 .
50 %</w>
196 3.</w>
ú st
w ang
so lomon</w>
sess ões</w>
sec tor</w>
sch ,</w>
rout le
promo tional</w>
presid encial</w>
play er,</w>
pl az
physic ist</w>
pan -
ológ icas</w>
nord-pas-de-cal ais,</w>
ni el
met ap
lu cas
log an</w>
judic ial</w>
j o,</w>
itsel f.</w>
ira que</w>
invol ves</w>
inici ar</w>
ge ological</w>
foot age</w>
en ab
e go</w>
di ale
di -
del u
cr isto
compar ison</w>
cel tic</w>
caval ry</w>
car pus</w>
bl on
ar ist
anti gu
agr up
a eri
6 /km²).</w>
199 5
18 0</w>
15 ,
( não</w>
( mais</w>
ém on</w>
ug anda.</w>
tr ina</w>
sur re
suppor ts</w>
su ch
struc tur
satéli tes</w>
s ni
rece bendo</w>
reas ons</w>
produ tor
pas-de-cal ais.</w>
pare cia</w>
norueg a,</w>
new ton</w>
mon d,</w>
mi d</w>
manh att
liv ro,</w>
land ing</w>
k ong
jun tou-se</w>
han na</w>
genes is</w>
g as.</w>
filad él
fil es</w>
fi ed
fel ipe</w>
emergen cy</w>
du al</w>
dirigi u</w>
defen deu</w>
corre u</w>
contin ente</w>
compan heiro</w>
clu b.</w>
bis mar
an ne
amoun ts</w>
ab ilities</w>
199 0s,</w>
é n</w>
z on</w>
z an</w>
wait ing</w>
vice- presidente</w>
um *</w>
tun is
tradu zido</w>
tion ==the</w>
s cro
progr ess
preser ved</w>
per form
p neum
p ista</w>
or ni
mother .</w>
k ati
japan es
is che</w>
infr as
in sist
h ados</w>
gen der</w>
fu r</w>
for me
febr u
exclusi vely</w>
er s'</w>
entr aram</w>
en ça,</w>
dis cos</w>
deci diram</w>
d ü
collap se</w>
clo s
cl air</w>
circum stan
carto on</w>
car av
br isto
bi bl
axi om
arg ument</w>
anti n</w>
al bi
> .</w>
2007 :</w>
17 .
10 6
0- 19-
" let</w>
" da
ín ,</w>
áustri a,</w>
zimbab w
xi i</w>
vis t</w>
tril og
town ship,</w>
toge ther,</w>
t al,</w>
studi es,</w>
so- called</w>
siv as</w>
si co,</w>
shado w</w>
schltr .,</w>
sa id
respons áveis</w>
recep tion</w>
pot ências</w>
ortodo xa</w>
mari time.</w>
man hat
kir k
ir rit
ir ene</w>
investig ation</w>
il ha.</w>
hip- hop</w>
hebre w</w>
h )</w>
guatem ala</w>
gn u</w>
gar ris
fif teen</w>
fac to</w>
f ate</w>
ex tent</w>
evol ved</w>
estrang eiros</w>
es ==the</w>
encer r
ell a,</w>
dez es
decl ínio</w>
de al
cé u</w>
controvers y</w>
complexi dade</w>
collec tive</w>
clo ser</w>
christi ans</w>
ce ased</w>
bri a,</w>
bo y"</w>
bi ble</w>
ba ham
an tho
an nie</w>
an hal
addi tionally,</w>
ad d</w>
26 -
195 0.</w>
194 5)</w>
19 19,</w>
188 8</w>
) "*
úst í</w>
áve is,</w>
zz o</w>
x y
wee k,</w>
w o</w>
v at
tro fé
to dd</w>
syn dic
suffer ing</w>
ston e
st a,</w>
s ili
rati o</w>
pur ple</w>
program .</w>
pres a</w>
posteri ores</w>
ot as</w>
o )*</w>
n am</w>
manhatt an</w>
lo an</w>
lin nae
limit ado</w>
level ,</w>
k awa</w>
instruc tion</w>
im en
illino is.</w>
hy un
himsel f.</w>
gr is
gen era</w>
f atos</w>
es pi
ep ,</w>
effici ent</w>
dram ati
descen dente</w>
cé l
cri m
cre d
contin ha</w>
conex ão</w>
con decor
com pat
clear ly</w>
cas os,</w>
cant ar</w>
can ção,</w>
bri dge,</w>
az ,</w>
associ ate</w>
archi ve</w>
ai "</w>
a- nova</w>
a "*
_- _
==geography== according</w>
2. 5</w>
189 8</w>
14 th</w>
12 9
12 8
0 9</w>
0 1</w>
" king</w>
" #
ín dia.</w>
ê x
website *
uni form
tr í
telenovel a</w>
te ;</w>
t ung
stri p</w>
som me</w>
simil ares</w>
ri gor
revolu tion.</w>
que en's</w>
próxim as</w>
process ing</w>
pr áticas</w>
peri ods</w>
p s.</w>
origin ated</w>
offic e,</w>
o y
o ak</w>
mun do
mas on</w>
m l</w>
lo b
km ,</w>
ke ys</w>
k ru
k it</w>
k ant
julgam ento</w>
inter na</w>
id ên
i es,</w>
horizon tal</w>
gram mar</w>
gar ota</w>
fac ilities</w>
establish ing</w>
est ado-
escol her</w>
eix o</w>
edin burgh</w>
e go
differ ential</w>
defen d</w>
de ",</w>
cy r
consider adas</w>
clus ter</w>
cin tur
character istic</w>
cate gor
be th
aut ôno
ass ass
201 1–
199 1)</w>
193 7,</w>
( )*</w>
" ab
á- lo.</w>
ug a</w>
traz er</w>
to mo
tiv o.</w>
th ri
temp estad
spor ting</w>
shiel d</w>
servi dor</w>
serv ice,</w>
sel v
sal ão</w>
ro le.</w>
ro land</w>
resid ent</w>
recognis ed</w>
re torna</w>
ra ise</w>
portan to</w>
piedmon t,</w>
pen a</w>
patri arch</w>
participan tes</w>
par dub
orç amento</w>
ológi cos</w>
morris on</w>
mo use</w>
midfiel der</w>
mic h
mat ag
le y's</w>
k ou
ju iz</w>
j u</w>
institu tions</w>
idad es,</w>
i re,</w>
human it
go ods</w>
go g
gan haram</w>
for me</w>
fis i
feel ing</w>
fat al</w>
event .</w>
des k
democr acy</w>
de us
cros sed</w>
cr ash</w>
cr ack
con fis
colum n</w>
col ors</w>
cin cin
ci o,</w>
chry so
chil e.</w>
campan has</w>
bor ne</w>
av is
aul as</w>
apro xi
air lines</w>
ac tion
978- 1-
8 3
201 2)</w>
199 4
189 6</w>
.org /
(2 9</w>
( no
" rock</w>
" mu
" final</w>
" back</w>
w a.</w>
vizinhan ça</w>
visi ons</w>
vir al</w>
ve t</w>
tournam ent.</w>
to :</w>
soph ia</w>
skel et
sk i.</w>
sh ell</w>
rus sos</w>
rock "</w>
remain der</w>
re bo
rap hit
pur pos
produ ção,</w>
pon ti
muse um,</w>
model ,</w>
me is
mar ti
m *</w>
joh an</w>
ir ving</w>
inspir ation</w>
in c.
i on,</w>
hum or</w>
her n
gi bb
fos sil
facul ty</w>
et ti</w>
es condi
er ro</w>
ell ing</w>
e ul
dou tor</w>
dis k</w>
defin ir</w>
contras te</w>
consider ável</w>
con son
bor n
be th</w>
athle tes</w>
astrôno mo</w>
a head</w>
==references ====</w>
: "</w>
199 8*</w>
199 6
(201 1)*</w>
( 17</w>
" é</w>
" we
" cer
е в
z av
z ar</w>
w ine</w>
vic ente</w>
ver "</w>
un usual</w>
tornar ia</w>
to pic
thomp son</w>
thin king</w>
ter ing</w>
str at
so br
sand y</w>
s "*"
roman ia</w>
ro "</w>
relacion ado</w>
re alidade</w>
págin as</w>
produc tion.</w>
per missão</w>
pat in
op e</w>
máxim a</w>
mon gó
min ing</w>
m ),</w>
lo ad</w>
king "</w>
jul es</w>
indon esia</w>
in c.,</w>
il ha,</w>
ii dae.</w>
id éia</w>
har m
greg os</w>
gr in
formo u-se</w>
flu id</w>
f .,</w>
estú dios</w>
cur v
cryp to
cru is
concep ts</w>
com an
cambridge :</w>
ca p</w>
blin d</w>
b s,</w>
at su</w>
arsen al</w>
al a.</w>
: 00</w>
6 2
189 0</w>
)*" scopula</w>
( lu
( 18</w>
óg ica</w>
w im
u ch
tr aç
to day.</w>
times ",</w>
ten d</w>
temper atur
te ),</w>
taxon om
ta ted</w>
ste ps</w>
squ ad</w>
si ber
rebel des</w>
ras h</w>
rar amente</w>
quad ro</w>
prús sia</w>
pre val
polici es</w>
os ó
oreg on,</w>
or der,</w>
ofen siva</w>
nas h</w>
mu ridae.</w>
mother 's</w>
mississi ppi</w>
me asur
mathematici an</w>
mam mal</w>
mam mal
lov e,</w>
lan a</w>
ker "</w>
imper atriz</w>
iden tical</w>
ic io</w>
ia )</w>
ho me,</w>
hist a</w>
hero es</w>
hel en
h on</w>
h ali
guil ty</w>
gior gio</w>
friend ship</w>
fr ase</w>
fos sil</w>
essenti ally</w>
espan ha
encyclo pedi
en for
em ar
einste in</w>
disponib iliz
cze chos
cri tic</w>
continu ous</w>
coment ou</w>
co adju
character istics</w>
bis pos</w>
ba i</w>
b ár
artís tica</w>
ar d.</w>
air lin
==plot ==
9 00</w>
201 5.</w>
2006 :</w>
193 0.</w>
( m.</w>
xad rez</w>
w u</w>
vit ori
v arg
undertak er</w>
tes- d'ar
tare fa</w>
sty le.</w>
space craft</w>
sovié tica.</w>
song writer,</w>
soldi er</w>
ses sions</w>
se ek</w>
sand ra</w>
restric ted</w>
regi ão,</w>
refu gi
ra "</w>
pre gn
pos thum
po t</w>
pl ur
ph. d.</w>
pal ace,</w>
oso s,</w>
on t</w>
no tori
movi es</w>
mer o</w>
matemá tica,</w>
mar x</w>
j al
in capaz</w>
idio ma</w>
hum ani
he ir</w>
h lav
guar ante
gig ante</w>
ger "</w>
g um
er y,</w>
en su
en ni
emp ty</w>
egyp t,</w>
ecclesias tical</w>
cô tes-d'ar
cristianis mo</w>
corre ct</w>
britâni co,</w>
bo dy,</w>
bi c</w>
believ es</w>
atu ação</w>
artill ery</w>
any one</w>
abbrevi ated</w>
a jus
==villag es==
8 2
3 2-
200 9–
2 1st</w>
198 0s,</w>
194 7.</w>
13 7
1 )
" take</w>
" ...</w>
wrestl ers</w>
v r
trabal ho.</w>
tr ini
ton -
t ko</w>
sol dado</w>
sk y.</w>
se att
roman ces</w>
rhin el
responsi bility</w>
res gat
re mark
re i.</w>
r aça</w>
prote ínas</w>
po ur</w>
par ent</w>
pa in</w>
oit avo</w>
nico lau</w>
movement .</w>
mon tes</w>
lin e-
li ma</w>
legisl ative</w>
lanç amento,</w>
l ing,</w>
l hes</w>
infras truc
influen ces</w>
i g</w>
há g
gover ned</w>
geof frey</w>
fu n</w>
fin is
fe ud
fa us
enter ing</w>
en se"</w>
dr ake</w>
div as</w>
destru í
depen dent</w>
dedic ada</w>
de teri
cy prin
cri a</w>
cr ut
confu sed</w>
con fus
col li
cine ma,</w>
candidat os</w>
britân ica,</w>
benef it</w>
bak er,</w>
au r</w>
atu ar</w>
assassin ado</w>
arti fici
americ ana,</w>
ambass ador</w>
am al
2007 *</w>
18 ,
15 –
13 5
- up
(201 0
( são</w>
( le
" spe
ão *</w>
án dez</w>
ven us</w>
trou ble</w>
trans mission</w>
tiv a,</w>
th am
sti r
rar ely</w>
pri ma</w>
pas sion
on ica</w>
neighbor hood</w>
n ina</w>
moder niz
loc ked</w>
liter atur
jog ando</w>
involv ement</w>
inter n
incorpor ada</w>
ig i
ho mos
group s,</w>
g t
g ear
fix o</w>
experien ces</w>
eu ,</w>
es ca
en vel
dis cí
dirigi da</w>
derrot ando</w>
cul ture.</w>
cre ator</w>
contribu ição</w>
coleg as</w>
can ais</w>
bo ss</w>
bj ör
arizon a,</w>
ano "</w>
an ar
ah .</w>
adul tos</w>
8 /
195 5,</w>
14 ,
(200 9
( of</w>
( by</w>
# re
"geo dia</w>
ō "</w>
ty pe
tradicion almente</w>
tent aram</w>
tem os</w>
tal ent</w>
star .</w>
south- western</w>
sing s</w>
sh an</w>
sal e</w>
s word</w>
s es,</w>
regar d</w>
re públ
pre ach
pode mos</w>
plat ina</w>
per "</w>
papu a-nova</w>
opini ões</w>
ofer ta</w>
o so,</w>
o liv
les ão</w>
lat est</w>
kaz u
k on</w>
k id</w>
indoné sia</w>
h adas</w>
gran de,</w>
fundad ores</w>
exp and
ex cav
encontr aram</w>
dubl in</w>
drilli idae.</w>
doro thy</w>
dol ph
d w
cur va</w>
cr ença</w>
co im
cion al,</w>
cell o</w>
caus as</w>
c able</w>
bras ão</w>
ber s</w>
bee tho
ari us</w>
ad mitted</w>
acum ul
52 1-
195 9)</w>
14 0</w>
(19 13
( #
é -
utiliz adas</w>
travel led</w>
str as
sp .</w>
so lo,</w>
sig ning</w>
sag a</w>
res tre</w>
re ar</w>
públi co.</w>
protocol o</w>
proemin ente</w>
popul ações</w>
pol is,</w>
peter sburg</w>
paran á</w>
negoti ations</w>
n ul
mes es,</w>
massachusett s,</w>
man ",</w>
ma id
ma ge</w>
m 01
li dar</w>
l p</w>
it ação</w>
inten se</w>
hidro gênio</w>
h ed</w>
fran ken
flu tu
espan hó
es z
episó dio,</w>
de us,</w>
d um</w>
cr ust
conden ado</w>
bon o</w>
au n</w>
apoi ou</w>
alis m,</w>
alcan ce</w>
ac ro
1 12
( ad
" go
ô nicas</w>
île-de- france</w>
z z</w>
z as</w>
y az
window s,</w>
valu able</w>
v esp
to )</w>
t /
sugg est</w>
segun dos</w>
scot t,</w>
ru as</w>
republic ano</w>
repor tedly</w>
realiz ação</w>
ra j
proce dur
poló nia,</w>
ph ag
pennsyl vania</w>
os ",</w>
oper ates</w>
obl ast</w>
o phy
molé culas</w>
materi al.</w>
mar ch,</w>
m u</w>
kil ler</w>
k ni
invest ment</w>
in tim
ho landes
heter o
heav en</w>
h u</w>
gu e,</w>
gro ss
gre en,</w>
ger al.</w>
gal es</w>
fru it</w>
erit re
eletr ônico</w>
el u
deteri or
des "</w>
da y's</w>
con version</w>
compu ting</w>
composit ores</w>
colo ur</w>
chin esa</w>
car ac
captur ado</w>
brasil eiro.</w>
ber ger</w>
ba cia</w>
ander son,</w>
al me
al a
agre e</w>
aci ón</w>
2010 :</w>
188 9</w>
(201 0)*</w>
( august</w>
( 11</w>
— the</w>
y )*</w>
wer ner</w>
v ad
turn ê
tradi ções</w>
tis ing</w>
ti ro</w>
ta ur
sul tan
suce dida</w>
succes s.</w>
substanti al</w>
stad t</w>
sovié tica,</w>
small est</w>
s b
s 's</w>
rece i
qu im
ple tho
ph arma
pare des</w>
ori a,</w>
ne d.</w>
mix ture</w>
manu tenção</w>
lut adores</w>
la d</w>
km .</w>
ing rid</w>
grafia =====
graf os</w>
en fati
elev ated</w>
ed mund</w>
ecu ador,</w>
dou trina</w>
do se</w>
do men
discí pul
develop ment.</w>
deni ed</w>
defen sor</w>
de du
con tam
colombi a.</w>
chi p</w>
cerebr al</w>
cas es,</w>
cam adas</w>
bran ches</w>
bloc o</w>
besi des</w>
batt le,</w>
bar ra</w>
aster aceae.</w>
ag ents</w>
192 1,</w>
17 ,
(19 20
( 5.
" on
" enterpris
â mi
z ing</w>
y s,</w>
v and
um en
ti ger</w>
ti dae</w>
thir ty</w>
sub marine</w>
sho o
separ ation</w>
se cular</w>
s or,</w>
s d
represent ado</w>
que i</w>
prision eiros</w>
person ality</w>
parce iro</w>
par ar</w>
p ân
orquíde a</w>
napo leon
n ing.</w>
mon arca</w>
milli on.</w>
mes es.</w>
member ship</w>
meck len
me in
mc co
main land</w>
m igh
lic ense</w>
legi timate</w>
ku ,</w>
itali ano,</w>
iri am</w>
in spec
ho l</w>
feel ings</w>
facil ity</w>
f let
eiro s.</w>
e y.</w>
discus sion</w>
di es</w>
desaf io</w>
declin ed</w>
de vil</w>
cum ber
corri das</w>
con jug
cl y
ch op
cas ar</w>
cas a.</w>
c am</w>
bar ,</w>
avali ação</w>
au gh
ass ault</w>
af fili
201 5,</w>
198 7
195 4.</w>
193 5,</w>
14 5
(200 8
(2 8</w>
' the</w>
е р
ñ o</w>
virg ínia</w>
u se,</w>
u ma
trat ados</w>
tran s.</w>
time )</w>
s mil
rit mo</w>
res isti
re conheci
provin ce
pow ell</w>
philoso phy
pa is,</w>
ou- o</w>
os ;</w>
org an</w>
o str
nucle ares</w>
nick named</w>
metro s.</w>
ma e
líqui do</w>
level .</w>
ko z
k ów,</w>
histor ically</w>
hen dri
heli cop
grap her
glo bo</w>
gen i
friend ly</w>
franç ais
fle w</w>
exer cis
event ual</w>
estat al</w>
estadunid ense,</w>
er nes
diamon d</w>
detec tive</w>
desen hos</w>
der ru
d. c.,</w>
cor re</w>
coali tion</w>
cle .</w>
carbon o</w>
cant ando</w>
bo wie</w>
ba y,</w>
aspec to</w>
approach ed</w>
ang a</w>
alli es.</w>
a q
( ut
( 177
óg ico</w>
áto mos</w>
álb un
wor th
we l</w>
ven eti
vel ,</w>
ug anda,</w>
ture r</w>
tu r</w>
tre vor</w>
territ óri
temper aturas</w>
tel ,</w>
syri an</w>
su pri
su ma
ste am</w>
simon ,</w>
servic e.</w>
sec tions</w>
ron disse
ren ault</w>
releas ed.</w>
redu z
recen temente,</w>
re ques
par k
par ecem</w>
or um</w>
oper ate</w>
mer ely</w>
lin .</w>
lew is,</w>
le )</w>
lau s</w>
languag es,</w>
knigh ts</w>
k b</w>
jun ta</w>
inici almente,</w>
in u
ho t
har per</w>
gê me
geór gia</w>
fo tó
fil osó
do me</w>
distin ction</w>
differ enti
dic t
death s</w>
de uses</w>
cred its</w>
com et</w>
clos est</w>
cl ai
ck .</w>
ces são</w>
car r
ba in</w>
ap pl
ances tral</w>
an si
abstr act</w>
9 6.
196 3)</w>
196 1.</w>
195 6.</w>
(200 6
ów ka,</w>
ís mo</w>
á n,</w>
y ev
w ł
ver tebr
ven cendo</w>
vehic les</w>
vari ations</w>
vancou ver</w>
switzer land</w>
swi ft</w>
sur preen
stor y,</w>
sl ave</w>
she pher
sh at
ser en
proces s,</w>
posses sion</w>
popul ar.</w>
pol and,</w>
pic k
pedr as</w>
paci fic
p sic
olympic s,</w>
ocident ais</w>
observ ação</w>
mat h</w>
m ell
l ers</w>
kore a.</w>
ke y.</w>
k os</w>
inter no</w>
ing ".</w>
induc ted</w>
ill es</w>
ho mer</w>
ho dg
guine a.</w>
fran quia</w>
for ces,</w>
er as
entre ten
entertain ment.</w>
en carreg
dr o</w>
develop ment,</w>
der s,</w>
der ek</w>
depen ds</w>
de :</w>
companhi as</w>
co ch
char l
challeng ed</w>
cavale iros</w>
atribu ído</w>
adam s,</w>
a co,</w>
16 0</w>
- ro
( para</w>
y uri</w>
wi es
vy so
vari ation</w>
var só
tr ico</w>
ther n
ten dência</w>
soci ed
shi ft</w>
sel o</w>
ré né
revolu tion,</w>
ren der
py réné
plac a</w>
phil lip
parti d
n x
monten egr
mo uc
mo mentos</w>
mencion ado</w>
member s,</w>
mar cel</w>
look ed</w>
lo s.</w>
lar go</w>
lag o
kon st
km )</w>
jes us,</w>
interpre ta</w>
gust avo</w>
finl ândia</w>
expl ain</w>
ex chang
ev en
el i</w>
do es
deriv a</w>
de mor
d amente</w>
coloc ada</w>
co br
ch ny
cap tain
can ada
cad eira</w>
ca -
bur mes
brilh ante</w>
bisho ps</w>
be et
a. m.</w>
a ,
16 .
0 8</w>
0 3</w>
(199 3)</w>
( warren,</w>
" life</w>
z ag
y on</w>
volei bol</w>
vist os</w>
trini dad</w>
tin y</w>
the ori
termin ando</w>
te ch</w>
substitu indo</w>
seine- maritime</w>
s.h.i.e.l. d.</w>
revolu tion
regim ento</w>
r ation
psy chi
produ tora</w>
prison ers</w>
presid ent
polí tica,</w>
po ems</w>
ph ali
ou gh,</w>
or de
on ne</w>
olo mouc
offic e.</w>
observ ou</w>
negro s</w>
neces si
ne d,</w>
n im
mist ak
met abol
medi um</w>
liter ally</w>
lingu istic</w>
liber ty</w>
li .</w>
is ch
ir re
indic am</w>
identi fy</w>
gro und,</w>
govern ments</w>
fun dos</w>
feet ).</w>
fac ts</w>
envi ar</w>
eng ines</w>
elec tion,</w>
dro p
din o</w>
difer entes,</w>
design ation</w>
deser to</w>
com o,</w>
classi ficou</w>
chil i</w>
ch lo
ca iro</w>
be "</w>
auth or,</w>
atten d</w>
apresent ações</w>
am anda</w>
alfon so</w>
adol escen
ac es</w>
== carreira
9 2
2006 *</w>
12 4
(199 5)</w>
( os</w>
( missão</w>
! ".</w>
ř e
wor ds,</w>
wel sh</w>
we ber</w>
ten ista</w>
te ologia</w>
suí ça.</w>
spac e,</w>
sp y</w>
soci al,</w>
sav ed</w>
s )
ro ok
rai os</w>
rac es</w>
qu ais
pursu e</w>
pré sti
proces sam
pro long
poin ts,</w>
pode -se</w>
ph r
patri arca</w>
pare de</w>
ol d
ol a,</w>
ocorre r</w>
nov o,</w>
ner vous</w>
ner 's</w>
mit ro
mey er</w>
ma tes</w>
lands cape</w>
l ando</w>
jú ni
it ens</w>
is se</w>
inter ests</w>
h ence</w>
gr atu
gr am</w>
fresh water</w>
fr ut
football er.</w>
fo w
flow ers</w>
fil oso
fic ada</w>
fel ix</w>
esp in
ener gi
el ess</w>
dinamarc a,</w>
de *</w>
dat a,</w>
da k
d adas</w>
cor al</w>
caval o</w>
bas í
ação "</w>
ation ".</w>
argent ino</w>
ant en
an ",</w>
am bo
ag reg
actu almente</w>
27 -
1918 .</w>
-- --
(201 3
( live
"m r.</w>
ú til</w>
âni a-
w aves</w>
von tade</w>
us :</w>
travel ing</w>
trabal hava</w>
tot al,</w>
to polog
thur ing
tal king</w>
ta )</w>
super vision
sul- core
sub tropic
star ,</w>
soph ie</w>
shado w
pseu d
poin ted</w>
pesso ais</w>
peix es</w>
pati ents</w>
p he</w>
os aka</w>
oppon ent</w>
ob server</w>
o pi
o b</w>
my space</w>
mun ich</w>
micro sco
jerus além</w>
ist s.</w>
indus try.</w>
i as,</w>
hill s,</w>
her cul
govern ing</w>
fo g
fa una</w>
euc li
esco ces
entre gue</w>
em ul
doc umento</w>
di ane</w>
denomin ada</w>
de '</w>
dat as</w>
d ava</w>
[...]
