<unk>
<pad>
<s>
</s>
the
de
a
of
in
and
e
o
to
em
is
da
do
"@@
as
um
(@@
é
que
uma
was
no
on
para
com
by
na
for
foi
os
with
por
como
*
an
that
"
at
it
he
his
from
-
,
.
==
dos
sua
)
se
==@@
–
mais
i
re@@
seu
ou
-@@
ao
were
or
a,
*@@
:
are
ele
a.
",
which
be
in@@
s@@
's
s.
s,
al@@
s
não
ar
o@@
k@@
"the
has
this
e,
das
one
first
".
e@@
),
also
es
são
também
had
era
ar@@
===@@
its
t@@
y@@
ado
new
z@@
à
ser
de@@
n@@
d@@
g@@
en@@
es,
i@@
an@@
who
her
;
ing
their
after
not
ada
but
p@@
t
).
pela
co@@
o,
ti@@
es@@
y
un@@
united
e.
er@@
es.
as@@
b@@
h@@
pelo
c@@
estado
ch@@
entre
to@@
1
m@@
a@@
ro@@
mas
f@@
di@@
have
us
2
ed
she
u@@
r@@
they
se@@
cidade
("@@
le@@
mo@@
v@@
foram
am@@
is@@
two
ma@@
te@@
ados
l@@
on@@
there
er
al
el@@
ação
all
other
or@@
car@@
nos
do@@
&
j@@
/@@
been
ela
mar@@
city
ia
lo@@
ad@@
durante
seus
3
when
região
)*
ter
into
ri@@
o.
am
quando
man@@
world
as,
bo@@
família
during
ab@@
w@@
4
y,
it@@
po@@
sobre
li@@
no@@
ando
most
con@@
a"
tem
at@@
u
more
t.
per@@
may
ation
known
us@@
so@@
5
anos
ag@@
ho@@
t,
x@@
até
6
par@@
#
des@@
3@@
s"
about
as.
la
ano
be@@
m
7
si@@
os@@
american
time
'@@
k
me@@
ac@@
após
can
—
state
população
adas
bar@@
john
man
n
only
condado
localizada
8
th@@
2@@
d
between
vi@@
pode
==*
ci@@
some
4@@
mon@@
would
film
primeiro
5@@
d.
ap@@
go@@
mor@@
é@@
ne@@
al,
en
primeira
depois
ic@@
9
ligações
parte
pe@@
ter@@
6@@
ver@@
===
used
dois
where
")
e"
l
il@@
dis@@
bi@@
such
ul@@
y.
externas
sh@@
onde
grande
part
er,
cor@@
over
ber@@
nas
7@@
su@@
mi@@
comuna
ni@@
está
than
8@@
isbn
son
pro@@
im@@
he@@
red
population
ta
released
álbum
ak@@
í@@
este
ur@@
so
suas
al.
family
c
town
ate
em@@
d,
for@@
ted
estados
many
up
pi@@
9@@
gu@@
)*@@
americano
while
states
du@@
antes
university
species
national
final
three
()
lu@@
second
ir@@
ko@@
10
ta@@
album
"*
br@@
st@@
av@@
le
ol@@
te
became
100
under
rio
x
dia
ce@@
outros
nova
da@@
him
*"@@
made
filme
(born
south
nome
out
2000,
qu@@
banda
area
ts
can@@
**
tu@@
der
os,
region
et@@
três
then
distrito
later
these
i,
tinha
aram
number
min@@
p
g
mesmo
ó@@
z
ten@@
...
.@@
music
gar@@
la@@
ais
com@@
eles
mer@@
ações
gi@@
an,
el
located
18@@
r
inter@@
tr@@
ve@@
tor@@
king
total
gen@@
ers
departamento
july
har@@
county,
a-@@
gr@@
tes
august
:@@
early
sub@@
ha@@
apenas
well
muito
sch@@
guerra
cas@@
war
maior
list
on,
ing@@
espécie
called
ed@@
best
name
band
au@@
san
habitantes.
a*
á@@
being
ex@@
following
age
years
through
um@@
ina
ana
b
both
department
song
according
2006
contra
fo@@
'
fi@@
mu@@
"s@@
her@@
série
h
states.
march
sido
0@@
10@@
ari@@
pre@@
north
pa@@
single
december
ge@@
aos
mal@@
val@@
<br
segundo
enquanto
group
den@@
m.
bu@@
every
ine
sal@@
20
born
id@@
clear=left>==
before
found
,@@
ava
sendo
war@@
however,
grupo
ing,
fe@@
ca@@
censo
men@@
ay@@
tri@@
ated
per
september
sa@@
1@@
series
october
15@@
julho
central
sen@@
international
esta
since
census
january
12
against
jo@@
including
ger@@
municipality
est@@
cal@@
y"
lin@@
te,
pl@@
ra@@
duas
der@@
área
op@@
lançado
16@@
af@@
história
)@@
until
people
land
na@@
same
will
team
u.s.
os.
conhecido
cl@@
france.
april
1,
estava
ph@@
ly
ru@@
2,
district
des
led
sk@@
several
198@@
ainda
janeiro
november
12@@
francesa
ba@@
v
(199@@
15
cr@@
ton
cerca
pen@@
2007.
desde
tur@@
capital
general
bal@@
june
vo@@
original
agosto
use
me
30
ão
bor@@
ser@@
vez
er.
====@@
if
a)
game
março
cada
município
es"
ban@@
todos
county
commune
13@@
pr@@
administrativa
alguns
able
we@@
ig@@
j.
forma
ent@@
four
che@@
ting
hi@@
tar@@
mat@@
french
james
ben@@
outubro
17@@
ant@@
ou@@
based
11
fin@@
year
c.
14@@
az@@
–@@
ations
fer@@
p.
já
norte-americano
ma
sem
is,
ador
ha
(198@@
rock
maio
february
william
"a
each
199@@
província
end
setembro
dr@@
cu@@
like
ii
et
hu@@
set
18
chi@@
3,
ke@@
sin@@
german
bas@@
bur@@
west
16
threatened
outras
novembro
25
abril
eram
ren@@
david
col@@
di
música
segunda
british
ven@@
work
because
go
ob@@
sistema
vida
ang@@
cer@@
cre@@
novo
dezembro
ton@@
13
lan@@
any
s:
pol@@
!
son@@
número
pelos
14
0-@@
fr@@
ção
former
k,
began
place
te.
del@@
bel@@
ai@@
ing.
197@@
e-@@
do,
ed.
jogos
ot@@
:*
junho
history
don@@
to,
ante
mil@@
and@@
pal@@
tro@@
los
5,
ach@@
named
sob
2006,
high
q@@
canção
demografia
robert
f
fevereiro
ado,
(197@@
17
ista
acordo
kar@@
23
main
nor@@
por@@
teve
pu@@
qual
bem
então
ju@@
michael
rei
ki@@
1-@@
bon@@
won
local
localizado
ver
24
podem
genus
life
pan@@
tempo
ali@@
ch
tic@@
ist@@
19
===*
4,
last
ado.
ous
a",
cap@@
22
en,
#"@@
bl@@
começou
quatro
them
great
==segundo
vários
0
ec@@
championship
ku@@
pertencente
wal@@
anti@@
st.
al-@@
s*
females
tion
sul
george
did
principal
tre@@
ans
mc@@
eu@@
21
us,
através
super@@
século
res@@
====
back
river
video
ir
trans@@
system
mel@@
province
universidade
ian
fal@@
incluindo
ty@@
s",
melhor
6,
males.
/
village
189@@
ão,
day
norte
way
although
t-@@
formula_@@
governo
"),
york
bro@@
versão
i.
you
m,
my
muitos
species.
tan@@
#@@
ham@@
th
around
ill@@
show
mas@@
ator
200@@
very
zi@@
ler
paul
além
s)
played
embora
club
third
l.
196@@
cam@@
k.
house
hor@@
could
ano,
fez
dor@@
fil@@
took
pin@@
east
partir
official
popular
8,
ce
h.
ic
jogo
;@@
dar@@
ste@@
family.
order
us"
devido
del
3-@@
major
football
gênero
oc@@
on.
within
royal
now
sel@@
ev@@
190@@
**@@
in,
wi@@
ati@@
iucn
up@@
7,
son,
ation,
ente
ka
held
government
dan@@
w.
ino
ly@@
written
1.
193@@
9,
another
reino
along
"k@@
ação,
20@@
base
)#
ation.
sa
real
bre@@
g.
str@@
school
filho
1,@@
co-@@
ed,
english
via
cur@@
26
char@@
início
discovered
ep@@
ds
ity
top
charles
2.@@
==*@@
tendo
=====@@
gal@@
due
188@@
co,
==the
fu@@
havia
black
ita
van
28
je@@
or,
we
the@@
ze@@
tic
2.
natural
ent
r.
mis@@
tin@@
(196@@
a:
les@@
vezes
square
mad@@
maria
death
version
muitas
às
d'@@
les
an.
unidos
tion,
hy@@
ne
ov@@
algumas
president
italian
died
all@@
=====
31
le,
ts@@
ário
san@@
dados
ani@@
_
amento
tion@@
ker@@
published
do.
what
ia,
live
om@@
194@@
pri@@
often
29
left
von
form
apesar
member
0,
iz@@
184@@
ley
3:@@
estão
peter
ist
presidente
still
ram@@
chamado
co
small
z,
cy@@
i"
):
book
field
27
sam@@
"*"@@
ais,
ary
much
ão.
192@@
ating
northern
uni@@
far@@
sur@@
cul@@
large
io
u,
2010
han@@
ses
período
?
over@@
t"
ell@@
tion.
ass@@
adores
my@@
hal@@
pas@@
várias
is.
187@@
ori@@
different
own
air
ca
vel@@
que@@
long
ais.
win@@
even
w
tal@@
ant
mundo
faz
sto@@
2-@@
sar@@
tions
ções
mar
european
eg@@
fa@@
ok@@
1.@@
==o
ação.
3.
pon@@
us.
ar,
n,
among
cat@@
há
membros
military
als
183@@
185@@
exército
b.
195@@
ke
nacional
f.
fre@@
power
ons
eastern
ata
25@@
hol@@
pel@@
ito
ú@@
ation@@
to.
mus@@
cin@@
"*@@
sp@@
battle
western
studio
2008
ada,
five
tos
ões
southern
wil@@
4-@@
entanto,
received
army
just
o-@@
recebeu
assim
modern
vis@@
5-@@
ica
se,
vin@@
186@@
").
co.
qualquer
$@@
roman
mes@@
political
ally
amente
given
santa
pres@@
television
casa
ment@@
indo
using
oper@@
pessoas
henry
fic@@
vol@@
members
que,
sil@@
bat@@
_@@
ros@@
morte
home
mag@@
%
star@@
young
n.
trabalho
old
ad
line
late
ce,
gre@@
oficial
men
ts,
ide@@
(195@@
ry@@
s".
)===@@
rel@@
site
out@@
zo@@
==a
see
musical
"n@@
produced
ge
4.
man,
outro
ência
2008,
2010,
gh@@
ki
iv@@
ite
ment
á
din@@
ded
star
00@@
io@@
richard
50
make
bol@@
(;
a's
those
da.
7.
off
(the
2009,
ho
nam@@
mo
a.@@
ae@@
public
cho@@
todas
cri@@
side
white
gam@@
mic@@
d"
título
tornou-se
island
data
ut@@
maioria
social
award
church
menos
num
5.
ilha
tropical
30@@
tor
24@@
2000
ran@@
xi@@
,"
cos
summer
tam@@
fl@@
za
igreja
ken@@
ira
ato
conhecida
down
professor
um"
8-@@
2002
bri@@
hel@@
len@@
dias
201@@
de,
)*"@@
(em
role
hon@@
season
4:@@
near
land@@
3.@@
st
república
papel
title
2007
(200@@
sea
9-@@
love
a".
cinco
anos,
ner@@
metal
terra
ada.
0.@@
2007,
form@@
ba
uso
mur@@
ten
company
2004,
wrestling
ga@@
pes@@
ga
y-@@
ice
asteroid
ck@@
cen@@
quais
temporada
“@@
sol@@
fazer
e*
become
included
cro@@
km
th,
avam
isso
numa
2009
23@@
created
(193@@
lev@@
)"
considered
tas
ding
by@@
dur@@
largest
party
similar
less
thomas
lam@@
ers,
head
tel@@
o"
ain@@
player
art
0.
carreira
without
bus@@
bul@@
dy@@
ks
production
nu@@
russian
said
possui
ado@@
od@@
important
pic@@
sor@@
little
partido
under@@
2,@@
produção
têm
grand
yo@@
6.
tour
arm@@
ah@@
cel@@
den
esse
ura
8.
gor@@
nic@@
fim
eri@@
oni@@
el,
next
—@@
2011,
centro
sho@@
language
log@@
26@@
-se
da,
ton,
various
lar@@
)**
posição
1–@@
fun@@
uc@@
civil
ical
pouco
came
league
s-@@
sun@@
cham@@
christian
===the
nes@@
dr.
nov@@
tarde
roman@@
rad@@
point
prince
loc@@
common
re,
ty
pai
million
yu@@
km²
est
or.
ł@@
having
copa
adi@@
sen
announced
ordem
todo
land.
record
2004.
eu
six
livro
usado
ine@@
cit@@
tornou
formed
kin@@
period
9.
take
sul@@
ple@@
tou
ä@@
games
episode
ficou
gan@@
include
ele@@
father
liber@@
ts.
center
membro
ano.
human
28@@
6-@@
mit@@
50@@
ates
lado
professional
density
sab@@
aw@@
tipo
grandes
development
end@@
"g@@
few
7-@@
let@@
ve
wa@@
developed
e",
costa
es:
ford
lost
var@@
play
recorded
republic
179@@
2004
27@@
jan@@
4.@@
logo
press,
century
ya
pul@@
batalha
2005
a*@@
ash@@
ex-@@
car
days
ner
ar.
ra
istas
ko
11@@
founded
families
space
y's
eng@@
d-@@
festival
nas@@
country
res
longo
180@@
36@@
dic@@
habitantes
lat@@
people,
s.@@
hum@@
ta,
40@@
agem
+
,000
ard
e)
ma,
equipe
japanese
mark
went
tv
ans@@
chamada
...@@
en.
deu
wo@@
outra
times
lead
2011
g,
29@@
a),
lee
built
lugar
vila
2005,
seria
water
ária
domin@@
2011.
país
qui@@
ai
ja
década
internacional
wor@@
fronteira
ç@@
lis@@
research
=
40
light
gener@@
works
bis@@
essa
time,
primeiros
(201@@
ano@@
nar@@
países
ce.
force
sucesso
volta
kh@@
"o
ais@@
mari@@
grav@@
império
bureau,
gol@@
special
almente
x,
2012
descoberto
match
wrote
gas@@
plan@@
35@@
s'
soviet
sy@@
lista
are@@
ey@@
appeared
ê@@
ganhou
va
volume
2012,
don
futebol
tive
’s
and,
joseph
ji@@
married
never
paris
aria
mile
release
milhões
ários
desenvolvimento
campeonato
º
estimada
moved
chin@@
ish@@
dentro
body
making
==references====external
ance
though
bit@@
passou
short
it.
anos.
gro@@
free
ico
how
jun@@
play@@
ale@@
morreu
80@@
geralmente
pag@@
p,
idade
songs
ados.
kr@@
ric@@
union
19@@
gun@@
ff@@
kan@@
louis
sed
tal
ny@@
quase
ville
cle@@
bil@@
lig@@
(194@@
sion
support
ay
km²,
re
w,
forças
control
encontrada
pat@@
è@@
originally
fri@@
josé
h,
""
38@@
upon
ter,
th.
"re@@
alemanha
tem@@
returned
park
soci@@
lor@@
mundial
principais
(s@@
non-@@
vic@@
au
š@@
ate@@
""@@
ador@@
ps
==references==
sti@@
ia.
imperador
lake
programa
pop
story
dae.
established
id
further
hen@@
is"
ky@@
sco@@
v.
fora
ili@@
performance
directed
hall
london
cia
air@@
bin@@
saint-@@
ip@@
ann@@
carlos
união
língua
2008.
ck
may@@
brasileiro
(2@@
l,
ds@@
emperor
força
port@@
seis
5.@@
castelo
atu@@
character
dam@@
e's
ll@@
ron@@
let
género
poder
vari@@
mary
contr@@
fon@@
(192@@
ings
ana,
ug@@
estúdio
ö@@
u.
cant@@
re-@@
";
edward
iro
2005.
37@@
ling
densidade
ora
back@@
jack
seguintes
cli@@
fen@@
tica
records
act
dal@@
ath@@
china
brazilian
cos,
ther@@
bio@@
cont@@
le.
imperial
)==@@
design
no.
estavam
open
tais
ia@@
kingdom
science
hand@@
se.
tanto
post@@
usa
spanish
iii
has@@
not@@
van@@
último
gri@@
terceiro
und
continued
dado
relação
again
director
ini@@
nasceu
"i
described
er"
personagem
city.
cup
once
2)
new@@
started
:*@@
tom
berg
ces@@
z.
sent
só
dro@@
ras@@
);
aqu@@
escreveu
tra@@
(,
1)
mul@@
linha
olímpicos
ris@@
du
j
pap@@
served
your
tes@@
c,
geo@@
sus@@
ino@@
mont@@
(a
comple@@
ados,
ity.
duke
filha
usually
japan
does
ena
medi@@
2:@@
isto
lit@@
of@@
martin
mesma
ção,
ks@@
mé@@
bran@@
de.
low
tex@@
big
"trechus
residing
chris
diferentes
performed
2003
ers.
importante
si
clo@@
debut
junto
tar
lançamento
ros
34@@
jogador
album,
(
agu@@
ster@@
fac@@
joão
luta
entes
parti@@
ella
ato@@
ponto
um,
es)
plays
s;
fle@@
2–@@
a).
career
daughter
ka@@
conjunto
material
households,
lab@@
américa
s*@@
gold
hav@@
gave
idade.
society
uk
singles
prêmio
atualmente
ich@@
ace@@
stage
3–@@
liga
2013,
right
asi@@
lon@@
current
micro@@
working
get
y*
e:
x.
toda
porque
ess@@
pass@@
ted,
sky
ted.
ero@@
cab@@
hot
esti@@
taken
vil@@
edição
episódio
worked
return
og@@
rou@@
teoria
6.@@
dae
italiana
ity,
law
tas@@
position
cent@@
radio
stor@@
"b@@
greek
tab@@
pun@@
wat@@
indian
s),
himself
kam@@
pelas
500
ō@@
dy
full
seven
estes
software
::@@
alb@@
am,
ilhas
tt@@
200
ham
ez@@
tru@@
verão
ye@@
ur
origin@@
theory
ave
average
aci@@
type
wood
forces
idos
mir@@
ess
boy@@
ja@@
perto
sta@@
years.
jar@@
pur@@
fel@@
nat@@
ores
disse
príncipe
estilo
reg@@
2001
asteróide
equ@@
projeto
west@@
diretor
dun@@
.,
program@@
principalmente
2009.
atriz
ii,
leg@@
tag
seen
ii@@
tis@@
178@@
feito
campo
mun@@
alta
in.
ch,
ü@@
approximately
playing
tico
tw@@
política
downloaded
2013
census,
futebolista
clube
so,
avi@@
germany.
č@@
ship
tele@@
good
sul,
sum@@
nunca
france
las@@
river*
il
time.
idade,
met@@
1999
main-belt
court
study
movimento
dar
filmes
s==@@
corpo
seat
solo
único
irmão
pp.
indi@@
land,
our
es*
lic@@
shi@@
mãe
cour@@
(1
57@@
cos@@
castle
47@@
ambos
service
l'@@
references
ion@@
te"
"f@@
pil@@
sede
(embassy)**
kon@@
olympic
meio
must
vas@@
alexander
cher@@
lo,
quar@@
together
continu@@
ter.
museum
she@@
ator@@
awards
features
lad@@
mother
ny
000
ef@@
aliz@@
ha,
escola
(c@@
39@@
re.
high@@
currently
exemplo,
links==*
5–@@
é,
1996.
ble@@
eventually
ing"
8)
cad@@
e.@@
organiz@@
port
zz@@
gran@@
ô@@
term
água
it,
project
zen@@
ara
3,@@
2003,
ín@@
fran@@
org@@
fourth
fica
ors
4–@@
ável
speci@@
y",
flu@@
external
action
marine
saint
track
vit@@
45@@
aj@@
ber
1998
modelo
rein@@
throughout
ze
association
tinham
2006.
low@@
mac@@
rus@@
60
dad@@
sim@@
whose
queen
class
(190@@
empresa
escrito
ese
nation@@
defeated
music@@
thus
observ@@
"h@@
4)
geral
ae
seri@@
should
economic
ek@@
ici@@
tão
joined
win
ys
ism
político
paris,
7–@@
francisco
"(@@
daniel
fur@@
clar@@
==in
ma.
aceae.
brazil.
dor
bir@@
cobertos
es",
viol@@
ancient
son.
hun@@
contains
hil@@
ists
night
s).
unidos.
frank
177@@
disso,
ind@@
c.@@
48@@
bab@@
dri@@
nível
ção.
***
2010.
ker
pit@@
1),
originalmente
federal
gon@@
2001,
sempre
anna
gil@@
division
middle
nuclear
poly@@
sometimes
al"
5)
auto@@
ax@@
referências
liv@@
lower
despite
ger
populacional
ne,
alo@@
cd
either
3)
lou@@
soon
arte
come
2),
y)
case
close
obras
wife
cidades
scott
rap@@
termin@@
única
alto
ro,
"la
)*"the
sing@@
apo@@
flor@@
controle
defen@@
gram@@
recording
adas.
uk@@
juntamente
ens
academy
considerado
pa
sw@@
caso
signed
sete
black@@
followed
pe
desta
bo
estr@@
(n@@
administr@@
til@@
f,
na,
city,
sz@@
10,
cos.
digital
7)
ben
8–@@
ist,
9–@@
sir
vers@@
3),
links==
bru@@
minister
mol@@
blo@@
metros
quem
ss@@
die
famous
0,@@
ah
almost
che
empire
links
pos@@
you@@
berg,
ful@@
o)
próprio
televisão
vídeo
actor
result
foreign
on"
divisão
king@@
tions,
ii.
tak@@
8.@@
cultural
inf@@
nomeado
(embaixada)**
rac@@
available
dav@@
building
competed
council
ā@@
borders
chefe
ares
brother
ey
green
rain@@
thi@@
wood@@
independent
depois,
information
termo
py@@
jo
militar
med@@
44@@
6)
60@@
way@@
1996
49@@
55@@
grupos
leading
ry
college
hit@@
met
paul@@
rock@@
processo
vol.
6–@@
americ@@
ação@@
kal@@
der,
)==
botânico
direção
tado
ana.
escrita
model
angel@@
estu@@
lies
ong@@
people.
)**@@
ica,
kat@@
away
baixa
baseado
ble
estrela
band@@
и@@
espécies
esp@@
ismo
itas
ring
ata"
steve
===a
usando
agora
ds,
related
um.
9.@@
estas
cover
half
olympics
computer
ro
super
antigo
europa
tun@@
compar@@
designed
lançou
martin@@
alemão
cir@@
hard
1998.
e".
featured
aumento
k"
edition
ista,
hos
jesus
parts
shows
bell@@
previous
dez
children
film@@
includes
beginning
sou@@
hin@@
nav@@
quanto
ina,
centre
ative
heavy
b,
und@@
1)*
aproximadamente
no,
origem
"===@@
person@@
europe@@
ér@@
dirigido
far
ley,
separ@@
"==@@
éri@@
homem
ations.
las
distribu@@
standard
última
conselho
neg@@
97@@
wer@@
enti@@
ents
quin@@
remained
vir@@
writing
deve
33@@
anti-@@
catholic
change
dance
participou
stone
novamente
row@@
(16@@
across
chinese
ear@@
lord
"p@@
ally,
green@@
seja
wol@@
(in
run@@
ball@@
maiores
época
causa
ung@@
ale
mo,
homens
próximo
wwe
rather
+@@
osa
ver,
ski
a"*"@@
especially
tions.
anim@@
criado
moder@@
média
tric@@
year,
lhe
plat@@
prov@@
chegou
later,
public@@
unidos,
ler@@
ability
introduced
whom
ep
example,
obra
organização
===*@@
esses
mix@@
style
energy
a;
mann
at,
cion@@
ves
alidade
cinema
duque
ji
ram
7.@@
ever
institute
office
ias
miss
guar@@
singer
blue
least
living
"r@@
chil@@
miles
golden
head@@
ie
me,
mike
perda
1997
kel@@
reached
pho@@
apoio
es".
hoje
america
europe
habitat
kor@@
historical
2012.
align=center_
ans,
red@@
mil
tra
wh@@
day@@
ds.
oeste
12,
contém
event
11,
[@@
tos,
tratado
2002,
net@@
un
colo@@
dvd
15,
berg@@
date
francês
fro@@
face
smith
ta.
vitória
wy@@
appointed
stars
constitu@@
endemic
ib@@
(p@@
ties
ung
disney
hay@@
web@@
35
dig@@
fall
ations,
grand@@
s===@@
sold
4)*
bad@@
book@@
idas
particular
poderia
audi@@
conver@@
ka,
process
tiv@@
0)
footballer
ms
plant@@
sl@@
teria
8),
ali
fir@@
internet
atual
centr@@
ol
revista
ire
present
ª
182@@
especialmente
geografia
00
lim@@
marin@@
ness
terceira
cast
ff
idae.
antiga
arch@@
ters
adas,
dos,
fc
hr@@
inclui
56@@
cus@@
nit@@
sis@@
1995
better
5:@@
líder
too
multi@@
cau@@
radi@@
jean
u-se
”
checa
5),
elected
level
long@@
")*
anne
estrutura
juan
ti
drama
estar
natur@@
referred
source
a-se
ling@@
m.@@
ou-se
replaced
max
leste
states,
áreas
cop@@
esposa
strong
cantora
lei
3)*
apareceu
deste
non@@
personal
inten@@
physical
(ou
el.
washington
edi@@
j.@@
wa
2000.
território
ente,
kit@@
ong
ár@@
decided
eli@@
levou
size
ouro
palácio
profissional
"comune"
construção
tho@@
14,
range
sag@@
well@@
20,
certain
dat@@
links==*@@
ticas
complete
ro.
sau@@
má@@
ş@@
meses
plant
road
sig@@
sound
2)*
aver@@
fam@@
front
habitats
incluem
neu@@
website
9)
amente,
inglês
flo@@
sistemas
cres@@
elas
generally
ments
neste
run
century,
dos.
forms
program
quarto
princess
rest
stri@@
tivo
am.
guitar
poli@@
46@@
key
lag@@
problemas
somente
0–@@
media
winter
explo@@
gy@@
175@@
função
pis@@
"in
ats
er's
energia
lia
mb@@
partes
tom@@
year@@
1992
latin
aus@@
ign@@
ise
sand@@
bill
ca,
dist@@
porto
itos
kur@@
enz@@
tenha
vocal
6),
boy
eight
interior
tour@@
ë@@
1994
bot@@
comun@@
nan@@
pedro
ei@@
lí@@
african
iro@@
ñ@@
9),
fol@@
round
tarde,
angeles
hab@@
iros
aro@@
jovem
(or
age,
idea
wel@@
day,
pois
sec@@
wit@@
bb@@
cav@@
joe
90@@
ence
phil@@
"#
brought
kir@@
religious
jam@@
help
cher
x-@@
eric
anunciou
burg
personagens
prime
arg@@
art@@
hit
possible
ência,
a)*
as"
cy
months
tis
cultura
hem@@
13,
countries
frança
portuguese
resultado
word
york,
commonly
t's
85@@
ade
ama
dou@@
lau@@
zar@@
pot@@
prote@@
song@@
aber@@
aceae
frente
network
give
thought
brian
ór@@
===o
bou@@
formula
classe
corre@@
nis@@
press.
put
will@@
gl@@
god@@
antonio
bak@@
chief
ân@@
ane
dire@@
atr@@
conseguiu
entertainment
ow@@
d.@@
itali@@
zy@@
1990
=@@
associated
democratic
formação
glo@@
placed
systems
1*
conta
estação
byzantine
ice,
syn@@
8)*
entrou
ish
mer
própria
success
1993
ants
chap@@
cis@@
mid@@
pp@@
govern@@
integr@@
===in
dre@@
forte
mission
execu@@
him.
segu@@
ís@@
======@@
capit@@
elenco
motor
ria
5)*
fas@@
gas
lav@@
ner,
active
forced
hab/km².
mai@@
thor@@
continuou
disco
religi@@
":
chang@@
ente.
ica.
serviço
deixou
movie
orbital
sav@@
áfrica
9)*
pir@@
ri
chu@@
lived
novas
stu@@
ula
â@@
but@@
ton.
bird
ches
naval
pequena
tiva
о@@
80
18,
canções
consul@@
faixas
terr@@
16,
==see
ada@@
chi
plants
’@@
==references==*
adora
break@@
monte
ast@@
regular
universal
bay@@
dade
ki,
war,
composed
outside
events
ly,
mass
spe@@
tia
ante@@
leader
tz@@
read@@
-*
cole@@
comum
eti@@
fis@@
fosse
influência
killed
(m@@
59@@
native
novos
online
ov
produzido
collec@@
oito
traditional
female
go.
porém
karl
opera
model@@
groups
turnê
°
ón
176@@
canadian
chan@@
et,
paulo
vai
==em
ativ@@
list@@
albert
als,
community
fifa
sí@@
trabalhou
usada
(with
d's
institu@@
rainha
87@@
jer@@
years,
limit@@
70@@
appears
atos
gir@@
ken
17,
americana
ended
ou,
uses
cio
films
frequentemente
means
changed
gastropod
pe,
world.
always
des,
ve.
attack
dan
dec@@
fab@@
bet@@
human@@
oso
rat@@
alis@@
influence
mono@@
2002.
books
existem
so.
alan
apar@@
expres@@
master
elizabeth
==ligações
business
direito
municipalities:
private
determin@@
dé@@
prin@@
ky
me"
sing
windows
wr@@
32
declar@@
km².
"in@@
ces
conce@@
diversos
hat@@
phon@@
vill@@
conven@@
at.
evento
novel
não-@@
bun@@
terminou
(also
station
find
signific@@
fundada
importantes
lady
r.@@
sion@@
y".
modo
press
sat@@
(),
amar@@
i-@@
vocals
19,
ataque
color@@
dem
previously
collection
rol@@
tul@@
yam@@
brown
comunidade
coast
lançada
aur@@
es==@@
norte,
promo@@
competi@@
objec@@
stephen
water.
22@@
ad,
already
ha.
lo
2).
cou
il,
ray@@
real@@
e*@@
ins
jan
ley@@
rob@@
view
diversas
o'@@
tos.
ativo
combin@@
publicado
y:
(15@@
cruz@@
nel@@
===em
an-@@
eiro
japão
mundo.
rab@@
venceu
conde
ful
zer@@
feder@@
produtor
"al@@
2014
casamento
divided
palace
swedish
ári@@
afric@@
blu@@
priv@@
stated
kim
nag@@
álbuns
london,
saw
design@@
ensis"
4),
arts
usar
ant,
artist
elementos
girl
menor
seguinte
baixo
ak
bour@@
man.
mo.
p.@@
studies
areas
estre@@
missão
o*
sul.
1:@@
instead
iras
músicas
å@@
ção@@
ów,
limited
washington,
30,
direitos
emo@@
esper@@
heavyweight
street
tiveram
walter
"o@@
(19@@
2003.
bus
future
actress
países:
zon@@
22,
ch.
takes
behind
criação
fort
iv
ix@@
players
ti,
2*
aç@@
le"
pontos
scientific
armas
ist.
taking
vista
child
inicialmente
iram
resid@@
sociedade
law@@
page
sic@@
studied
superior
u-@@
ying
tropas
7)*
cities
fire
jim
ship@@
0),
a==@@
box@@
espaço
ho,
iu
opened
porém,
ência.
(189@@
tim@@
chen@@
eventos
friend
ich
piano
fe
gab@@
sty@@
tap@@
comput@@
trade
cru@@
simply
stat@@
ala
global
manuel
ál@@
а@@
assassin@@
guitar@@
master@@
água.
cena
condados
escritor
im
jackson
on-@@
shin@@
asse
bank
cross
ory
1980
ce"
document@@
gastrópode
harry
inst@@
rose
tica.
web
*"the
earth
ity@@
mos
público
sexual
diz
going
han
ted@@
tion"
ă@@
1).
almente,
cic@@
1999,
addition
dol@@
faixa
andrew
dit@@
tony
gel@@
ke,
medical
visto
vor@@
ac
allowed
bob
edit@@
estudos
feita
texas,
d)
tax@@
4,@@
electric
possível
power@@
sions
campanha
estende-se
ona
bes@@
characters
d*
q
"de@@
21,
58@@
aircraft
ž@@
1991
2001.
ani
ever@@
gin@@
luz
mollusk
year.
24,
cun@@
family,
inici@@
cargo
industrial
v,
er*
towards
25,
album@@
awarded
som@@
bass
elements
t)
ent,
gue
series,
sex@@
===2000
ack@@
entr@@
fato
tipos
ências
brasil
century.
especial
others
sas
snail,
structure
án
au,
carolina
ck,
one,
ron
age.
census===as
reported
&@@
6)*
god
po
rights
stein@@
tica,
tit@@
unido
upper
1989
hus@@
iria
sent@@
thro@@
fox
ore@@
chor@@
especi@@
tel
biografia
heart
indiano
ages
arthur
assim,
gold@@
hong
in-@@
jog@@
sm@@
ward
direct
function
ida
2013.
am-se
amentos
britânico
deus
fase
prize
trabalhos
above
governor
jon@@
subtropical
campeão
officially
sit@@
successful
war.
commercial
fus@@
posi@@
seguinte,
status
ôni@@
down@@
quadr@@
relações
ski@@
bos@@
cell@@
criar
trabalhar
york:
ō
greatest
pope
criada
got
movement
pressão
board
highest
medic@@
governador
significant
ę@@
2014,
australian
california
fight
ino,
princesa
opening
er-@@
playstation
additional
comando
consider@@
key@@
leon@@
wall@@
zed
angeles,
england
islands
sons
stein
higher
hou@@
inte@@
ace
indic@@
particularly
ars
capacidade
count
ders
eth@@
oce@@
punk
rou
jorge
larger
romance
serem
wanted
hold
present@@
pro
estreou
plo@@
cé@@
naturais
provavelmente
artista
defini@@
hur@@
income
incorpor@@
set@@
hill
involved
marie
(1@@
good@@
person
melhores
==referências==*
chicago
dutch
estudou
mid-@@
28,
code
direc@@
elev@@
feature
records.
sun
treaty
bag@@
tempo,
winning
7),
ely
individual
sax@@
em,
eno@@
interest
peace
bruce
ii"
precis@@
pierre
rit@@
arc@@
exemplo
medal
alemanha,
germany
points
minas
nesta
4*
companhia
dark
entered
nations
shot
utilizado
ans.
initially
relationship
spar@@
canal
producer
tido
(r@@
carl
(com
86@@
с@@
k-@@
rot@@
test
yl@@
believed
minor
solar
tics
vo
1988
:"@@
demo@@
es;
jen@@
teatro
bar
exist@@
hydro@@
54@@
femin@@
jogadores
realiz@@
rin@@
wan@@
li
true
1998,
antes,
ester@@
museu
ot
ler,
start
ões,
momento
mulher
parque
í
becoming
example
primeiras
tores
(o
haw@@
kevin
olog@@
age@@
altitude
ações,
bra
sia
70
pessoa
ás@@
bow@@
complex
ic,
silver
backing
cidade.
o:
posteriormente
ties.
conserv@@
fazendo
ido
lang@@
papa
phy@@
posto
"ho@@
ativa
ent.
ney
regional
spo@@
blan@@
dio@@
har
lin
oxford
rede
36
cional
mes
nome@@
provided
"po@@
cou@@
ion
rum@@
tron@@
woman
"v@@
(as
27,
estrelas
marriage
ous@@
stre@@
âni@@
26,
3*
5,@@
ajuda
china,
classical
lingu@@
país.
consum@@
20th
secret
algum
core@@
stan@@
hard@@
kas@@
women
added
chemical
ding@@
l.@@
mos@@
test@@
ário,
diocese
iron
retired
ang
aparece
baix@@
censo-designada
normalmente
spent
tema
산;
(que
republic@@
roger
tent@@
caused
hai@@
nações
speed
bureau
estadunidense
was@@
-l@@
al)
b-@@
começaram
mou@@
plano
semi@@
alber@@
destin@@
education
launched
move
news
police
"sh@@
ago@@
c)
estudo
gui@@
kis@@
lago
planet@@
99@@
demonstr@@
me.
avanç@@
hero@@
ked
kun@@
love@@
serve
wide
running
significa
uri@@
alli@@
mam@@
seleção
"e@@
]@@
austrian
perdeu
valor
ão@@
kno@@
mountain
ston@@
*"bulbophyllum
9).
ander@@
burg,
film,
jones
projec@@
regiões
us"*"@@
czech
gg@@
zu@@
ś@@
bs
photo@@
rai@@
té@@
4).
arti@@
cido
realizado
them@@
zel@@
33
compositor
ile
2007@@
]
agen@@
greater
mr.
acima
ade@@
forma@@
lac@@
torno
ó
money
primary
t.@@
trav@@
you"
completed
código
funcion@@
ira,
organization
voltou
:formula_@@
corte
cruz
earlier
hi
23,
inclu@@
versões
1984
names
nascido
numerous
oli@@
terms
tor,
dando
ine,
ocorreu
tim
trac@@
ate,
attempt
critical
ette
jason
juli@@
starting
ach
brasil@@
jean-@@
rich@@
(18@@
activ@@
france,
ies
67@@
bay
cris@@
deci@@
=="@@
aju@@
economia
formada
surface
==de
associ@@
composto
entretanto,
ets
orient@@
1999.
amigo
ata@@
fighting
pequeno
changes
elec@@
hl@@
microsoft
%)
==external
respon@@
vocal@@
66@@
fundado
isol@@
nine
roy@@
(municipality)
29,
padrão
ann
fifth
3).
?@@
defined
endémica
shel@@
sky@@
90
act@@
calcul@@
formal
mach@@
regul@@
últimos
ambi@@
sequ@@
ves@@
livros
man"
ativas
probably
produ@@
situ@@
technology
awa
bad
construction
gio
instituto
rar@@
christopher
core
entire
medieval
member@@
arem
create
ford,
fórmula
john@@
medalha
nem
comman@@
mainly
asteroide
remains
sões
1997,
ick
jack@@
"d@@
cdp
crist@@
exten@@
locais
ase
cd@@
eira
ore
tó@@
',
acabou
b.@@
contrato
heat
prior
8).
apresenta
eleito
finalmente
illa
ir,
naz@@
tornar
ys@@
author
bishop
holy
termos
turn
ater@@
blood
concor@@
legal
nomes
ray
albums
band's
captain
r,
8*
adam
ativos
atua
en"
portugal
restaur@@
visão
estimated
hospital
ina.
mostly
som
valley
2nd
adicion@@
ibn
interview
-de-@@
china.
dul@@
women's
2"
fix@@
ito,
lun@@
makes
popul@@
time@@
(re@@
)===
box
motor@@
sak@@
teams
ular
45
anth@@
filhos
ill
nearly
unidade
1985
aries
decor@@
euro@@
jul@@
russia
shar@@
sub-@@
visual
writer
);@@
billy
celebr@@
critic@@
fish
individu@@
letter
oficialmente
territory
vice-@@
consists
fonte
liz@@
pes
ao@@
dí@@
escol@@
finally
instrument@@
pé@@
"m@@
dada
lem@@
race
vi
ż@@
francis
nomin@@
ox@@
pad@@
refer@@
vivo
"de
chart
ø@@
as:
dave
dif@@
pris@@
tat@@
escal@@
meaning
pesquisa
results
ã
aki
astro@@
essas
german@@
tico,
aga
ante,
então,
table
tec@@
ters,
them.
tí@@
appearance
dead
polish
quer@@
rod@@
rom@@
2:
control@@
experiment@@
johnny
mulheres
security
sister
(="@@
;*
ador.
aeroporto
dia,
dream@@
life@@
might
revel@@
álbum,
alter@@
call
culture
kil@@
mudou
northeast
paz
text
de-@@
frederick
group@@
ham,
tran@@
buenos
ek
gli@@
títulos
======
cha
composta
fire@@
londres,
bla@@
double
fontes
main@@
palavra
section
1996,
jur@@
nenhum
são:
vem
1987
afe@@
irmã
normal
rome
tag@@
100@@
conhecidos
dido
matt
ym@@
1986
competition
evolu@@
rapidamente
claimed
troops
turned
(b@@
alfred
fair@@
le-@@
patrick
representa
(h@@
cidad@@
finished
luís
nia
rav@@
(k@@
ações.
ings,
ne.
semana
whether
za,
•
aten@@
hid@@
male
rússia
1970
<br>@@
aka
capita
da"
ik@@
illinois,
ito@@
salv@@
acts
airport
emer@@
existe
idades
prepar@@
reti@@
amor@@
mp@@
town@@
(d@@
1st
5).
ador,
explor@@
girl@@
hir@@
swe@@
88@@
ball
decidiu
identi@@
manter
santo
tracks
1976
300
article
hom@@
cambridge
census-designated
gene@@
unit
antes.
ties,
velocidade
ör@@
1990,
an"
appear
campaign
cost@@
curi@@
shown
ância
notable
sex
ster
ville,
38
bern@@
borough
ick@@
rate
alex
als.
thre@@
aco
itself
johann
o.@@
satis@@
self-@@
told
tou@@
е@@
1992,
encontr@@
zona
presença
sant@@
ânia
andy
ators
brazil
jeff
jr.
zes
committee
course
need
ré@@
ain
all,
dest@@
mexico
ality
cause
desenvolvido
hill@@
icas
revealed
secre@@
ta"
ticos
0).
pav@@
dam
flowering
ho.
livre
problema
scrip@@
você
(g@@
0)*
68@@
lanç@@
lov@@
trat@@
virtu@@
anthony
bit
trin@@
α@@
whit@@
compil@@
f.@@
lap@@
market
segurança
selected
sports
construído
formado
lati@@
metade
pré-@@
rece@@
resultados
sever@@
starring
water@@
т@@
en-@@
idae
shortly
simon
te-@@
174@@
===*"@@
frança,
fron@@
sam
separate
shor@@
atlantic
lie
longer
mente
será
tre
ces,
character@@
north@@
"w@@
comerci@@
dent@@
graf@@
novel@@
ń@@
1995,
concert
extended
fact
fied
kin
linear
nin@@
w.@@
a"*
detec@@
guitarra
interesse
mundial.
usados
border
final@@
les,
loss.
majority
ment,
dg@@
habitat.
industri@@
kid@@
áveis
(188@@
ameaçada
comes
fat@@
formul@@
it's
recent
д@@
5*
decréscimo
jewish
jus@@
lé@@
defesa
hau@@
ps@@
t*
voice
53@@
afirmou
características
cintura
ficar
ocidental
open@@
vul@@
óri@@
"billboard"
es*@@
machine
republic.
tico.
"l@@
19th
7*
comedy
flight
ned
nick
passed
russi@@
vs.
andr@@
apresent@@
c-@@
começa
dem@@
est,
mica
mount
net
sen,
system.
know
prefer@@
world,
bron@@
field,
him@@
represent@@
school,
400
eta
lo.
metal@@
modific@@
stadium
work@@
ation"
dio
esa
habit@@
investig@@
magazine
off@@
peter@@
variety
assi@@
mtv
pó@@
tin
"no@@
also==*
brand@@
command
friends
ment.
oriental
parece
revolução
superfície
bbc
brothers
mak@@
ola
week
"ar@@
channel
competição
davis
mal
massa
noted
premi@@
sk
170@@
except
realizada
s=====@@
soul@@
tamanho
taylor
tentativa
1982
love"
room
serviços
ty,
williams
ário.
editor
h.@@
ologia
supported
á,
britânica
brown@@
cendo
effec@@
jazz
specific
cantor
der.
efeitos
pack@@
rest@@
widely
"".
library
mixed
oph@@
peru.
philip
system@@
ca.
educ@@
permite
igh@@
serviu
younger
featuring
hall@@
london:
metr@@
participação
triple
academia
administrative
estreia
estádio
food
nature
night@@
our@@
simul@@
°@@
43@@
serv@@
annual
artistas
et.
scar@@
berlin
concentr@@
ger,
infer@@
informa@@
semi-@@
capaz
les.
nominated
os"
pacific
to-@@
utiliz@@
basic
fa
look
pre-@@
southeast
rule
value
(-@@
an's
cus
leaving
nenhuma
older
produce
1960
father,
henrique
italiano
titled
victor@@
weight
inglaterra
life==@@
pressure
ss
t:
go,
initial
mark@@
1981
2006@@
76@@
==early
eo@@
home@@
languages
nacion@@
primarily
say@@
const@@
ea
johnson
northwest
permaneceu
ake
bastante
felt
mi
raz@@
texas
alismo
mah@@
maneira
rever@@
boa
conceito
concer@@
ly.
numbers
theatre
train@@
10.@@
asked
classificação
con
decisão
enough
gul@@
hollywood
town.
associação
jas@@
objetivo
ud@@
yn@@
"co@@
caus@@
ech@@
image
stro@@
abaixo
das,
des.
kaz@@
mexican
responsável
series.
want
"t@@
(b.
1994,
boston
cimento
degree
ista.
ni
planet
substitu@@
pent@@
spring@@
89@@
ring@@
assist@@
atribu@@
condu@@
presented
records,
soldados
done
educação
tida
tá@@
bau@@
california,
ci
d:
elimin@@
es'
mov@@
school@@
agens
linguagem
problem
summer@@
ça
ast
camin@@
ento
florestas
whole
don't
effects
inver@@
marca
smaller
texto
):@@
aco@@
histori@@
horas
island@@
itu@@
pais
theme
árias
kol@@
números
ology
storm
kings
ure
a")
adri@@
anas
bronze
health
pá@@
visit@@
dessa
friedrich
gn@@
mathematical
coming
hou
israel
scene
sou
brun@@
caminho
contribu@@
enci@@
history@@
libr@@
ras
urban
"di@@
2004@@
animal
concept
ines
one@@
plac@@
polí@@
version@@
,*
access
attended
christi@@
mudança
voz
ível
att@@
criou
em.
espéci@@
f-@@
ground
isso,
ministro
nes
ques
show@@
system,
tical
ço
(como
cer
copies
p-@@
tional
val
69@@
champion
constru@@
dil@@
ence,
encontrar
evidence
impres@@
industry
n.@@
nig@@
ped
povo
words
atac@@
birth
ces.
christ@@
classific@@
formas
madonna
monte@@
nad@@
samuel
temple
(cdp)
168@@
1991,
be,
conheci@@
gar
ics
problems
declared
derrotou
effect
línguas
operation
65@@
978-0-@@
adopted
altern@@
contemporary
ini
kle@@
mac
noite
peri@@
try
eas@@
kim@@
nak@@
(3@@
cí@@
gall@@
rise
team@@
78@@
arms
day.
dinastia
graph
na.
sym@@
zin@@
6,@@
adul@@
ced
come@@
dez@@
flag
kind
ordered
stand@@
tle
which,
"le
160@@
64
domínio
fit@@
irmãos
miguel
possibly
row
say
"new
1:
crown
seg@@
tically
48
competiu
ed"
location
luis
n-@@
н@@
ami
fan@@
abor@@
algo
artists
bridge
lines
nucle@@
africa
amb@@
ction
engine
executive
loss
mass@@
ns
bin
desse
ell
hag@@
hans
likely
racing
acting
amer@@
autor
comunas
inos
inside
intended
mentos
movi@@
multiple
victor
wilhelm
actually
aster@@
beau@@
nobel
sequência
tv@@
versions
95@@
bach
brad@@
ene
financial
machin@@
ther
ve,
alternative
bach@@
dani@@
directly
i.@@
season.
tudo
two-@@
yet
ões.
chr@@
senti@@
ush@@
arab@@
asia
jimmy
premier
torre
wis@@
considerada
life.
montan@@
responsible
us",
analy@@
cil@@
das.
kos@@
manager
ole@@
propriedade
provide
vale
ês
atur@@
cabo
califórnia,
oscar
"ch@@
album.
class@@
igu@@
rick
ã@@
2)*"@@
chen
este@@
gen
grammy
represented
squ@@
today
ago
comp@@
g-@@
management
neo@@
se"
trilha
victory
"ro@@
1997.
depen@@
distribuição
espanha
gravação
greg@@
powerful
ções,
ą@@
)#@@
1978
decision
required
s/@@
seguida,
)#"@@
amor
india
om
plas@@
quantidade
company,
hand
high-@@
lyn@@
pain@@
pay@@
season,
types
(and
42
6:@@
awar@@
duc@@
entrada
g.@@
idi@@
lands
moving
nesse
"dendrobium
deal
edge
ital@@
ma"
mostra
tivos
trein@@
ways
0*
becomes
deles
elle
introduction
iro,
lay@@
leave
londres
major@@
one.
search
su
alism
beck@@
memorial
1983
ari
australi@@
categoria
ched
cidade,
imag@@
maur@@
multi-@@
nor
tecnologia
color
conclu@@
highly
simplesmente
6).
atic
có@@
discover@@
haviam
hes@@
import@@
indústria
queria
roma
rá@@
south@@
vac@@
allow
inspired
ming
mundial,
positive
soul
writ@@
6*
9*
cali@@
ching
ente@@
house,
moon
pai,
round@@
"c@@
base@@
creation
idad@@
korean
par
pessoal
subject
!@@
"j@@
artist@@
cape
contudo,
cz@@
exig@@
gradu@@
lus@@
remix@@
simples
tropicais
1994.
amo@@
coun@@
cópias
ideia
italy
light@@
motion
nintendo
nove
página
tempor@@
75@@
agre@@
death@@
guilherme
mercado
proposed
studios
37
baseada
columbia
consiste
formation
goes
irish
ai,
brother@@
do-@@
famoso
helped
lewis
municipal
river@@
sa,
torneio
veio
"un@@
1/@@
ima@@
ism@@
itália
magnitude
pac@@
ski,
steven
"",
==demographics==as
colon@@
ons,
ryan
sac@@
ses@@
tro
á-lo
fiel@@
had@@
ij@@
inas
issue
ping
"russula
canada
inverno
scal@@
unidades
1973
1980,
enta
keep
lio
matic
pesso@@
raised
sos
t",
units
alice
as)
campos
imagem
post-@@
situada
2014.
buck@@
pseudo@@
retornou
smo@@
track@@
34
eir@@
ere
independente
mission@@
simple
teen
abo@@
aplic@@
cum@@
forç@@
hado
issued
patri@@
corpor@@
covered
efeito
resto
something
tournament
uefa
ufc
7,@@
ail@@
big@@
defin@@
giovanni
host
island,
jac@@
pie@@
tors
transfer@@
dog@@
her,
rich
yor@@
ae"
lip@@
minis@@
parents
(também
anterior
bry@@
castel@@
conquist@@
dean
defeat
dá
literatura
longa
magn@@
x"
1993,
ant.
ba,
dades
disco@@
ele,
hotel
lec@@
presence
principal,
progres@@
remaining
amig@@
cor
dom@@
funções
gra@@
método
universit@@
warner
aya
bandeira
cing
orbit@@
reference
s)*
sexu@@
st,
"z@@
els
flam@@
metropolitan
militares
notes
that,
thy@@
3)*"@@
47
artigo
congo,
deser@@
ight
mar.
ran
sci@@
ício
(17@@
(187@@
1990.
1995.
carta
dom
parlamento
presente
velho
with@@
="@@
ash
comandante
d",
paragu@@
philosoph@@
split
ex
largely
theor@@
adamente
arian
burg@@
codice_@@
cujo
figure
filme,
foundation
giving
gru@@
independence
iorque,
moths
particip@@
revolution
yan@@
(→
31,
apoi@@
dia.
founder
jum@@
rang@@
region@@
semanas
sion,
és
1979
aer@@
ante.
anteriormente
escrit@@
honor@@
suspen@@
call@@
dedicated
dum@@
ids
jacques
nia,
pós-@@
immediately
independência
oficiais
ously
past
possuem
refer
score
tai@@
(4@@
alização
favor
4)*"@@
fought
homenagem
method
quickly
"con@@
(0.@@
1%
159@@
ados@@
bang@@
carried
favor@@
redor
terror@@
ths
video@@
bert
cast@@
dev@@
ell,
miner@@
planeta
sé@@
una
в@@
(t@@
crí@@
harmon@@
houve
ically
ida@@
")*"@@
câmara
dic
election
electronic
eno
ks,
linhas
music,
od
-lhe
abe@@
alized
atura
contract
emi@@
gang@@
in:
increase
lives
otto
prêmios
publicou
rádio
sap@@
época,
abertura
bom@@
episódios
influenced
ships
advanced
basketball
epi@@
fren@@
física
her.
marinha
operating
recognized
stanley
wave
**"@@
adam@@
alex@@
ament@@
as*
earl
fund@@
infin@@
northwestern
services
à@@
allen
fundador
him,
hours
voc@@
wing
write
amp@@
enter@@
increased
justi@@
tol@@
anton@@
análise
cell
cenas
deep
infec@@
atividade
bispo
drag@@
icamente
imagens
marked
sey
tentou
tsu@@
tus
victoria
cultur@@
ito.
southwest
supporting
ters.
ail
amount
biography
captured
crianças
de"
ese,
formar
journal
tly
discovery
eleições
lincoln
lum@@
manu@@
metro
ohio,
oria
recor@@
wilson
к@@
"my
alist
classes
completamente
escrever
failed
intitulado
mann@@
"#"@@
1968
broad@@
descoberta
entos
oil
reinado
spr@@
(2
ana"
redu@@
terras
typically
amos
carbon@@
estréia
kong
listed
m)
re"
son's
training
"ma@@
(f@@
accepted
hart
march@@
romano
viagem
vot@@
weeks
1969
cida
element@@
encontrado
graphic
memory
ning
owned
prominent
thes@@
uti@@
07@@
applied
cycl@@
encontra
gill@@
hip
latter
letras
referência
space@@
subsequently
well.
william@@
án@@
íram
ate.
ex-futebolista
grant
liter@@
unit@@
(see
capitão
di,
distribution
ence@@
gat@@
howard
italy.
jon
mundo,
other@@
ret@@
tree
wall
choice
clark
correspon@@
distin@@
espacial
fernando
mars
univers@@
ciência
lyrics
sources
wild
aged
bom
confer@@
containing
expedi@@
gives
ição
ket@@
tower
ture
'.
(14@@
alguma
death,
etc.
evolution
fellow
guerra,
la"
ming@@
philosophy
quil@@
(186@@
corri@@
douglas
econom@@
fru@@
gained
metro@@
process@@
rico
"an@@
alemão.
bati@@
convers@@
interpret@@
inv@@
russo
áustria
166@@
alexand@@
anunciado
deix@@
din
frança.
gos@@
his@@
il.
kre@@
ome@@
patr@@
só@@
tamente
ı@@
anderson
care@@
deram
es),
guitarrista
imagin@@
piloto
suggested
villa
absor@@
ated.
club@@
direction
goal
plan
prague.
confirmed
folk
guest
isti@@
nation
ov,
people's
revol@@
te:
valu@@
way,
"le@@
0)*"@@
5:
author@@
cannot
ila
kov@@
operação
pens@@
consist@@
ct@@
figh@@
however
ides
tum@@
vez,
ć
(n.
41
abri@@
aid
bomb@@
compu@@
fame
fully
programas
spin@@
sup@@
temperature
director@@
flag@@
florida
och@@
ottoman
product
protest@@
resulting
sala
solu@@
ter"
yl
ère
ém
(13@@
alg@@
all-@@
ando-se
drum@@
mas,
orquestra
produc@@
sarah
1972
anime
complex@@
composição
condições
distância
ocorre
oh@@
produtos
shu@@
1975
bandas
eh@@
gig@@
heart@@
medida
men,
soviética
32@@
acesso
ades
dd@@
famili@@
generation
germany,
homo@@
iniciou
spor@@
1977
communist
death.
pier@@
route
(which
75
chosen
commander
produzir
single,
some@@
spring
trig@@
ve"
æ@@
/0@@
1"
39
ement@@
gary
im,
ios
06@@
98@@
aug@@
australia
das@@
decis@@
equip@@
ers@@
resposta
rural
2010@@
44
agon@@
antigos
es-@@
gur@@
isto@@
liberal
lot@@
paper
ques@@
state.
xx@@
bi
construc@@
dou
entes.
navio
são,
things
1989,
7).
cari@@
hell@@
laur@@
particularmente
poucos
sad@@
usou
yn
08@@
advis@@
agreed
armed
ches@@
dry
estrang@@
modelos
sets
aliment@@
carol@@
gaz@@
natureza
note
refers
1967
3)*@@
abil@@
jor@@
palavras
seven@@
sher@@
"me@@
2008@@
bell
carreg@@
graphy@@
jes@@
kill@@
melhor@@
paris.
york@@
adores,
ath
comercial
cut
entes,
guitarist
o",
onia
river.
1974
1991.
ajudar
argentina
autor@@
casou
dade,
difer@@
exer@@
iam
isabel
lut@@
meeting
mm
tio
(nascido
ania
ay,
dream
gene
internal
ix
king,
matthew
mut@@
oz@@
themselves
this,
ur,
administração
diver@@
expan@@
interface
ning@@
administration
argentina,
colonial
começo
crítica
eduardo
introdu@@
mente,
mudanças
policy
"cr@@
actual
alas@@
compared
diferente
distance
ium
sai@@
slo@@
tail@@
4:
account
artes
coreia
desen@@
esi@@
follow@@
got@@
sol
urban@@
2)*@@
amento,
asian
aérea
hip@@
http://www.@@
ls
nós
petro@@
relations
resol@@
well,
"lo@@
156@@
area.
comand@@
dale
debuted
inger
motiv@@
picture
pus
reli@@
taxa
ã,
camp@@
era,
existência
here
nie
object
partida
post
succeeded
world's
buried
confron@@
crescimento
cuja
grew
hear@@
janeiro,
narr@@
pedi@@
performances
sport@@
variedade
[http://www.@@
any@@
atuou
culos
ence.
fundamental
gate
poin@@
suffered
vez@@
ř@@
"epidendrum
79@@
allows
beyond
cold
dentes
esteve
fo
frog
garden
princi@@
rag@@
sis
temperatura
wn@@
world@@
1992.
break
especific@@
europe,
missouri,
review
1)*@@
1988,
1993.
arab
falta
ober@@
parliament
powers
prece@@
stop
ws
apresentou
fall@@
grafia
max@@
regi@@
relatively
report
smith,
therefore
vão
46
==="@@
acab@@
dida
gers
km@@
médio
shak@@
shire
spain
us".
vag@@
2005@@
esqu@@
expedição
fred
ganhar
literary
music.
num@@
branch
construída
diz@@
es).
escap@@
jornal
ku
on's
rig@@
8)*"@@
acy
ational
crew
fell
ges@@
molecular
nab@@
ost@@
pequenas
piece
ponte
49
ad.
informações
len
mati@@
políticas
secretary
ón@@
10.
ating@@
bill@@
entrevista
estrel@@
life,
logi@@
lá
semelhante
span@@
tor.
tried
bic@@
differ@@
frag@@
marc@@
offered
vladimir
%,
aceae"*::::
amento.
ary,
fech@@
friend@@
mon
neuro@@
quinto
recep@@
ía
09@@
analysis
ance,
assinou
gé@@
ius
operações
tac@@
*"scopula
55
a"@@
ade,
also==*@@
anos@@
atenção
ending
ga,
polic@@
realmente
regime
university,
den,
je
order@@
roll@@
sonora
sony
ções.
("the
alongside
country.
deixar
e),
ero
group,
legi@@
proces@@
tivas
м@@
1970,
::formula_@@
::jel:
custo@@
destroyed
episodes
feitas
ivan
nia.
obteve
situação
abandon@@
clear
compan@@
devem
dios
luci@@
norte.
organis@@
response
alcançou
anis@@
anu@@
charlie
deleg@@
pe.
sound@@
toronto
view@@
ataques
aul@@
benjamin
conference
empresas
ones
posições
proper@@
õ@@
ū@@
52
96@@
alberto
banco
boys
cabeça
critics
formato
men's
ono@@
s====@@
sion.
sixth
ído
(185@@
(c.
157@@
ance@@
below
conhecimento
constellation
formerly
get@@
ily
localiz@@
maz@@
méxico
nelson
planned
portanto,
scottish
slav@@
teri@@
yar@@
ο@@
::
acion@@
ambas
bah@@
ense
eua
lack
mento
roy
sson
2009@@
__
agr@@
donald
factor@@
id,
organized
sem@@
acted
adores.
comércio
four@@
ko,
marcou
orchestr@@
unido@@
championship.
church@@
condi@@
ima
pictures
soli@@
spain.
ver.
wayne
ês.
ólogo
ür@@
agreement
chem@@
completely
iden@@
orden@@
quer
satellite
"all
5)*"@@
alemã
amigos
bre
ello
join
li,
man's
mem@@
navios
nem@@
student
suficiente
tells
ática
ð@@
an*
anfíbio
basis
brasil,
daily
hidro@@
origin
pig@@
translated
1964
afirma
bring
burn@@
composi@@
constelação
dinheiro
eve
kill
né@@
relation@@
ut
closed
diego
ní@@
objetos
youth
ales
eur@@
hitler
implement@@
junior
median
mist@@
month
mí@@
necess@@
pare@@
ra,
ultimate
==history==@@
alist@@
frank@@
ia"
letra
review@@
transport@@
alizado
andre@@
biblioteca
cas
invent@@
jane
length
rho@@
scre@@
secund@@
andré
championship@@
denomin@@
ons.
potential
tennis
torn@@
va@@
certific@@
disponível
experience
fiction
japan.
nun@@
standar@@
stra@@
studi@@
ular@@
ów
у@@
1971
bond
christmas
corrida
derrota
districts
ele.
mau@@
memor@@
ores,
repor@@
templo
white@@
"on
(v@@
a)*@@
está@@
exce@@
kaw@@
label
navy
passa
que.
renamed
tenta
vocalista
york.
.com@@
authority
believe
democr@@
one-@@
quarta
respec@@
stories
(from
169@@
beach
cancel@@
carro
crime
dres@@
futuro
legisl@@
m-@@
país,
propriedades
reign
son*
sudeste
trono
52@@
atrás
bed
girls
invasion
joint
mão
oceano
proto@@
relativamente
sir@@
10-@@
3rd
aired
arrived
bibliografia
rec@@
sive
ê
43
amente.
cai@@
ire@@
paulo,
ped@@
rí@@
technical
tratamento
tura
yak@@
"-@@
bordered
constituição
definição
difficult
diretamente
faz@@
journal@@
kai@@
mestre
próxima
really
river,
zo
ático
ênci@@
21@@
alexandre
cep@@
engineering
extreme
growth
mer,
orchestra
sense
tada
temper@@
ary.
comédia
explic@@
film.
juda@@
kelly
road@@
situated
th"
tos@@
л@@
aleg@@
aly@@
ar-se
doença
externas==
fy
isa
selec@@
weigh@@
atividades
classic
ft
meteor@@
ological
panchayat
performing
renov@@
ris
totalmente
vent@@
б@@
65
ard,
attention
banda,
chance
desempenho
eva
ino.
jav@@
participated
pediu
sport
tró@@
ácido
167@@
77@@
animais
busca
chas@@
concep@@
crit@@
examples
put@@
ásia
)",
brasil.
desenvolvi@@
district,
expected
iso@@
obr@@
viu
america,
ashi@@
books,
fizeram
fundação
informação
knowledge
marido
roma,
students
three-@@
(12@@
archi@@
atten@@
casos
declarou
ida,
inglaterra,
jay
oto@@
screen
states@@
vision
a/@@
adapt@@
ascen@@
france@@
line@@
mann,
matemática
recorde
recursos
roteiro
saur@@
screen@@
ture@@
wife,
bio
gabriel
imediatamente
líderes
memória
substituído
)_
acid
aconte@@
bateria
conflito
do-se
ena,
grego
histórias
leo
naquele
primeiro-ministro
pter@@
spi@@
thy
tina
transi@@
abu
care
forest
historic
ilo
invasão
pet@@
tomou
yp@@
ame@@
bai@@
cial
conec@@
expedition
iii,
japan,
letters
ligh@@
lot
managed
moscow
officer
operations
thir@@
"mar@@
42@@
cent
extr@@
filho,
histórico
iri@@
leva
showed
caç@@
cler@@
crow@@
desej@@
doctor
edifício
ens@@
evi@@
filosofia
impact
juni@@
morto
outr@@
pair
politician
refle@@
attacked
conflict
prix
satur@@
soldiers
visi@@
(l@@
8,@@
ari,
burgo
esco@@
estadunidense.
francês.
game,
gravou
invés
possivelmente
05@@
atus
cover@@
doll@@
dram@@
illi@@
imp@@
kap@@
permiti@@
y*@@
championships
derived
discus@@
estabele@@
ew@@
guer@@
indu@@
japão,
migr@@
mês
nad
script
1984,
1989.
aqueles
boo@@
camp
evitar
norwegian
o".
palest@@
state,
ura,
zero
ap
consegu@@
federation
freedom
games,
graphy
identific@@
importância
literature
s===*
segun@@
semin@@
são@@
xbox
2000@@
al:
ane@@
blues
build
eleição
espanhol
hão
shire,
team.
valent@@
ě@@
agem.
construir
defense
dele
estrelado
execut@@
ide
mentioned
nap@@
química
sites
ên@@
1980.
ack
beat
claim
coleção
exchange
flow@@
iter@@
jet@@
raf@@
rul@@
sign
"par@@
academ@@
billboard
brazil,
confeder@@
congress
frequently
jonathan
quen@@
reach
televis@@
tokyo
tributary
unido,
​​@@
"car@@
150
assembly
dade.
estad@@
ez
fer
franz
it"
later@@
med
sexo
ving@@
(6@@
ampli@@
ately
ato,
britain
coro@@
culo
div@@
externas==*@@
mental
scored
ya@@
anima@@
appe@@
chal@@
esten@@
experiência
guitar,
imit@@
physics
societ@@
terra.
"el
ance.
continue
della
eni@@
est.
hap@@
istic
méxico.
p"
radio@@
santos
temas
tê@@
wn
y==@@
application
ay.
graph@@
grau
house@@
marco
primi@@
vaz@@
and.
background
chel@@
concerto
couple
cros@@
inicial
nazi
sio
vel
worth
"one
155@@
broke
figur@@
governor@@
iowa,
libert@@
obrig@@
recus@@
retorno
vie@@
zan@@
anunci@@
dynam@@
escu@@
finais
lie@@
minutos
preten@@
wright
acor@@
evangel@@
gás
marsh@@
península
scenes
subtropicais
tempo.
valores
"no
15-@@
1986,
cron@@
equal
extin@@
grad@@
harvard
ine.
ket
manag@@
nba
obter
ou.
passar
perig@@
prova
siv@@
belt
excep@@
frac@@
google
gue@@
launch
period,
vig@@
wak@@
ânia.
→
católica
charge
ciências
fav@@
qualific@@
subsequent
ß@@
(184@@
150@@
assumiu
bass@@
chegar
college,
eigh@@
games.
kom@@
metho@@
nik@@
steph@@
vezes,
wei@@
atóri@@
entrar
henri@@
mik@@
starred
viv@@
(un@@
.000
aca
aceit@@
confi@@
curr@@
ignor@@
japão.
ner.
question@@
rios
trabal@@
ust
ví@@
ídos
%.
alban@@
alliance
ario
covers
dedic@@
divi@@
electro@@
formou
jim@@
mouth
objeto
occurred
tradição
arque@@
austin
bands
broadcast
comic
disput@@
encontrados
hart@@
lá@@
movimentos
nessa
publicada
regarded
arena
autoridade
az
beat@@
bras@@
confes@@
continua
deb@@
endo@@
examin@@
link
planos
pur
sor
string
tail
tradu@@
wag@@
wing@@
"x@@
>@@
anta
commun@@
connected
contin@@
flying
kept
ngc
poder@@
(183@@
__@@
bel
distr@@
imperi@@
materi@@
polon@@
reform@@
seguido
staff
tornando-se
winner
ética
a.,
bury
críticos
die@@
diminu@@
disc
europe.
grave
group.
n"
peças
provides
queda
ró@@
visited
z-@@
"um
165@@
1985,
argentina.
copi@@
cot@@
cup@@
ingu@@
needed
oliver
practice
produzida
tech@@
u"
verde
who@@
dizendo
elo@@
giant
heal@@
ir.
pico
veget@@
acquired
dates
kus@@
marshall
mostr@@
perman@@
questão
read
remo@@
vida.
vide@@
ang,
attempted
austrália
composer
enviou
europa,
history,
humanos
i)
italy,
japan@@
lay
logic
miz@@
own@@
perce@@
region.
rober@@
treatment
ture,
(5@@
1)*"@@
assin@@
decre@@
earned
marri@@
perhaps
trus@@
vice
writers
%@@
aero@@
communic@@
credit@@
curso
edited
exemplos
kok@@
lawrence
parish
pequenos
ph
produto
sas@@
seventh
shi
turing
vido
frederico
func@@
ges
gravado
guide
ile@@
iv,
objects
ocean
opposition
quantum
rie
selling
trap@@
une
vas
work,
altura
atri@@
constitution
drums
ensino
financi@@
ised
mother,
myr@@
protec@@
sep@@
south-east
г@@
"**"@@
.com
aspis"*"@@
brand
clu@@
difícil
eria
minnesota,
minutes
portion
relacion@@
sentido
times@@
ting@@
"==
attempts
bra@@
buil@@
críticas
escolas
lind@@
line,
macro@@
mexic@@
ps,
rev@@
ross
tomar
via,
weapons
as-@@
beg@@
berry
crat@@
deveria
gravadora
irá
isl@@
name.
ne-@@
refused
sey@@
tell@@
univer@@
feitos
kri@@
looking
overall
registr@@
repeti@@
rer
russell
stal@@
treinador
"y@@
augus@@
catherine
holds
mico
mit
peru,
peru@@
predic@@
sli@@
tentar
tradicional
allowing
aria,
deriv@@
ise@@
níveis
rail@@
sain@@
"to@@
afluente
agem,
architecture
arre@@
corporation
corrup@@
escala
georgi@@
ic.
nearby
obtained
principal.
runs
turkish
tz
")*@@
accep@@
ashi
clin@@
endo
if@@
instal@@
ism,
mary@@
mod@@
méxico,
oposição
pia
publishing
ze,
á.
−@@
_align=center_@@
complexo
dge
ently
game.
happy
lav
ll
medal@@
organizações
oro@@
popular@@
remain
staf@@
time"
ty.
usu@@
(co@@
comitê
confir@@
franc@@
gau@@
ido@@
king.
portugues@@
profile
resist@@
seguir
sky,
п@@
captur@@
cola
cá@@
edition@@
expul@@
final,
fish@@
government.
history.
india.
occupied
prim@@
sales
tradi@@
transporte
travel
turn@@
técnica
utilizada
vinte
"**
*the
after@@
clear@@
combined
cooper@@
destes
game@@
mobile
oldest
presidential
prática
resulted
saúde
school.
sia,
town,
vers
west,
)====@@
cho
creating
eddie
existence
fan
filme.
freder@@
ministry
ologi@@
rebel@@
referen@@
riv@@
roberto
senior
smith@@
tecl@@
trad@@
158@@
absolu@@
agente
arquitetura
ber.
definition
england,
exceto
guil@@
london.
nicholas
peso
places
secon@@
sle@@
xvi@@
7)*@@
bobby
congresso
dus@@
e;
event@@
fos@@
guerr@@
manipul@@
regions
visu@@
zh@@
avel@@
begins
constructed
federação
isi@@
minu@@
serving
terry
ério
1960,
dae@@
ensis@@
espor@@
focus
gordon
judg@@
kra@@
maximum
moderna
muni@@
nau@@
símbolo
tico@@
volum@@
wen@@
álbum.
alia
aman@@
animated
ated,
casal
conquistou
elli
mathematics
meu
returning
saf@@
steel
sur
800
al*
assistant
aux
ceram
content
controlled
dores
dv@@
ensis
envi@@
extre@@
growing
internation@@
investi@@
ita,
ligação
máquina
pole
proved
surrounding
tempestade
ust@@
1966
ella"*"@@
honor
identified
peça
reci@@
scor@@
ugh@@
verdade
vocais
voic@@
‘@@
"li@@
7)*"@@
champions
ement
functions
geno@@
impression@@
kov
onto
plus
suf@@
tela
terem
band,
biblio@@
compartil@@
consisting
cy,
fantas@@
gun
linux
montanhas
polícia
programming
romania.
seman@@
tain@@
times"
towns
vermel@@
ídas
beautiful
beng@@
centur@@
comuns
gelo
husband
jovens
liberdade
magic
property
saying
sciences
southwestern
"tr@@
3:
angle
bo,
espal@@
football@@
grafo
horizon@@
kes@@
milan
norman
qual@@
show,
sudoeste
tempos
tioned
titles
ua.
volumes
economy
igual
le's
now@@
see@@
to"
torna
veis
walt
za@@
"do@@
"love
1987,
atlan@@
boar@@
broken
catedral
caval@@
combate
compr@@
conservation
cresceu
develop
justin
mario
ordin@@
oso@@
polar
spoken
verdad@@
"les
(isbn
4)*@@
bateri@@
brit@@
by,
danish
extensive
heim
magne@@
prisão
robin
scen@@
suécia
tau@@
teach@@
tons
1920
1950
1988.
abr@@
andrea
aument@@
chicago,
itz@@
leo@@
lin,
lisa
ores.
pintor
produziu
receber
roles
think
"die
ation:
brother,
church,
day"
e).
gen.
glaci@@
gros@@
ics,
legen@@
maxim@@
reac@@
recur@@
swiss
try@@
8)*@@
ar-@@
brazil@@
faced
gráfico
inhabitants
kins
on*
plans
quí@@
represents
spec@@
spread
te*
índia
(now
6)*"@@
barre@@
cases
dendo
drive
exil@@
frances@@
lei@@
name,
nordeste
paral@@
povo@@
recently
rh@@
s:@@
segur@@
then@@
thin@@
"l'@@
==*"@@
ami@@
ando@@
awards@@
k's
nada
norman@@
philip@@
proclam@@
reaction
removed
tha
topo
wes@@
(1.@@
0.000
4th
9,@@
agent
atory
auto-@@
conferência
ded.
duo
dupla
issu@@
ker,
tern@@
р@@
120@@
==ver
counties
descreveu
emp@@
entitled
jogou
lan
maría
morte.
ship.
íci@@
allied
census.
claims
ofici@@
path@@
physic@@
pping
solo@@
temporada,
thing@@
toward
ônica
"as
(for
1961
978-@@
california.
continental
figura
ille
mountain@@
park,
pública
territórios
branco
cheon
er)
gem@@
insul@@
itar
localidades
meados
pertence
relative
situado
tic,
user
11.@@
3"
able,
academic
ajudou
assum@@
bá@@
camer@@
digit@@
file
françois
hamp@@
jennifer
peixe
six@@
te)
*'
====external
aque@@
ariam
ata.
ator,
compe@@
contain
ee
escolha
fusão
guardi@@
manteve
nasa
place@@
talvez
thing
ved.
vencedor
ani,
awards,
chave
chec@@
eiros
europeu
franklin
ish,
poe@@
pop@@
proble@@
symphony
unique
viveu
ças
aberto
antár@@
cand@@
ern@@
escape
free@@
heim@@
inc.
offic@@
ont@@
ópera
bam@@
conjun@@
danny
ei
gs
london@@
ludwig
mento.
mó@@
osos
others.
promoted
rati@@
är@@
"mo@@
"n"
==as
aconteceu
alemanha.
americanos
charlotte
cost
depres@@
ende@@
famil@@
fe,
margaret
mean@@
ocup@@
op.
paradas
porta
possu@@
quir@@
rado
schools
tidos
2011@@
ays
brook@@
coc@@
constant
defender
dio.
ere@@
ferr@@
gregory
historiador
inglaterra.
lombar@@
miller
ng@@
roch@@
singing
séculos
unido.
1979,
2*@@
5%
achieved
conduc@@
counter@@
dae,
dead@@
erup@@
guerra.
lidae.
nikol@@
nur@@
pass
português
ra.
ranked
stay
tommy
trabalhando
ved
vida,
wars
1º
9)*"@@
casou-se
conden@@
células
ney,
omy@@
paci@@
portugal@@
secondary
times,
tribute
won@@
(7@@
1948
1962
anteriores
contained
credited
deixando
democrática
drummer
farm@@
ficação
gado
ge,
hero
hos,
life"
mata
mother@@
orthodox
portugal,
save
séri@@
unable
ã.
"bo@@
1983,
84@@
attack@@
common@@
complic@@
decide
empire.
ery
ira.
ric
rose@@
ا@@
†
300@@
ambiente
atomic
berg.
brief
cart@@
disputa
envol@@
estabeleceu
fabaceae.
físico
garden@@
mani@@
médico
paris@@
planej@@
resul@@
rules
shir@@
sweden
virtual
vizinhas
winter@@
…
<@@
==;@@
gag@@
gia
lógica
pus@@
sedi@@
sofreu
sta
tad@@
transport
well-@@
yon@@
bizantino
desenvolveu
forne@@
ged
ian@@
ideal
o),
pc
shap@@
sobrevi@@
tell
unlike
==source==*
champion@@
company.
determined
ensin@@
hiro@@
iment@@
ks.
mond
mudou-se
métodos
núcleo
part@@
poderiam
poor
russia,
twelve
visit
world"
contendo
defe@@
final.
flan@@
norm@@
puerto
rival
rivers
slightly
be.
bud@@
comissão
companies
computador
dge@@
ents.
enviado
father@@
filmed
granted
kul@@
mont
phil
reserv@@
secretário
share
styles
urugu@@
via.
yellow
ânia,
ét@@
"single"
ban
corn@@
fictional
fogo
fundo
geração
ilustr@@
incorporated
ized
moist
músico
orders
per,
perform
províncias
record@@
shared
ticos,
velo@@
====*
cc@@
chamados
distingu@@
ela,
fazem
fields
iner@@
itália,
levels
nicol@@
quite
realizou
religião
sk,
ável.
africa,
clã
descreve
earth@@
guarda
heard
opposed
oth@@
p)
province,
razão
respeito
sens@@
t".
"te@@
"you
applic@@
austr@@
crimin@@
elabor@@
ends
engenheiro
esposa,
images
king's
leis
negoci@@
projetos
revolutionary
rome,
vall@@
villages
way.
y;
(w@@
1945,
ade.
card
coloc@@
comprimento
famílias
goth@@
has,
jaco@@
ley.
lock
models
orbit
procur@@
provinces
rei@@
tenham
vii
approach
contest
cores
drawn
earliest
estruturas
falls
fly
influen@@
leaders
maj@@
newly
pam@@
plot
suporte
vendeu
1965
america.
bility
capture
contex@@
contro@@
franche-comté
grá@@
negative
nil@@
notas
oriz@@
outros.
poeta
price
ry,
te",
tribunal
ι@@
"be@@
adult
cathedral
country,
debate
deu@@
franche-comté,
imper@@
joga
lux@@
on)
religion
ren
teenth
*"ixodes
acti@@
actu@@
af
cess@@
cm
contrário
destru@@
ev
jerry
lil@@
magnetic
omi@@
represent
rob
specialist
trying
wind
1000
actress.
adel@@
afr@@
d*@@
ded,
diseas@@
distritos
encontrou
expansão
guard
gus
guy
hundred
itar@@
meridi@@
methods
morgan
morph@@
noroeste
player.
prata
premiered
protagon@@
reduced
roc@@
ruled
sel
them,
tir@@
tna
village.
zone
ín
ε@@
"pro@@
1963
adequ@@
arctiidae.
baterista
conteúdo
dubl@@
ella@@
escolhido
fine
historian
indiana
leng@@
metres
mix)
products
seems
sequence
sof@@
vio
ć@@
ations@@
aus
bc
chess
database
ec
entry
forming
inspir@@
meet
menores
percent
permanente
reports
sculp@@
serra
stock
teste
translation
visible
weak@@
ês,
)"*
1987.
1_
86
atro@@
bernard
dated
elli@@
fantasy
finance@@
guerras
henri
hop@@
implic@@
pear@@
sang@@
spel@@
spirit
ten,
"american
ará
ature
canadá
dj
er*@@
ficaram
foli@@
invad@@
kab@@
matter
nascimento
onda
producer@@
scale
scot@@
singles@@
tav@@
transferred
work.
1930
attacks
brain
dc
dictionary
dó@@
ficção
fleet
hands
hein@@
id.
inferior
mic
morning
observed
reason
sean
use@@
vietnam@@
(10@@
5)*@@
addition,
atingiu
coisas
domestic
estrada
estudar
field.
ha-@@
half-@@
leit@@
mey@@
reviews
ther,
voltar
yoshi@@
avali@@
ber,
burg.
ema
extremamente
fabric@@
fundou
jin@@
leu@@
michel
montreal
o's
sá@@
tries
us")
"we
)".
149@@
==history==the
a===@@
divin@@
efforts
ers"
fans
gets
heinrich
illustr@@
marx@@
republican
ricardo
says
tú@@
ável,
ée
’
"se@@
art,
baby
canton
descrito
desses
eye
i'm
osi@@
phone
prati@@
socialist
toc@@
tradução
órbita
***@@
1956
ads
burgo,
crus@@
dynasty
expanded
ingles@@
ke.
mar,
pride
realizados
song,
symbol
vé@@
wood,
ária.
(e
1981)
54
==os
adop@@
agricul@@
arm
bli@@
científica
exclu@@
fried@@
gol
gravações
gues
gö@@
hn@@
hugo
los@@
mountains
switzerland.
ti.
trou@@
trás
adap@@
apple
area,
center@@
chron@@
czy@@
dividido
divis@@
element
hits
honour@@
jak@@
militar@@
obje@@
ok
preserv@@
repe@@
se-@@
swor@@
til
vive
"live
2%
brigh@@
chapter
conducted
convi@@
display
figu@@
hoff@@
inner
island.
killing
l-@@
scopula
th-century
ven
ório
66
ah,
anni@@
asu@@
barry
burn
germ@@
laws
marc
mencion@@
neutr@@
papéis
pou@@
sett@@
aves
bal
buildings
collabor@@
dennis
dão
eleg@@
feel
feminino
ge"
israel@@
londres.
mean
oxid@@
provoc@@
sejam
stori@@
accoun@@
aliança
alista
arag@@
economic@@
england.
fãs
hang@@
haz@@
ica"
k.@@
losing
prevent
rica
ν@@
"star
"uma
1914@@
1945
acess@@
actions
argentine
dy,
escritos
harold
históri@@
hockey
impacto
initi@@
lef@@
manchester
pep@@
righ@@
successfully
th-@@
tiz@@
universo
usadas
wav@@
ably
coment@@
designated
equipes
geral,
moral
nal@@
ology,
temp@@
ames
banks
bombarde@@
cantão
coach
conhecidas
dov@@
father's
fing@@
jogar
kurt
map
nothing
osas
persegu@@
proje@@
rada
raio
refu@@
standing
theater
tocar
2013@@
600
al",
circul@@
det@@
enter
influential
ism.
kes
luer
lugar@@
mento,
rosa
russa
subjec@@
umi
up,
veja
virginia
~@@
1920@@
anual
ata,
aço
bisho@@
clus@@
desenho
dge,
externas==*
formally
forward
interess@@
kö@@
mascul@@
mãos
o).
rare
republic,
tot@@
tras@@
accompanied
an)
korea
laun@@
localiza-se
michel@@
north-central
oklahoma,
phase
pros@@
recepção
retrat@@
sell@@
streng@@
surve@@
thom@@
_align=center_
aparição
ciclo
closely
cook@@
draw@@
elemento
engenharia
fes@@
heavily
invited
m"
meg@@
reading
rey@@
scr@@
taught
terra,
that@@
vendas
wa,
adquiri@@
cs
elo
itz
permitiu
seriam
ship,
sn@@
spac@@
suíça,
texas.
thr@@
ticos.
vendido
áli@@
artístico
colum@@
destac@@
distributed
embar@@
empire,
ground@@
gê@@
hut@@
ill,
lead@@
lider@@
mali@@
mate@@
mers
nik
organic
sonic
territorial
ume
y),
ós
1940
56
bits
capital,
carey
cha@@
corrente
dito
don,
empres@@
er",
melo@@
mexico,
oak@@
série,
um"*
12-@@
3d
ab
adot@@
adr@@
archae@@
circle
conquista
coordin@@
d".
depic@@
dragon
expressed
invas@@
louise
matches
mind
norte-americano.
pay
perfect
quad@@
reflec@@
rolling
silva
ária,
2003@@
alemães
argument@@
ch"
coinci@@
commission
conditions
conjuntos
do"
doze
escre@@
espírito
esquerda
inglesa
iro.
lucas
missões
ovich
quality
tando
walk
apol@@
brin@@
dela
describes
drew
ela.
fortun@@
hook@@
jaz@@
later.
live@@
mail
occurs
sequen@@
ticamente
tour,
troca
(3
1970.
bryan
combination
começ@@
delta
depending
description
developing
eds
factory
hall,
houses
iorque
kow@@
lic
logical
peak
plantas
poderes
quebr@@
regras
roll
rússia,
supreme
theat@@
traça
wind@@
1918@@
1972,
aria"
bia
flav@@
gabri@@
india,
jogo,
km/@@
matemático
morte,
pedido
seas@@
ul
uns
vendo
veram
1986.
australia.
baía
chamou
classified
espaç@@
expansion
ils
ja,
kho@@
levar
ri,
spir@@
ticas,
train
vest@@
ça,
ρ@@
τ@@
(por
1975,
adaptação
australia,
central,
completa
exam@@
fitz@@
kan
mistura
pilot
posteriormente,
realizar
reis
resistência
serious
stur@@
testemun@@
thal@@
ticas.
(de
15.
adaptation
aging
azul
band.
comunic@@
convention
dark@@
devo@@
europa.
face@@
grap@@
in"
japonês
parallel
rapper
rússia.
sten@@
teu
ton's
top@@
vali@@
än@@
1957
==references==*@@
ameaç@@
appear@@
asa
carbon
destaque
discu@@
ethnic
fortes
government@@
hills
iss@@
k*
larry
leonard
occur
pergun@@
po,
recuper@@
ster,
1999@@
canada.
centro,
christ
claude
collected
compilation
corps
exposição
flow
foot
galaxy
hide@@
murray
musicais
ova
processos
r&b
reconhecimento
schltr.
soundtrack
syl@@
tan
theory,
veri@@
1958
===on
==geography==@@
adams
alizada
assigned
comunicação
demo
dow@@
edu@@
experimental
gravada
ice.
kay@@
nagar
permanent
plane
poucas
rey
sides
íveis
î@@
6)*@@
ame
angular
barbara
chlor@@
goals
ior@@
josh
mexico.
nossa
proce@@
quanti@@
sítio
trio
universe
viver
ãs
ônia
berlin@@
chronic@@
comportamento
connec@@
desenvolver
draw
norte-americana
or"
provas
red,
soph@@
stock@@
ul,
vermelho
wiel@@
worldwide
ários,
activity
adolf
aliados
arnold
blood@@
cells
contact
cuba
ento,
existing
famosa
frota
heav@@
islamic
justice
mudar
selecion@@
slam@@
sought
var.
vin
yo
"black
(asteróide
164@@
ba.
californi@@
cer,
certo
colog@@
composition
daw@@
hungarian
influenci@@
ingen
moz@@
purpose
ska
station@@
take@@
young@@
μ@@
”.
13-@@
1936
ara,
arquite@@
canadense
cano@@
cem
chairman
dus
experien@@
extensão
foot@@
francesco
hara
ie@@
inglês,
issues
paid
producing
receive
season@@
sierra
then,
university.
argent@@
borgonha,
caracteriz@@
contributions
designer
discografia
disper@@
dna
empreg@@
engine@@
enorme
ford.
i",
ina@@
intenção
layer
perry
políticos
questões
rid@@
s.,
transfer
unknown
====references====external
ary@@
autores
brown,
cado
carlo
charts
completo
cular
descobriu
eses
ess,
extremely
forma,
holding
moore
neil
senhor
simpli@@
solução
sydney
z*
7:@@
aper@@
austrí@@
ch-@@
clas@@
colabor@@
consoli@@
contrat@@
enredo
gols
gos
hosted
ideas
meant
mia
ms@@
muslim
pieces
polit@@
tian
typical
volt@@
(who
1919
1976,
brig@@
capa
fast
follow
hul@@
inci@@
jardim
jordan
nen@@
populares
poss@@
sour@@
tes,
treat@@
v.@@
(i@@
12.@@
8:
africa.
breaking
cher,
comment@@
corpos
establishment
founding
hyper@@
pec@@
ry.
sexto
throne
tradicion@@
"ti@@
1981,
amplamente
austria.
casas
catal@@
dividida
dropped
equivalent
ernst
esforços
finds
francis@@
headed
headquarters
ished
le*
lif@@
massive
már@@
necessary
pressu@@
print
reação
ril@@
roughly
strong@@
techni@@
vocals,
vos@@
warren
1982,
aim@@
astronau@@
chines@@
cultiv@@
doub@@
estado.
japonesa
kingdom,
nhl
nou@@
od,
sri
él@@
1939
==biography==@@
ally.
aph@@
brag@@
doing
encyclopedia
fai@@
figures
graduated
hope
ice@@
leav@@
mel
ocidental.
prome@@
respectively.
scholars
técnicas
0-8@@
114@@
admir@@
aires
asse@@
birds
co"
follows
georg
islâ@@
keith
match,
passado
pré@@
reich@@
tanz@@
trop@@
67
95
anex@@
bos
c),
canadá,
chip@@
colombi@@
coroa
ense@@
go"
golpe
ison
iva
judeus
mei@@
nh@@
prout,
próprios
reuni@@
settlement
situation
ult
(no
amy
ando,
apparent
army,
chegada
consisted
ecu@@
especiais
extra
gil
khan
market@@
rak@@
truth
wai@@
(2002)*
3%
64@@
animals
attrac@@
austrália.
caram
coach@@
commonwealth
conheceu
derrotado
introdução
ity"
liderança
ofere@@
ramo
recebido
single@@
store
tura,
vienna
wick@@
†@@
"hal@@
1912
actors
announ@@
bases
bles
bulgarian
cow@@
ella"
ements
hardware
jacob
marí@@
math@@
operated
os-@@
ot,
pesquisas
rela@@
result@@
revolta
seja,
tornaram
traz@@
ya,
”,
51
53
al".
apresentado
bé@@
carri@@
causes
chief@@
cia,
comunista
elevation
ency
europeia
gó@@
horror
iano
indicado
instrumental
istic@@
logia
men.
ministério
moto@@
nwa
orange
os:
outer
pati@@
positions
question
railway
reaching
tered
ultimately
vidas
1974,
ain,
assuntos
cone
faculdade
fres@@
lock@@
long-@@
ms,
orig@@
pers
rem
retur@@
specific@@
tes.
usi@@
wrestlemania
wrestling@@
árabe
1967,
1979.
assembl@@
conten@@
contributed
craf@@
detal@@
ernest
ford@@
function@@
government,
islam@@
line.
participar
pren@@
presid@@
qualidade
revolu@@
rhythm
u.@@
x*
"mon@@
aine
album's
anton
as".
audio
biggest
campe@@
clubes
culmin@@
endor@@
graham
inglês.
leaves
pradesh.
there@@
unidas
"an
(2004)
1952
1985.
250
anda
combat
combinação
cân@@
dag@@
dissol@@
distinguished
dour@@
effective
etta
festiv@@
isaac
linda
lloyd
nação
nec@@
proposta
randy
sa"
sie
solid
stand
sus
turk@@
zealand
áustria.
(do
(including
9)*@@
9:
aria.
bent@@
challenge
efe@@
fossem
ichi
jour@@
laz@@
manch@@
nio
provi@@
step
tennessee
1978,
1990@@
a**
activities
applications
begin@@
bonus
championship,
declaração
domain
durou
emis@@
expressão
hack@@
m.,
madrid
mix
mundi@@
north-western
olímpico
party,
releas@@
rell
soldi@@
stein,
ta-@@
tang@@
testes
values
wan
website*
ânico
1946
500@@
am-@@
artigos
book,
crystal
desempen@@
doc@@
enten@@
eslov@@
ichi@@
imento
internacion@@
particular,
russia.
tics.
ços
ória
1959
breve
bruno
capazes
chegaram
cy.
dir@@
disease
fras@@
kennedy
kie
match.
merc@@
notably
period.
quis@@
rain
saiu
side,
speaking
utilizando
voo
whe@@
の@@
1950,
1982)
88
antigas
arquivos
clau@@
congres@@
constant@@
espanhol@@
fighter
hig@@
lt@@
notável
ony@@
physi@@
remix)
settled
sinal
veter@@
vincent
êni@@
(2005)
-based
1942
aboli@@
acu@@
angeles.
arrang@@
broadway
cidos
constante
equival@@
fif@@
gos,
gravar
ira@@
ler.
músicos
negro@@
salt
solution
tamil
utilizados
(3.@@
aki@@
assembleia
bat
daughter,
dick
easily
eding
entemente
gib@@
hey@@
ny,
requ@@
sangue
sei@@
t),
till@@
ística
(2007)
acidente
actor.
altamente
ania,
aran@@
assem
atas
baixa-normandia,
bes
communication
county.
define
depar@@
escen@@
interpretou
ka.
law,
le",
lon
natal
opposite
poet
prison
promover
ralph
region,
rock,
stad@@
there,
tus@@
uro@@
16-@@
advance
ava-se
crimes
francês,
gay
grafia@@
juntos
masculino
maurice
mostrou
ope@@
panam@@
peru
radical
ranking
reu@@
sis"
users
weap@@
wolf@@
"this
(al@@
2*"@@
apost@@
canada,
combat@@
craig
didos
door
draft
eag@@
gia,
gie
hada
hex@@
minute
pron@@
pto@@
raw
reas@@
rival@@
rog@@
spears
wic@@
year-old
18th
1912@@
1985)
angel
apresentação
carga
church.
ej@@
estrutur@@
formam
istas,
ol.
pensilvânia,
separated
silver@@
um",
un,
éli@@
0-7@@
1986)
==neighbouring
ai.
consecu@@
county"*
deno@@
estudantes
fala
finan@@
iti@@
job
kg@@
learned
lunar
marcus
society,
there.
thus,
1919@@
appearances
bail@@
batt@@
bav@@
chapel
emble@@
ficado
herself
incluiu
ização
necessário
plataforma
presente@@
showing
tradition
72
abilidade
cambridge,
cool
coração
da-@@
episo@@
eri
ireland
levando
milhares
murder
persian
peti@@
phas@@
poland
portugal.
rosen@@
singer,
sivo
sleep@@
synonym
tics,
va,
ved,
%),
(um
2/@@
adapted
affair@@
associado
avoid
beta
clima
colômbia,
começando
coup@@
econô@@
levant@@
lidae
ness,
oriente
original,
pequen@@
perten@@
quilômetros
teles@@
turridae.
é.
03@@
ances@@
atores
austria
demon@@
distinct
egyptian
hurricane
jogo.
ona,
pher@@
publicação
resultou
ros,
rug@@
sang
secret@@
tion==@@
tt
viaj@@
.com/@@
00.
==cast==*
aplicação
aspectos
assumed
center,
chamber
dog
low-@@
mous@@
ori
passagem
planta
properties
uss@@
"it's
(ed@@
archbishop
assistente
bound
britânicos
cancer
drug
ement,
eyes
indiana,
ings.
itor
johannes
remix
senate
serves
transmissão
xi
ï@@
öl@@
113@@
1977,
alco@@
aren@@
asser@@
bie
chro@@
contemporâne@@
descobre
encontra-se
f)
fant@@
foun@@
mini@@
pow@@
release,
resistance
segue
stic@@
thousand
tornando
ure@@
wwf
ários.
ün@@
"don't
au.
brow@@
business@@
chic@@
children.
coloni@@
el-@@
emos
enemy
ener@@
gly@@
go-@@
gren@@
is)
jones,
landes@@
lib@@
miami
no-@@
satélite
si,
siege
sucedido
tubercul@@
alon@@
an:
autonomous
berlim,
bloque@@
bodies
depois.
device
estabelecer
evolução
feu@@
four-@@
gim@@
gminas
household
inven@@
knight
mina
nature@@
no.@@
od.
ovi@@
pintura
quarter@@
rua
santiago
schu@@
servi@@
velha
íli@@
"eu
(2003)*
category
cephal@@
ciais
cidadãos
crise
difference
download
en's
gad@@
gráfica
jag@@
lep@@
massi@@
ordens
politics
surgiu
tokugawa
ês:
anat@@
artificial
begin
bene@@
bola
briefly
canadá.
condição
deman@@
eldest
eventualmente
found@@
gminas==gmina
insur@@
ita.
jin
kansas,
nave
suí@@
uras
venezuel@@
"("@@
"ac@@
"so@@
(2005)*
(u@@
1949
afir@@
ama,
aro
arqui@@
car,
cog@@
compete
compreen@@
georgia
hé@@
language,
limite
materiais
moon@@
muçulman@@
pink
provincial
rank
român@@
saída
scri@@
seção
speech
stable
stam@@
tados
uri
virgin
ye
"lu@@
"os
(1998)*
(2004)*
(such
04@@
1980)
85
aldo
aplicações
brittany
cn@@
feld
filho@@
harris
instrumentos
kh
language.
martial
milit@@
opter@@
prince@@
result,
round.
seguida
sobre@@
telef@@
tok@@
treated
tures
walls
ön@@
1984.
7:
b)
considerados
countries.
duchess
ett
fortemente
haute-@@
introduzido
japones@@
message
musici@@
negócios
octo@@
ologist
petr@@
relacionamento
revelou
séries
tas,
1983.
acer@@
actor,
angola,
anto@@
atori@@
bear@@
body@@
dent
describe
descrição
eo
guin@@
hermann
i:
isab@@
mandato
ológico
plu@@
pped
protection
publication
romantic
soyuz
talk
venezuela.
ão-@@
"he@@
(4
117@@
12.
austrália,
dal
elogi@@
erg@@
espanha.
ger.
instruc@@
io,
kate
kirk
lançar
namor@@
nel
nev@@
nex@@
pic
presen@@
programação
protect
reality
rp@@
sa.
sovié@@
spiritual
sung
textos
wolf
().
153@@
1984)
==filmo@@
abal@@
américa.
atualmente,
cardin@@
express
exterior
host@@
kro@@
mãe,
pennsylvania,
reason@@
regular@@
ros.
severe
villa@@
62
7"
apare@@
appearing
as",
ceo
comemor@@
dessas
ered
especificamente
glob@@
gone
hugh
ilh@@
jessica
navig@@
nica
o*@@
passing
podia
programs
reper@@
snow@@
statu@@
as==@@
beck
ceu
dall@@
diferença
distric@@
east,
foto@@
hous@@
jew@@
kingdom.
la-@@
marks
nichol@@
paran@@
proibi@@
rur@@
tropic@@
u.s.@@
vesti@@
ving
1913@@
6:
ares,
berto
boul@@
contato
emma
encontro
fundament@@
futu@@
genetic
guns
hd
individuals
languag@@
min
northeastern
ns@@
orchid
painter
pau@@
promote
susan
than@@
ë
120
1941
ana@@
awa,
ações@@
bia,
biological
caf@@
caiu
climate
compri@@
gain
harris@@
importance
inaugur@@
lugares
medicina
nell
numer@@
oxy@@
padr@@
pedra
pesquis@@
propag@@
resolution
room@@
sea,
touch@@
tribun@@
técnico
з@@
154@@
99
address
candidato
capacity
collaboration
dias,
economi@@
film's
georg@@
hypo@@
ia"*"@@
java
julian
legend
meso@@
minha
permitindo
quinta
random
red.
ward,
λ@@
"what
1973,
58
able.
alexandra
articles
bowl
capital@@
cartas
conforme
equatorial
fashion
feit@@
flash@@
gel
gulf
litu@@
mayor
naquela
popularidade
produtores
relation
rhy@@
s")
siva
smar@@
tant
tour.
1982.
1983)
ak,
animation
ator.
ble.
ferro
gospel
grove
ics.
know@@
lane
música,
r-@@
representação
representing
rhe@@
rub@@
seguindo
stewart
team,
za.
173@@
1968,
>
abc
andro@@
bios
dependendo
divisões
filled
in'
laura
morr@@
nico@@
ports
reforç@@
residência
session
"en@@
20-@@
aaron
agency
army.
astero@@
barr@@
bro
communications
damage
dio,
dir
director,
egypt
ev,
exist
facilmente
ga.
hardy
hotel@@
im.
increasing
ições
kell@@
league.
mine
ots
potencial
preven@@
rapid@@
rating
records@@
refin@@
said,
step@@
tennessee,
theodore
viewed
watch
why
118@@
1910
anci@@
anniversary
autoridades
bog@@
calls
challeng@@
determinar
driver
dólares
eletro@@
entirely
fluxo
journey
lado,
manifest@@
mck@@
ning,
phor@@
positiv@@
report@@
sabe
soccer
spain,
sul-@@
são.
ţ@@
(2006)
(consulate-general)**
0s
1964,
actor@@
berlin,
career==@@
colaboração
determine
dizer
e)*
estado,
everything
factor
finalmente,
gallery
humano
húmidas
itália.
municipalities
ohio
param@@
princípio
recebe
rocket
tl@@
usuários
viii
"if
(ed.
1928
agricultural
bach,
children,
colocado
debu@@
eira,
esquer@@
indicate
localização
lyric@@
matar
nes,
popularity
recém-@@
regarding
ria.
sia.
tow@@
trag@@
vau@@
ī@@
"to
(consulado-geral)**
-up
absolute
agem@@
almente.
children's
estima@@
fly@@
glu@@
herbert
negro
nos@@
oti@@
permitir
provin@@
raymond
sali@@
strang@@
vien@@
winners
1*@@
1979)
alone
amazon@@
anus
aspects
boêmia
calend@@
califórnia
canad@@
chemistry
chile
dai
development@@
documentary
dz@@
east@@
ffe@@
fying
ght
guy@@
in's
joseph@@
mum@@
nord@@
pd@@
real,
reunião
student@@
suggests
tentando
wid@@
(2006)*
(so@@
ar"
as;
assassinato
chose
cionais
connection
conseguir
consequ@@
considerable
empre@@
evil
faith
flash
lak@@
materials
mechanical
monastery
passaram
phal@@
reconhe@@
revis@@
scheduled
setembro,
sts-@@
thousands
ônico
”@@
1944
1947
dance@@
fia
formando
hamilton
intelligence
lembr@@
masters
nigeri@@
pli@@
reconhecido
representative
s:*
sea.
torne@@
understanding
wheel@@
zig@@
1937
1969,
2014@@
advantage
artistic
banda.
can't
categori@@
cock@@
cole
destroy@@
gustav
kot@@
monarch@@
negoti@@
nep@@
portrayed
resem@@
simpl@@
society.
sper@@
uk,
áci@@
ан@@
):*
1981.
boat
bros.
bush
capable
colle@@
destas
forests
getting
grade
ick,
ina"
infantry
man*
marro@@
morris
máximo
parada
phar@@
poten@@
preso
schul@@
semelhan@@
templ@@
tives
tivesse
tu
virginia,
ânci@@
20.
aumentar
cited
creative
cycle
descrita
employed
noruegu@@
ol,
orang@@
production@@
settlements
sham@@
sue@@
survey
vog@@
(o@@
17th
1931
britânico.
commission@@
eb@@
expec@@
franco
fum@@
harrison
itamente
kath@@
kg
lasted
micas
nitro@@
ordenou
proteção
solar@@
surrounded
terminal
tice
ukrain@@
ze.
"ne@@
400@@
ato.
bernar@@
bilidade
cardinal
carry
corr@@
dis
gi
giuseppe
grécia
interrup@@
mechan@@
mir
nis
possa
rar
recentemente
registro
rote@@
structures
supply
ter's
uss
ville@@
weekly
writer,
"/@@
1940,
1943
ague
bert,
comumente
coron@@
edwar@@
ferrovi@@
ff,
huge
há@@
irlanda
juntou
kenneth
keyboar@@
lancas@@
peaked
phyll@@
po.
pose
recognition
ronald
rox@@
sinais
story@@
sum
sy
tibe@@
ña
1971,
agosto,
cambo@@
daquele
daugh@@
ecolog@@
ein@@
emin@@
fla@@
gif@@
graphy=====@@
hour
house.
ishi@@
j,
lincol@@
neer@@
netherlands
nol@@
ocidental,
osa,
painting
partidas
piano,
profission@@
rafael
salvador
toma
vocalist
"ri@@
71
=======@@
anglo-@@
ants,
arranged
cat
disponíveis
england@@
fernan@@
gonz@@
honra
joining
learning
lutou
magné@@
molecul@@
morris@@
nacionais
nascida
newspaper
oeste,
original.
passando
praised
publ@@
públicas
schaf@@
setting
side@@
teresa
tram@@
ôn@@
σ@@
abriu
aires,
autoriz@@
califórnia.
campan@@
compres@@
condition
curta
depressão
environmental
finnish
frequen@@
gen,
gover@@
hell
horse
italiano.
luke
médi@@
partículas
pessoas.
point,
receiving
sei
ser,
stan
"...@@
ac,
audience
barcelona
chart.
clássico
conflic@@
deliber@@
dimen@@
décadas
executivo
fi
hydrogen
ilo@@
install@@
lieutenant
massachusetts
match@@
observatory.
practi@@
primo
recording@@
respect
specifically
ston
stream@@
xo
youngest
"cor@@
(new
aceler@@
alization
all.
battle@@
catar@@
convenção
cross@@
destino
es:*
fama
ferdinand
gerais
ial
joan
lich@@
mato
nome.
praticamente
representantes
sensi@@
snow
ved@@
voy@@
wad@@
walker
"it
0:@@
110@@
115@@
16th
1976.
adu@@
aler@@
aposent@@
bac@@
cal
division@@
elections
ences
jesse
jr.,
maintained
mos,
nota
offici@@
ors,
perdi@@
phoenix
requi@@
resolução
risk
sofri@@
stadi@@
stag@@
suce@@
thé@@
ônio
1917
68
acreditava
apollo
aristocr@@
astronomical
at"
brasileira
circu@@
correc@@
criminal
defeating
editora
eleven
greece
hos.
indivíduos
medicine
mica,
michelle
norte-americ@@
ná@@
parties
peninsula
postos
radic@@
recente
science,
symbol@@
teacher
tely
threat
ud
vu@@
zor@@
11-@@
adventures
alty
bed@@
birth@@
circuit
colocou
contexto
continuar
crip@@
d),
earth.
ing:
level@@
meets
offer
relativ@@
s==the
send
shan@@
substan@@
taram
teorema
universi@@
urs
y).
ов@@
==track
alcançar
ald
apart
argued
atleta
awards.
bacter@@
bear
causing
dico
edições
es===@@
estraté@@
exceção
formalmente
gay@@
insec@@
instituições
jersey
leg
merged
perspec@@
possibilidade
presentes
rachel
refr@@
robin@@
server
usam
(ch@@
1974.
61
alu@@
angelo
child@@
classification
derrotar
desafi@@
dt
ents,
filming
graphic@@
hour@@
laure@@
margin@@
oral
químico
refere-se
southeastern
tea
v-@@
época.
..."
14-@@
1938
1960.
alde@@
ale,
atmosfera
barb@@
capela
coo@@
décimo
ests
evich
facil@@
faleceu
flora
gerais.
ging
grace
imedi@@
iorque.
jornalista
leads
monitoring
ms.
nass@@
notes@@
only@@
ries
technique
toler@@
vass@@
vulner@@
"super@@
59
63@@
alis
basil@@
constitutional
hl
interpretação
ismo,
jam
kak@@
knew
mack@@
meio-@@
minim@@
montanha
mostrar
party.
possuía
rising
romana
spl@@
years).
ícia
700
carre@@
dra
emerg@@
espanha,
euro
finding
georges
gray
heiro@@
história,
margar@@
negr@@
ors.
os)
plic@@
skin@@
trouxe
vi,
you're
"am@@
(e@@
1900
1978.
advoc@@
ali,
alistas
alum@@
bod@@
carp@@
diferenças
effort
er:
fs
geographic
i".
igrejas
impéri@@
iron@@
julho,
ológica
out,
propriet@@
proteger
providing
street@@
yu
1908
augusto
bloc@@
branca
chega
consider
cruci@@
desenvol@@
enfrent@@
establish
fland@@
floor
gan
identity
inclin@@
infr@@
mirac@@
pais@@
sofia
success@@
tti
vibr@@
"**@@
1918
animação
belongs
cas,
cine@@
club,
conductor
estações
explained
filip@@
fli@@
heads
inclusive
is",
kl@@
knigh@@
labor@@
night"
posse
rapid
rápido
seres
sonor@@
te".
torres
tres
unci@@
verdadeiro
viajou
"br@@
0s,
1932
1980s
2012@@
360
achi@@
advan@@
ation",
avião
candidate
compostos
concluded
consegue
continues
cristãos
desconheci@@
duchy
fair
fixed
musician
news@@
odo@@
parad@@
polo
senado
á-la
(1):
1929
alis"
amaz@@
aparentemente
bairro
circuito
clan
começar
cula
devic@@
ducado
executed
fins
franceses
improved
incluía
ingr@@
investigação
ists,
k",
kad@@
lua
manga
mortos
ole
portuguesa
prepared
pró@@
reforma
saber
significado
sober@@
strength
supervis@@
version)
11.
1953
1955
1977.
6%
aristo@@
as).
ation*
atis@@
barcelona,
beli@@
búlgar@@
chinês
citizens
cup.
dzi@@
estran@@
fear
h2@@
hop
lutar
mando
michigan,
mus
origins
path
pede
peg@@
per.
power.
seguiu
sell
statement
sur-@@
though@@
timo
"for@@
1954
acredita-se
alem@@
alh@@
allies
boris
butter@@
component
consecutive
construiu
curto
daram
destruição
documentos
engineer
first-@@
is-@@
jet
laboratory
leadership
liquid
loy@@
marcos
março,
nome,
otoman@@
platinum
próximos
r.,
residence
serie
ton*
yan
ól@@
ôs
1924
57
agência
aram-se
avo
bens
berlim
ble,
casado
celebrated
contrac@@
descen@@
duquesa
encar@@
habilidades
hos@@
hr
index
is*
kō@@
mrs.
mytholog@@
ora,
orchid@@
outstanding
t*@@
trá@@
up.
votos
xo@@
águ@@
ível,
π@@
(2007)*
163@@
1922
1962,
abandoned
anda,
bande@@
chain
compani@@
constr@@
cup:
depression
destruction
garanti@@
gilbert
i*
interested
larg@@
lew@@
longe
prest@@
psi@@
psych@@
receberam
revolucion@@
scientists
sh
shape
(2001)*
(nova
)==references====external
11,@@
130@@
5th
améric@@
architect
bid@@
chi,
constantine
edifícios
general@@
greg
hardcore
hired
independent@@
inglê@@
inimig@@
internacionais
irs
maker
malay@@
promotion
recogni@@
surviving
suspe@@
theoretical
underground
usuário
west.
índia,
ônia.
"bar@@
*"munidopsis
1917@@
1930,
alin@@
armazen@@
arro@@
carros
cm@@
degrees
dente
derro@@
determinado
elos
emmy
engineer@@
ens,
equivalente
every@@
execução
festa
gothic
herdeiro
ides"
lah
missions
ocupação
s"*
sucess@@
teaching
times.
umin@@
utilização
"i@@
alabama,
boot@@
clubs
co:
countries,
crescente
cô@@
dispositivo
divine
eugen@@
export@@
extremo
festival,
focused
inscri@@
itado
km²),
legume
leonardo
necessidade
padrões
pete
realizadas
sbur@@
serbian
successor
tici@@
tir
ura.
whereas
árvore
ý
(1999)*
(2002)
1961,
alpha
atingir
bei@@
bridg@@
budd@@
carolina,
cerim@@
chamadas
charts@@
dramatic
editor@@
especialista
ey,
ferro@@
gest@@
habitantes,
icas,
km²)
kum@@
lorenzo
mec@@
mhz
mosco@@
n)
nick@@
papers
pion@@
recordings
res,
shaw@@
sons,
stations
ty"
union.
(8@@
(asteroide
1926
1933
addres@@
arma
baixista
baixos
bec@@
belgian
burg-@@
cag@@
changing
contou
converted
david@@
direita
ef
effici@@
environment
fag@@
habilidade
islands,
kent
lack@@
latim
led,
mick
mikhail
number@@
paras@@
shō@@
sno@@
sos,
torna-se
visita
árabes
ар@@
"rhododendron
1945.
1965,
:**
aba
att
block
bloom@@
boli@@
campus
convidado
dating
dispar@@
elite
est-@@
heritage
ic"
iii.
interfer@@
iss
jaime
kansas
mare
mer.
modul@@
oferece
play,
ready
regist@@
seguinte.
stuart
thur@@
topo@@
ua
venezuela
(r.
*"pleurothallis
10–@@
1923
1951
abstr@@
calling
cima
claro
detalhes
dias.
identidade
ith
l.,
local.
micos
nicolas
prosper@@
relacionados
respectivamente.
theories
téc@@
up"
yosh@@
zam@@
á-@@
ça.
õe
(a@@
1946,
abraham
acceler@@
acredit@@
aniversário
característica
descre@@
descrever
elder
finals
hidden
húngar@@
ing*
iu@@
join@@
jude@@
juven@@
ma-@@
maintain
mg@@
museum@@
nigh@@
o;
passo
própri@@
solic@@
tic.
yer@@
ów@@
(5
)**"@@
74@@
aparência
arkansas,
causou
charged
country's
eighth
episode,
falar
fazia
fox@@
hill,
i's
impac@@
indica
ke"
kentucky
listing@@
mensagem
mosteiro
mídia
pet
philosophical
praia
raci@@
specul@@
straight
tax
temente
thunder@@
trum@@
twenty-@@
unid@@
vener@@
vy@@
yang
);*
1925
1975.
adventure
cientistas
comedi@@
custo
defence
delas
fail@@
glenn
israeli
jú@@
originais
out.
pale@@
productions
romênia,
tidas
trabalhadores
wisconsin,
ô
(uma
2010)
==disco@@
abun@@
alizar
antarctic
ança
apren@@
bida
bretanha,
comerciais
elis@@
enne
exter@@
figuras
forçado
grupo,
lowland
park.
people@@
perder
posteri@@
pray@@
pure
reais
rotten
ruler
sociais
stone,
temporada.
"su@@
(180@@
(ar@@
14.@@
1904
armenian
ati
austri@@
centro-@@
clock
crítico
decad@@
declin@@
differences
flori@@
formaram
garam
ilumin@@
inho
lados
levado
margem
mino@@
pc@@
pobre@@
posta
procura
representante
sie@@
sobreviv@@
soundtrack@@
steven@@
tively
tool@@
tornado
vence@@
views
wise
worst
águas
ū
"best
140@@
alguém
apresentar
ascensão
casti@@
colégio
damas@@
deutsch@@
e/@@
easy
english@@
equação
hispan@@
innov@@
ishes
itou
lar
mainstream
measure
platform
prémio
sed,
simil@@
vh@@
via@@
water,
00-@@
1914
1941,
attributed
award@@
cars
chat@@
children@@
cidas
diu
dra@@
finishing
ge.
gia.
interven@@
position@@
próprias
round,
s==*@@
shin
today,
treinamento
vivo@@
workers
ácio
(1,@@
acus@@
bü@@
cbs
colet@@
committe@@
desert
empire@@
evacu@@
flórida,
games@@
gravit@@
helen
hospit@@
ismo.
khan@@
knock@@
modified
nancy
needs
rap
recusou
regis@@
romanian
set,
trip
two@@
uck
voiced
10,@@
ambro@@
americana.
bought
campbell
certa
chester
city's
componentes
conquest
criança
dorf
earth's
florida,
golfo
indo@@
justin@@
naveg@@
nica,
palco
passes
precipit@@
shore
trained
transpor@@
us)
"for
"or@@
==biografia==@@
acompan@@
ago,
ameaça
assinado
baseball
camar@@
co.,
culture@@
forests,
graphy,
hand,
highway
integrated
interpretado
madeira
mons
moroc@@
network@@
north,
norway
officers
progressive
sacr@@
safety
seasons
servic@@
show"
sucessor
teorias
tren@@
twenty
wang
writer.
ço.
"*"diaporthe
****
1917,
acompanh@@
altar
anç@@
bodi@@
cadeia
certified
constantino
coronel
culp@@
devi@@
doctor@@
escritores
eviden@@
florence
hans@@
ki.
leagu@@
local,
mor
occur@@
offers
pearl
período,
prai@@
quo@@
reign@@
restr@@
sant'@@
south-west
speak
tie
vida@@
vote
williams,
z"
"i'm
1920,
accept
activi@@
affairs
andra
bas
campo@@
compound
dimensional
dispositivos
ently,
essen@@
evol@@
facul@@
filipe
fuel
gráficos
ideias
infância
memori@@
parceria
preocup@@
prev@@
proof
propor@@
públ@@
respir@@
returns
self
shop
sultan
uz@@
"man@@
(2001)
(j@@
100,
acon@@
adoras
atives
civis
conqu@@
conservative
days.
deutsche
faces
failure
gw@@
jefferson
kore@@
leão
mang@@
muhammad
pix@@
promoção
ria,
sair
soma
submission
sugere
taf@@
territori@@
territories
virgin@@
"smackdown@@
(10
1935
1988)
98
==#
agrad@@
altos
an*@@
ances
approved
arcebispo
arctic
argu@@
baker
beach@@
billion
cleveland
craw@@
dj@@
elen@@
familiar
fortific@@
frustr@@
intermedi@@
julia
mitologia
mou
orton
posterior
ref@@
senhora
similar@@
sv@@
that's
turas
ture.
ue
vehicle
vencer
where@@
×
127@@
1948,
1966,
1973)
1974)
==no
adição
alfabeto
and-@@
ando-o
antoni@@
anything
aquitânia,
asiá@@
boston,
c.,
clav@@
clay
conhe@@
dell
edo
egito
eurovision
evans
finite
fore@@
hed.
icidade
integral
intel
islands.
jap@@
joel
julius
letter@@
maio,
nan
pages
paulo.
perfil
precisa
princípios
profession@@
prophe@@
prínci@@
selection
side.
spen@@
tation
tion",
truc@@
ural
xin@@
(1995)*
(2000)*
63
abu@@
arabic
civiliz@@
decline
desper@@
discre@@
edgar
electric@@
emir@@
faul@@
fear@@
format
glass
gradually
imprensa
ize
kai
kirch@@
limit
neither
pakist@@
pronunci@@
pyram@@
scan@@
stating
uli@@
ves,
-sur-@@
1975)
acoustic
bears
bem-@@
botan@@
bull
chair@@
davis,
details
doenças
faix@@
graduate
gy
ington
kentucky,
mercury
missing
mode
notáveis
ose
promis@@
rhin@@
sburg,
socialista
sr.
subordin@@
sweden.
sér@@
total@@
trabalha
twin
uf@@
veu
white,
κ@@
"can@@
"ver@@
"when
1987)
73@@
96
agres@@
carth@@
cay@@
co)
crash@@
dança
definida
definido
electrical
h-@@
ier
ign
ik
indo-@@
maestro
murder@@
ocy@@
olo@@
ov.
pio
região.
relat@@
risco
schwe@@
serge@@
trech@@
wick
xix
0)*@@
:#
::*
aldeia
americano.
analis@@
ares.
arquiteto
atus"
beij@@
bly
congo
cut@@
detroit
encom@@
entrance
epic
escur@@
exércitos
filósofo
icul@@
illo
istas.
jay@@
jews
jó@@
lançados
leban@@
lets
moment
ness.
ocident@@
ofer@@
papal
pin
politic@@
provínci@@
prussi@@
ribe@@
rode@@
rota
semelhantes
stayed
suje@@
systems.
tentativas
"el@@
(15
(6
(paris,
13.@@
73
again,
aparecer
ation)
authors
cerimônia
cheg@@
chit@@
columbi@@
crater
crisis
culturas
destroy
diferenci@@
entre@@
filmagens
first,
ileg@@
limi@@
meios
memo@@
meter
michael@@
mú@@
ng
none
oci@@
painted
ppe@@
producer,
rejected
schleswig-holstein,
shock@@
statistical
succession
tribo
twice
weather
"===
"bu@@
"não
(1996)*
(2000)
(ep@@
14.
also,
auxili@@
baron
baseados
bob@@
cc
cer.
cerco
correr
driven
exemplo@@
freguesia
funeral
historiadores
hud@@
iled
infl@@
jah@@
justiça
liby@@
michigan.
ocul@@
owner
pisto@@
prefeito
saxe-@@
scotland
series@@
show.
sko@@
série.
ugh
vento
vision@@
ás
(1999)
2001@@
aa
ading
ains
career.
churches
committed
confin@@
ecw
encontradas
engaged
ening
espanhola
franç@@
harvey
hier@@
hn
hora
inser@@
involving
j.,
la,
loja
mes,
motores
pom@@
practical
prefeitura
propos@@
rd
somer@@
sucessão
transferência
us$@@
videos
1972.
apaixon@@
canadi@@
carter
catarina
contrast
cross-@@
earth,
efic@@
evidências
existi@@
ft@@
gree@@
heli@@
hydr@@
ibm
icel@@
ição,
madrid,
mini-@@
mour@@
mr@@
mér@@
partner
permane@@
promovido
proven@@
repris@@
requires
robinson
secur@@
silv@@
stig@@
sueco
tery
tory
tér@@
ância,
(1)
(1997)*
..@@
1910@@
1934
1968.
aen@@
afirmando
anel
arbitr@@
bis
colonel
cook
cristo
discurso
dish
documents
filhos,
hoo@@
integrantes
matemá@@
muse@@
olhos
partial
persons
pretty
ril
simo
works@@
(tv
02@@
138@@
1976)
2004*"pleurothallis
==on
agri@@
compens@@
descri@@
di.
eira.
escritas
exibido
gama
gran
liderou
magazine@@
michigan
retro@@
signal
target
travel@@
tyr@@
«@@
íni@@
")@@
1939,
92
aparente
arrival
ax
axio@@
axis
cinemato@@
citizen@@
clássica
colorado
coste@@
eisen@@
frankfurt
ht@@
língu@@
op
pat
polônia
reform
s==*
suit
tas.
wards
م@@
"rolling
)_@@
===as
alcanç@@
ans"
aí@@
borg
castro
co*
coastal
console
dei
demais
eds.
equipment
garantir
glas@@
graças
hist@@
lex@@
mys
navar@@
observations
permanece
períodos
producers
professor@@
shooting
simon@@
softwar@@
tales
tana
ógi@@
1916
2015
77
alemão,
atório
bo.
cene
centuries
chann@@
dee
desejo
dragon@@
dre
egyp@@
fies
frei@@
h"
hog@@
houston
icon@@
ingen,
meanwhile,
obser@@
offen@@
picos
primeiramente
representar
reputation
restante
silent
syno@@
systems,
zen
£@@
ós@@
últimas
(incluindo
1970s
[...]
blin@@
bs@@
bull@@
contras@@
cratera
dd
denmark
destruc@@
discipl@@
elia
er".
estabelecido
evalu@@
favorite
fici@@
form,
how@@
increasingly
iraq
judge
non
occupation
particular@@
postas
rejec@@
sangu@@
seeing
servir
sha@@
spanish@@
sydney,
thal
useful
ст@@
adrian
algoritmo
ants.
authorities
campeões
childhood
cousin
dge.
ecer
end,
exact
exerc@@
futur@@
gaga
hammer@@
importan@@
include@@
jec@@
lan,
orch@@
ous,
persu@@
require
tocou
venda
zap@@
ândia
ý@@
"from
1977)
[http://@@
ates,
atuais
bone
calor
ceremony
creek
d;
desapare@@
ement.
eslav@@
gray@@
hof@@
infantaria
ishi
lists
mad
mate
mitch@@
nadu.
oportunidade
prime@@
sai
science@@
small@@
somewhat
tyler
ual
uncle
us'
vietnam
zi
ásia,
116@@
18-@@
antônio
astr@@
byr@@
cassi@@
codific@@
compos@@
conclus@@
césar
dale,
econômica
esforço
fili@@
gp@@
irani@@
k)
linked
nacional.
nebul@@
os*
parker
partici@@
percus@@
scho@@
sources@@
subdivisões
sweet
taça
theory.
thetic
ticul@@
tomada
transition
vídeos
água,
1918,
1969)
;*@@
altar@@
atmosphere
centenas
compon@@
duração
eiras
fay@@
fer,
kane
noble
observações
pulmon@@
refere
rome@@
romênia
sar
sloven@@
sécul@@
xix,
ões@@
(2001).
0s.
=======
anglic@@
armen@@
assume
au-@@
aí
bian@@
bolí@@
bí@@
calendário
chegando
conseguiram
d.c.
deep@@
disser@@
dru@@
en*
fig@@
illinois
ingham
itunes
ization
louis@@
ma*
mediev@@
on",
painter@@
peak@@
pra@@
reck@@
saxony,
suicide
sustent@@
tam
tidae.
tomb@@
ung-@@
ângulo
"mi@@
"q@@
(9@@
(po@@
automa@@
bela
caste@@
chev@@
clif@@
conso@@
diplomatic
emigr@@
excel@@
exces@@
ferre@@
fortaleza
genes
height
hosti@@
kans@@
madison
músic@@
nari@@
opportunity
outubro,
parcialmente
picardia,
primavera
request
revelado
sigh@@
strugg@@
tv,
ucrani@@
(d.
****@@
1,000
affected
ambient@@
antarc@@
aware
barbar@@
career@@
centros
coisa
comics
conspir@@
continuaram
convoc@@
corresponding
descendentes
e-se
embr@@
ential
expen@@
francisco,
fé
georgia,
goal@@
label@@
latin@@
limites
men"
minor@@
mün@@
patro@@
phenomen@@
prove
purchased
resultado,
still@@
stream
studios,
transl@@
uro
who,
yang@@
"journal
"star@@
(2009)*
1958,
1960s
7th
aid@@
antagon@@
batman
bottom
colorado,
destruir
dição
editions
equation
eugene
fera
fusion
fá@@
geral@@
has.
head,
kel
lance
martin,
matrix
miss@@
moscou,
poetry
salvar
superi@@
tle@@
touring
transição
tros
union,
vertical
vo,
wales
ón,
ч@@
97
ag
aj
alien
alph@@
arrested
casa,
chav@@
circular
composer@@
daim@@
divisions
drawing
dut@@
dú@@
estud@@
estúdio,
form.
fábrica
ganhando
glos@@
heter@@
incident@@
ingly
japoneses
lear@@
lend@@
loo@@
mathematici@@
ments,
milton
mos.
neighbor@@
ondas
onic
place.
possibil@@
powered
prefec@@
princes@@
provis@@
reading@@
rei,
rep@@
rod
shane
sr@@
tivo,
vec@@
wish
13th
1900@@
actress,
ard@@
aven@@
berk@@
c).
cock
colombia,
competições
conidae.
conquistar
contratado
court,
danos
dialec@@
experienced
gates
guiné
historians
histórica
ined
ines.
levaram
lou
mendo@@
mente.
nie@@
povos
short-@@
sin
spa@@
stands
super-@@
turning
ukrainian
um".
utiliza
win,
(1998)
1909
1916@@
1973.
1989)
84
affec@@
alle@@
baixo,
cantou
carl@@
case,
commanded
coul@@
coup
degener@@
electron
essays
fec@@
ficas
francesa.
girl"
hood
ica@@
icas.
liderada
medidas
noite,
normally
provável
reag@@
res.
speed@@
stages
sug@@
techniques
tista
utilizar
}@@
ências,
17.
1980@@
acaba
advers@@
asia,
attribu@@
atórios
bius
bra,
building@@
caix@@
cavaleiro
commen@@
country@@
dad
edition,
educational
estabelecimento
et"
formula_1
für
gh,
gráfic@@
happen@@
hawai@@
humans
inde@@
ital
kingdom@@
lion
mediterranean
musicians
one"
oni
pessoas,
pian
population.
pé
qualified
rodada
roo@@
schi@@
serial
sign@@
struggle
thin
tile
violin
witz
ú
"u@@
(e.g.,
82
9/@@
apor@@
apparently
apple@@
arias
assumir
atacar
atória
autobio@@
camada
camera
categorias
cement
da*
deputy
e")
enfrentou
expon@@
extension
fit
galli@@
galáxia
grupo.
hass@@
inov@@
joey
matri@@
miy@@
novembro,
probability
publicados
publications
sebastian
skin
triang@@
ve-@@
"der
(con@@
01@@
1907
1944,
1970)
87
adding
adol@@
ampl@@
anch@@
attached
cardeal
dari@@
excentricidade
humana
illa@@
iv.
kepler-@@
leh@@
lucr@@
massacre
portrait
priest@@
principle
progress
quarte@@
resources
scien@@
sed.
sepul@@
south,
trom@@
tual
us-@@
wolfgang
(12
(2.@@
(2003)
1905
1911
78
83
8:@@
accor@@
anatom@@
anj@@
anos).
arte@@
burning
christo@@
corp@@
emi
feet
flores
gêneros
heiro
in*
influ@@
jeremy
leslie
milhão
missouri
moves
nomeada
nutri@@
oz
priest
protocol@@
razões
representando
restored
s)*@@
surpris@@
texts
tionally
ur.
ville.
volunte@@
xvi
0,0
0-0@@
13.
acces@@
atum"
candidat@@
cenário
christian@@
cois@@
copy
dedicado
defici@@
designado
designação
drin@@
drop
enjoyed
estilos
eto
flat
flower
george@@
graphy==@@
guitarra,
horn@@
indicações
interpretada
kara
khal@@
khar@@
lia,
lutador
me",
mediterrâne@@
mega
metri@@
metropolitana
more,
north-east
noruega
period@@
pt@@
rally
resur@@
way"
ônia,
"how
(mo@@
1947,
1969.
6th
aceitou
ae.
antiqu@@
atl@@
avelmente
behavior
belonging
cogni@@
contra-@@
cópi@@
dentre
diagrama
drums,
dynamic
english,
fram@@
haus@@
html
instituição
io.
laid
moment@@
nac@@
nebraska,
of-@@
padre
power,
preen@@
preg@@
profil@@
registros
reiv@@
rudolf
second-@@
specified
starts
themes
tindo
trim@@
valle@@
2011)
ado"
align@@
approach@@
arran@@
atsu@@
azu@@
commissioned
concelho
deixa
delivered
dendro@@
economics
eiro@@
ek,
experiências
filmo@@
gos.
grey
gus@@
indicação
jel@@
jose@@
onze
papua
sanc@@
strategic
taylor@@
us*
use.
weil@@
"x"
1997@@
7%
===os
aqui
atlân@@
bc,
belgi@@
bright
capac@@
caso,
cathedr@@
clara
cles
colin
disso
f"
fem@@
full-@@
general,
hori@@
iga
inae
ing",
kar
kuro@@
lagos
mb
medalhas
moderno
neck@@
nice
nomination
radiation
radiação
replace
resolver
roberts
robo@@
species,
também==*
toronto,
touch
venice
veículos
→@@
(formerly
1915@@
79
allo@@
antónio
ativa,
atlético
batista
castro@@
católic@@
colocar
dever@@
divulg@@
dominant
draf@@
encour@@
europeus
grega
gymnas@@
http://@@
ich,
internacional.
ises
leaf@@
legac@@
lithu@@
mica.
ml@@
muita
nai@@
nó@@
onal
pian@@
province.
rau@@
rem@@
resi@@
sal
secure
shim@@
strongly
television@@
tribu@@
ware
waters
(2008)*
(am@@
134@@
76
admiral
back,
braz@@
cara
carto@@
character,
code@@
concentration
d).
designs
didn't
dura
efici@@
era.
espaci@@
esto@@
filmado
gai@@
incluir
inga
instruments
jug@@
kers
les-@@
logy
look@@
napoleão
nar
nest@@
nikolai
pan
reformas
someone
spher@@
sugeriu
taman@@
tier@@
tomb
tripul@@
vet@@
zie
"big
(7
(in@@
1927
1943,
2.0
69
93@@
abril,
again.
altas
arquitec@@
avo@@
bulbophyllum
constantinople
council@@
days,
democrata
escritório
fo,
force@@
fornecer
funcionários
história.
hungary
ins,
junho,
lion@@
occasionally
organ@@
planet.
pric@@
pru@@
prussian
recru@@
rice
romanos
sh,
stret@@
tabela
thou@@
wie@@
yas@@
-general
1.5
1921
==career==@@
a:*
ales@@
amateur
anarch@@
anna@@
aparecem
as),
aspir@@
atacante.
caroline
chuck
devil@@
dill@@
equi@@
exclusivamente
helena
hi,
improv@@
inimigos
iw@@
jab@@
landesa
league,
liderado
mace@@
measures
mecânica
neur@@
ninth
odi@@
pietro
poet@@
requis@@
resultando
roots
saxônia.
slow
stef@@
também==*@@
tane@@
vant@@
ão:
(20
18.
1942,
1963,
1971.
4-0@@
94@@
aceae,
akh@@
aquele
cht
considerou
covering
cran@@
cál@@
desloc@@
diri@@
dominated
elementary
epis@@
estudiosos
existed
explorer
five-@@
inspirado
ivo
johnson,
letr@@
multiplic@@
neto
nir@@
page@@
persi@@
polis
printed
pér@@
rodo@@
single-@@
terra@@
trabalho,
vary
vehic@@
video,
vivem
wearing
wrestler
wrestling**@@
á-l@@
éia
ím@@
ال@@
"vi@@
89
93
andreas
anz@@
artic@@
ativa.
açõ@@
bling
carni@@
certas
chair
collis@@
county@@
domain@@
emper@@
esperança
furacão
interpretation
ivan@@
maca@@
madagas@@
música.
observatory
others,
paper@@
particles
porno@@
projects
resum@@
stell@@
substituir
suppor@@
theorem
wald
walking
wonder@@
wrigh@@
óni@@
"bi@@
91
bridge@@
candi@@
capital.
conflitos
criados
date,
desire
diana
ell.
emily
estrelou
festival.
gla@@
group's
icus"
iso
keeping
linear@@
liverpool
locations
marketing
metall@@
montgomery
ocorr@@
olympics.
origens
parlament@@
phen@@
plane@@
representatives
rodad@@
rodri@@
sees
trinta
ts"
week@@
"her@@
)"@@
1964)
8%
alger@@
apresentam
avent@@
bart
child,
concertos
controlar
cup,
dancing
demand
design,
dynas@@
ellen
exception
exhibition
família,
intensi@@
karen
kem@@
luxem@@
macedon@@
miti@@
night,
peace@@
pilot@@
play.
poema
protagonista
recuperar
sche
sil
song.
ston,
tivity
trabalh@@
ulo@@
um-@@
wro@@
óg@@
"as@@
(16
000@@
10,000
125@@
1911@@
1990)
abili@@
adjacent
aprove@@
argentin@@
aviões
beb@@
cameron
claiming
components
continent@@
elé@@
enig@@
eurovisão
fico
filhos.
fled
grab@@
grow@@
hair@@
hoje,
ise,
ismo@@
lá,
monter@@
old,
percep@@
rené
rez@@
rhodes
ride
session@@
sérvia
taylor,
tive,
vermelha
"mor@@
(april
1.0@@
:*"@@
aki,
andor@@
aquitaine
asia.
assisti@@
career,
clinton
cyclo@@
d.,
defensive
describing
dimension@@
down"
envolvendo
evening
exo@@
foco
governo.
greatly
iliz@@
installed
israel,
licenci@@
lus
lying
mcmahon
mn@@
nathan
neo-@@
pall@@
planning
projetado
retornar
rivalidade
rivers.
seqü@@
sim
tari@@
verdade,
vivi@@
writings
yellow@@
ы@@
1;
4/@@
abordagem
ation==@@
atlanta,
ausência
avanço
batal@@
begun
bon
bradley
brah@@
carrying
castle,
clap@@
concurso
derrot@@
descobrir
diplomá@@
estoni@@
feud
gate@@
generated
habil@@
heim,
index@@
leon
lugar,
marci@@
modern@@
movements
nacional,
pays
poem@@
²@@
ância.
ør@@
"raw",
(1994)*
(8
(us@@
1978)
ago.
algorithm
arquivo
aut@@
bles@@
cb@@
collap@@
contribuições
demiti@@
deput@@
dinamarca
dinâ@@
disputada
dub@@
dy.
encouraged
enterrado
eri"
fornece
gabinete
independen@@
infinite
influências
moun@@
nfl
philadelphia
real.
reun@@
revised
ritu@@
rubi@@
separação
signature
sima
spain@@
superfíci@@
tion:
tipicamente
tiu
tornaram-se
vantagem
wilson,
а
י@@
18.@@
81
==notes@@
aar@@
abaix@@
ano:
arizona
ased
atlântico
aére@@
bomb
cere@@
coast,
comb@@
comunidades
crown@@
detailed
diplo@@
educated
el"
envolve
expression
fication
francesa,
frequência
goi@@
governo,
ground.
hal
juntar
lugar.
mariposa
melhorar
nath@@
nico
owen
pi
pill@@
pior
possíveis
proporcion@@
retained
rugby
rush@@
scienti@@
sequel
sivamente
sufficient
supre@@
suécia.
the-@@
virus
vê
wrest@@
yiel@@
"just
1913
ança,
arco
ariz@@
binary
controll@@
do:
dominic@@
dust
estátua
eua,
ins.
interpre@@
j.j.sm.
jamie
manhã
map@@
meters
mim@@
orquestr@@
osamente
pontuação
premiere
principles
pudesse
rebellion
reje@@
reputação
restos
spot
s—@@
temporadas
terri@@
ting,
trial
turin
wallace
ь@@
"a@@
a"),
ann,
apon@@
atari
beauty
belief
books.
cherny@@
configur@@
convin@@
criando
dens@@
driving
enem@@
eph@@
ess.
expect@@
falling
fati@@
favour@@
french@@
gêner@@
ilidade
illustrated
instru@@
inventor
ique
lul@@
marvel
mostrado
oto
paralelo
participaram
portr@@
quarter
regen@@
seconds
significantly
sopr@@
teis
therefore,
your@@
ço@@
ún@@
addi@@
anterior,
armadas
arri@@
atom@@
auri@@
baixas
bug@@
burgh@@
dakota
dallas
desenvolvida
encia
ficando
friend,
guine@@
hed,
horn
il-@@
intest@@
offensive
phry@@
place,
sail@@
senador
site,
son)
statue
sticos
wander@@
wig@@
2",
ais:
alemã@@
barro@@
bian
boeing
chan
defes@@
dica
d’@@
e==@@
edwin
filha,
grass@@
improvis@@
inform@@
ini,
jerusalem
kei@@
leitura
lesser
madame
mall@@
nbc
occup@@
personagen@@
preci@@
processes
profes@@
project,
rates
redes
remake
roteirista
schleswig-holstein.
scope
shaped
soft
stefan
stru@@
supostamente
survived
tain
ter*
tier
turner
vich
wii
zy
ânica
"super
1936,
1967.
5/@@
==referências==
aceae@@
advogado
anic
back.
beijing
braço
bringing
coorden@@
emerged
gain@@
macul@@
mantém
ments.
mulher@@
operacional
personal@@
principal@@
rapidly
reduce
shawn
sole
stanis@@
sten
strange
surviv@@
tine
trai@@
tré@@
xx,
yle
"a"
"pe@@
(em@@
12,@@
19.
====the
===no
==personal
a==
accur@@
alta-normandia,
antio@@
assun@@
atively
atravess@@
augusta
autónoma
award,
azi@@
chand@@
cláss@@
computadores
confirmou
conveni@@
enfrentar
envolvido
ested
f*
femal@@
galeria
gand@@
homen@@
honorary
intitulada
liqu@@
longest
mans
medals
membro@@
metal,
mineral
moth
ners
onia,
oul@@
patrocin@@
pilgri@@
pine
pod@@
pose@@
princip@@
resulta
rif@@
rome.
romen@@
s**
short@@
spon@@
terebri@@
tica"
variação
vince
voted
wher@@
"ag@@
(may
16.
acredita
afonso
aka,
alo
ambul@@
art.
athe@@
automó@@
axi@@
bass,
basti@@
communes
estreito
europa@@
exteri@@
flexi@@
gido
hando
hep@@
illus@@
inteligência
intercontinental
ireland,
mesmos
milh@@
nomeou
ops
osa.
pacífico
peninsul@@
predecess@@
presi@@
pro-@@
questions
recentes
recom@@
sétimo
tank
terá
thel@@
ti"
tudes
unter@@
"*"utricularia
10th
1959,
accused
achieve
aden@@
alien@@
american@@
armad@@
associada
border@@
ced.
cientista
clean
comé@@
constantinopla
cosmo@@
didas
electron@@
entra
equipa
especí@@
eto@@
father.
films,
g.,
galaxi@@
gios
globe
glori@@
hed@@
hipótese
immediate
jersey,
jerusalem@@
julie
kne@@
latino
limitada
marte
maryland,
murphy
ne"
ocorrem
odon@@
organizations
paramount
partidos
pen
philadelph@@
ported
pouca
present-day
projet@@
pt
renaissance
sis.
spear@@
succe@@
succes@@
tex
tion".
title.
trees
ultr@@
vector
vos
witnes@@
ônimo
ź@@
(179@@
1952,
6/@@
ain.
aire
amon@@
aval@@
bohemian
classi@@
comparação
cursos
deca@@
devices
dificuldades
discrimin@@
district.
down,
estatuto
fix
frequ@@
frequency
inscrip@@
instalações
irmão,
moeda
outros,
partner@@
ple,
pleas@@
poderoso
pred@@
preto
princeton
relatório
search@@
setor
shif@@
stellar
taining
traveled
trid@@
visitou
yoshi
{@@
ão"
índice
óxido
(4.@@
(tv@@
31@@
6*@@
9th
alternate
attracted
ature@@
bres@@
burgh,
caes@@
canon@@
canto
confun@@
dence
diction@@
empress
encontram
ffer
foi,
gibson
guerre@@
lópez
municípios
nicole
opini@@
ous.
phan@@
protein
relev@@
remote
resigned
sieg@@
sintomas
stopped
sunday
t;
tocando
transmiti@@
xx
yun@@
ém,
ław
4%
abdic@@
acia
adicional
al),
alvo
aná@@
architectural
aten
ava,
avô
azul@@
barto@@
bris@@
cabinet
center.
concre@@
confor@@
dá@@
east.
emphas@@
giul@@
incen@@
labor
louis,
mig@@
mill@@
nicos
oka
output
perdendo
personnel@@
portal
possibility
rebelião
reserva
ridge
rup@@
sacred
sburg
songs,
tima
tribos
variable
violence
violência
ward.
yi
zom@@
ão)
"melhor
(24
19-@@
aku@@
anarqu@@
cando
casada
ceremoni@@
científic@@
curtis
desembar@@
escolheu
esporte
exactly
exile
holly
khali@@
kiss
le:
marion
mm@@
north-west
officials
ology.
pablo
pai.
quali@@
qué@@
representation
restantes
restor@@
stead@@
stone"
surfac@@
vapor
verse
veículo
vá@@
works,
11th
13,@@
15th
17-@@
2002@@
2007)
achiev@@
admiti@@
adquiriu
agricultura
alma
ative,
attacking
bahi@@
bassist
bolog@@
borough@@
central.
chelsea
circum@@
costas
câncer
erie
essential
exploração
gestão
individuais
itor@@
journ@@
joy
kind@@
meth@@
mitchell
most@@
napoleon
oxford,
patricia
photo
planetas
produção@@
project.
pum@@
ruling
sessão
sister,
space.
strategy
tan,
tris@@
uttar
videoclipe
wait
wedding
wo,
ínio
(ma@@
(november
(october
9%
====references@@
[
a:@@
acreditam
ades@@
angol@@
associados
at-@@
aviation
bm@@
broadcas@@
calendar
cambri@@
cano
car.
chile,
commemor@@
complement@@
dante
ding,
dirig@@
eis@@
featur@@
fronteiras
genre
gi,
guinea,
hei@@
imi@@
indie
irmãs
jol@@
klu@@
luigi
mato@@
máquinas
oh
onidae.
opti@@
paláci@@
parado@@
protected
raid@@
raw@@
sg@@
stap@@
strike
termina
trail@@
vegas
volleyball
ândia,
ск@@
я@@
#1
(nascida
(z@@
,00@@
3)@@
again@@
agrion
alities
armies
atra@@
auto
broadcasting
capítulo
caught
chart,
circun@@
cloud
competing
cooper
cryp@@
diâmetro
ec,
effectively
espec@@
estabelecida
experiments
gior@@
graphics
herde@@
hino
loss@@
manti@@
mistur@@
ong-@@
oriented
poem
premis@@
protocol
residents
stanford
stas
substituiu
union@@
vast
verdadeira
viena,
vitórias
º@@
ás,
ístico
"il
"ta@@
(1996)
1957,
accounts
ahu@@
aim
amizade
angi@@
apropri@@
aços
chy@@
colega
construí@@
da)
departure
eco@@
em-se
fotos
gica
goo@@
guide@@
guitarra@@
ham.
ing-@@
irão
janeiro@@
learn
malcolm
mamífer@@
mobil@@
mous
oeste.
países.
produz
propaganda
release.
reven@@
roma.
saudi
ska,
successful@@
suécia,
titular
traditionally
tripulação
vindo
violent
wool@@
ē@@
ław@@
(178@@
(1997)
(22
(i.e.,
==história==@@
==references@@
adicionais
amante
apoiar
arqu@@
ca"
ced,
cker
concentração
confl@@
congreg@@
craft
cult
diferentes.
drillia
elimination
eun@@
finish
game's
haute-normandie
ing)
izado
kais@@
languages.
mathematics,
movement@@
movie@@
nobre
parce@@
preço
rah@@
referências@@
replacement
sentimento
shiel@@
street,
suz@@
tailed
urb@@
zu
"*"guignardia
(25
1938,
===#
==history=====@@
a**@@
acos
amiga
aparições
artil@@
bot.
bub@@
celebri@@
christina
christine
complexity
conclusão
demoli@@
dezembro,
eclip@@
ed:
elizabe@@
esc@@
espos@@
estate
estratégia
evidência
exists
fortress
fí@@
improve
iri
josef
journalist
labour
manual
marry
melh@@
moedas
negociações
organisation
otherwise
partly
poesia
proper
rápida
sele@@
sville
sérvi@@
triun@@
usão
(july
15.@@
74
abbey
anno@@
apostolic
arquipélago
ashley
ates.
azz@@
brain@@
bras
contribution
dioces@@
distor@@
duplas
econó@@
engag@@
este,
everyone
exibi@@
eye@@
flows
fotografia
gerald
internacional,
james@@
john,
logo,
madri@@
nomeação
notícias
nus
obl@@
ocupou
ofen@@
optical
oxygen
passage
potência
praça
referir
retirada
sample
sch
subfamily
suíça
tempo@@
tribe
víde@@
áveis.
ê-@@
ğ@@
(19
1972)
acci@@
aeronave
aes@@
aproxim@@
architec@@
ariamente
ativamente
atuava
booker
broad
dançar@@
dl@@
eda
eliz@@
en",
equilíbrio
ery@@
evan
fellow@@
fire"
frau@@
gas,
grow
homem@@
inju@@
ishing
judici@@
lights
mapa
misteri@@
mot@@
nasci@@
nell@@
netherlands,
phoen@@
ples
poor@@
sort
speak@@
studying
task
tradicionais
trading
trailer
vs
ástica
"raw"
(2007@@
====ligações
almen@@
appoin@@
beach,
cardí@@
certos
cher.
compor@@
computação
conquered
dana
farm
hopkins
hunter
ines,
instruções
lose
margens
moviment@@
old.
parent@@
podi@@
posed
president,
presum@@
reserve
revela
rock.
russo,
sass@@
shaw
shogun@@
sph@@
tape
telling
tenth
therap@@
tious
tismo
tō@@
vić
vocals*
zur
ída
đ@@
(1993)*
(later
04
1967)
1968)
aberta
ables
aceae*:::::::
air,
almirante
ania.
appar@@
athle@@
bing
bol
budget
cage
chim@@
comentários
communities
compac@@
criticized
córdo@@
devoted
employe@@
extern@@
fu
gio,
gods
here@@
herói
instrumento
interesses
ion.
land"
lançaram
matéria
mał@@
minnesota
monaster@@
moscow,
near@@
ottawa
pattern
personalidade
phe@@
portugu@@
quest@@
rat
reduzir
releases
russo.
senator
stic
taria
terror
tracy
ule
variações
volunt@@
w)
warri@@
washington.
−
"bulbophyllum".
's,
(née
abol@@
aceitar
allan
apro@@
auth@@
balance
brad
brunsw@@
captura
companion
compl@@
crowned
cujos
es/@@
exclusive
facilit@@
feri@@
geórgia,
i.e.
idio@@
incluído
inflam@@
iniciais
kee
lach@@
leopold
links==*official
long,
opinião
orb@@
presidência
replacing
sati@@
sen.
simp@@
sos.
streets
sueca
sultão
ted"
timothy
tokyo,
unds
wer
winner@@
ć,
й
"ep@@
(1916@@
1971)
==**
apresentada
ballo@@
bank,
battles
belo
carval@@
cataly@@
edin@@
esh@@
fatores
filmografia
floresta
fresh
gaul@@
gou@@
graus
grown
iber@@
icion@@
impul@@
is".
jeannel,
joel@@
k".
latitude
law.
legacy
maci@@
mandat@@
minut@@
model.
novels
particle
país@@
penetr@@
ramos
sebasti@@
sintetiz@@
tone
traffic
trica
ts:
was,
áticas
(2008)
(september
******
1906
1915
1966)
1990s
5"
94
__notoc__@@
alunos
assess@@
bilhões
bió@@
burgo.
coat
cobre
criador
ens.
eric@@
es==*
extinct
famosos
feld@@
fico.
god,
graphy==*
greek@@
hair
hat
holo@@
hunt
indigenous
interpretar
jos
leptodacty@@
lett
lour@@
lú@@
mesa
nen
ness"
partiu
present)*
produzidos
pyth@@
rach@@
redução
rica,
shoot
spre@@
supple@@
toured
varia
version,
violin@@
weis@@
ès
š
(13
(february
10%
110
3*@@
====references==
alexandria
alists
apel@@
ativo,
base,
bie@@
bulgária
cabe@@
chard
cle
context
corner
devol@@
displayed
dispon@@
dos@@
emia
et-@@
expl@@
facing
french,
ghe@@
gór@@
heiros
henry@@
honour
imun@@
iraqi
kabak,
kick@@
liz
logo@@
north-@@
obama
photograph@@
probabilidade
ption
publicações
recu@@
relato
reveals
scoring
slam
storage
ta*
tadas
tang
teen@@
valenci@@
δ@@
ر@@
ي@@
1956,
1998@@
8th
afas@@
al*@@
and/or
antoine
austria,
benef@@
boca
bulg@@
ci,
cool@@
cub@@
depicted
dissi@@
dr
ellip@@
especul@@
experiment
factors
finally,
garcía
grupo@@
hiper@@
idades.
intellectual
ip
kin,
landed
lee,
m:
odor@@
olympi@@
parame@@
pay-per-view
perfec@@
pernambu@@
posses@@
predomin@@
protestant
py
representam
rocky
s===*@@
spencer
sucesso,
survivor
também,
tese
ty-@@
uta@@
vera
viena
ícios
ș@@
(1914@@
(mar@@
(ro@@
(x@@
1966.
25-@@
acqu@@
alidades
alternativa
antro@@
cardi@@
cemetery
collins
colony
denci@@
dori@@
elisabeth
empresário
ense,
etas
ethio@@
exclusiv@@
gers,
glen@@
gradualmente
happened
holocaus@@
inae@@
introduz@@
jake
krist@@
l"
lucy
ocor@@
pair@@
performan@@
poli
problem@@
producer.
rescu@@
road,
rut@@
serão
set.
squar@@
symptoms
transcen@@
tsun@@
unified
var
vaugh@@
vender
ventos
yale
yel@@
ück@@
…@@
1914,
1962.
a#
agriculture
amph@@
batalhas
by.
characterized
compo@@
contac@@
convinced
den.
emili@@
entanto
ento.
estudante
exibição
ferramentas
fuku@@
geographical
grã-bretanha
heart"
introduc@@
janet
libertação
malawi,
manufactur@@
mio@@
more.
nings
normal@@
p/@@
paolo
pensamento
philosopher
relatos
riz@@
salom@@
sega
slow@@
teenage
thermal
timel@@
tive.
tora
tured
viva
vírus
weapon
zonas
×@@
âne@@
2.0@@
===;@@
able@@
ace,
after,
anthropolog@@
aprov@@
aram@@
arn@@
atacou
belousov
bulgaria
cip@@
concerning
d)*
dados.
defended
dep@@
diamon@@
dwarf
emen@@
enumer@@
ero,
escócia
especializ@@
ester,
eur
eve@@
florest@@
force,
fé@@
fú@@
geography
hole
holl@@
hosts
hundreds
incident
jardins
jeffrey
jonas
leste,
medo
months.
more@@
nosso
parliamentary
perió@@
position.
pronounced
queens@@
relationships
saú@@
scott@@
shakespeare
suger@@
turns
wir@@
°c
ás.
"mal@@
"st@@
(3:@@
(9
*"a.
-in-@@
1970@@
ach,
aclam@@
anto
are,
audit@@
awak@@
bei
bennett
cade@@
campaign@@
colapso
coli@@
conus
cs@@
dispu@@
dmit@@
document
enco@@
ering
estaria
executar
fasc@@
filme@@
foster
fric@@
gear
governos
icia
inimigo
institution
jackson,
jaf@@
joshua
lava
lene
light.
loire
lutas
m's
maria,
marilyn
mistr@@
monarquia
na"
ocean,
os".
piemonte,
posicion@@
profe@@
prá@@
pwi
roosevelt
scand@@
singer-songwriter
suple@@
terminar
tig@@
vertic@@
well-known
worker@@
zol@@
érios
ús@@
γ@@
ו@@
(de@@
1954,
al;
alog@@
americano,
arcade
avail@@
ballet
bomba
cemitério
civil@@
consel@@
créditos
der"
ened
erz@@
família.
feel@@
firm
forces.
gregori@@
géner@@
herr@@
hipo@@
hood@@
ien@@
jewel@@
jordan@@
justific@@
libre@@
lumin@@
milli@@
morre@@
networks
nu
oklahoma
oriental,
pagar
perderam
petróleo
portas
pés).
rele@@
rescue
sche@@
sinopse
six-@@
símbolos
taiwan
televisão,
tent
tori@@
transferido
voivodia
éria
óper@@
(june
1/km²).
3/@@
4"
aeronaves
aled
amin@@
amongst
arbor@@
atletas
aumentou
auvergne,
bu
buddhist
colombia
comis@@
conceitos
dam,
denominado
diploma@@
dium
division,
documentário
dod@@
econômico
fat
force.
framework
ghost
ha"
hughes
interactive
ions
kenne@@
kong,
ligado
melano@@
médic@@
olo
phylo@@
pou
que"
rotação
sergei
standards
stones
teriam
throw
universidades
votes
whi@@
whis@@
woo@@
á-los
álbum@@
ético
ónia
(1992)*
1964.
a.c.
aguar@@
amed
augustus
betty
brav@@
caucas@@
corresponde
credit
cristã
decades
dh@@
down.
ds"
estacion@@
estadual
event,
experi@@
extrac@@
fest@@
gases
gh
graves
hudson
igualmente
inteiramente
kinson
lud@@
magnus
mystery
n*
nevertheless,
other.
palo@@
patron@@
pop,
porção
rados
regra
repar@@
sentiu
situa-se
title,
transforma@@
troop@@
variant
western@@
zer
»@@
áre@@
éric@@
и
"little
(1999).
12th
1902
1922,
1949,
acrescent@@
aeron@@
aying
beatles
chama
classic@@
comprou
círculo
damaged
decade
ed.,
eliminatórias
escav@@
fad@@
famíli@@
finland
gp
inaugural
indicates
intr@@
jerusal@@
k:
legado
locomo@@
monument@@
mostram
oppon@@
paquist@@
patric@@
podiam
populari@@
resour@@
roedor
seu@@
sisters
sounds
spot@@
surg@@
usa,
vez.
watson
ww@@
xiii
árvores
érico
"he
(na
0-80@@
aries,
atlas
boundary
bren@@
causar
caça
completar
concordou
consistent
contribuiu
count@@
cópia
diagno@@
dings
direto
earli@@
escrevendo
fact,
fator
functional
g)
gang
hob@@
influenciado
input
ição.
jeffer@@
kernel
kop@@
laboratório
liberation
light,
lö@@
opus
partially
petersbur@@
planetary
ple
production,
recol@@
remove
restoration
root
santi@@
stem@@
sugar
swim@@
thermo@@
thu@@
tools
tornar-se
unesco
voyage
wells
ânicos
úr@@
"cas@@
"qu@@
"tur@@
'"
(2005).
(27
ained
aleks@@
ant"
aprovação
articul@@
ati,
atô@@
bc@@
britâni@@
brux@@
career=====@@
chemis@@
columbia,
combustível
componente
consis@@
department,
direcção
direta
domingo
ent"
erik
flor
folhas
format@@
gardens
glad@@
iranian
ladi@@
lateral
mack
manufacturing
marqu@@
micha@@
mã@@
observatório
obtain
ouro,
outro@@
pa,
prostitu@@
regiment@@
relacionadas
schwar@@
si.
simpson@@
terrestrial
thar@@
try.
understand
viagens
visível
vä@@
wants
weak
xiv
youtube
ãos
"sil@@
(december
]*
abel@@
acontece
ampla
anna,
archaeological
assistance
astic
barão
brothers,
choose
cob@@
compromis@@
conventional
crossing
culture,
dados,
danç@@
depende
derivado
eclesi@@
encer@@
energ@@
equipamentos
eth
exatamente
gle@@
guatem@@
introduziu
iraq@@
janeiro.
jump
lojas
mechanics
million@@
minimum
mission,
mysterious
necessária
off,
organizado
osa"
oxi@@
pater@@
peas@@
peix@@
pinturas
psycho@@
racial
responsabilidade
rio,
songs.
springs
stage,
stak@@
success,
sweden,
síria
thol@@
together.
tool
venu@@
vezes.
vo.
érica
ê-lo
"ni@@
20.@@
41@@
acre@@
ad-@@
advance@@
ative@@
bury,
certificado
crime@@
daniel@@
dant
declaration
dente,
digi@@
doming@@
egíp@@
else@@
entreg@@
espiritu@@
films.
fisher@@
governante
graci@@
greece,
is:
juventude
kah@@
ke's
latina
lina
lorde
louv@@
lü@@
monitor@@
mosqu@@
participate
persist@@
planets
quadrinhos
quinze
radar
ral@@
roun@@
signs
suces@@
sud@@
suport@@
t).
tivessem
um"*"@@
umas
ves.
wie
window
xen@@
young,
école
"s
(21
12"
130
147@@
1903
astronomer
bure@@
coel@@
coluna
compilação
concluiu
construídos
continuing
contínu@@
crucial
dangerous
downtown
drum
engen@@
fern@@
fritz
he,
kha@@
les"
measured
milk
nicas
noctuidae
orientação
oso.
out"
paintings
passageiros
philippe
pioneer
process.
proclaimed
produces
publishing,
puri@@
rios.
schol@@
singer.
soviético
spoke
temporary
teu@@
timo@@
tz,
usos
widespread
ères
ém@@
ônibus
ő@@
ал@@
ор@@
"good
$
(14
(30
100.
19.@@
accident@@
age"
agentes
agi@@
alfredo
arsen@@
arth@@
atras@@
best-@@
beyoncé
bizantinos
blog@@
boas
buc@@
butler
comum,
cuban
despor@@
df@@
diesel
disse:
escon@@
exis@@
fior@@
futebol@@
fácil
hungria
iling
inha
irm@@
isolated
kins,
literacy
los,
may,
militar,
omys
order.
oro
poul@@
qualification
rail
rebelli@@
regularly
reman@@
roupas
skir@@
smas@@
sucesso.
sullivan
tale
toma@@
try,
universities
volcan@@
whist@@
zir
"du@@
"my@@
(january
(lo@@
1951,
51@@
al).
alge@@
aniz@@
ater
ather@@
atlanta
atp
bordo
carol
chase
coven@@
crusad@@
databas@@
decides
degre@@
determinada
deveriam
director.
encoraj@@
eus@@
fale@@
grounds
head.
homens,
ides@@
inal
iran
israel.
items
localidade
mais.
modernos
morpho@@
muda
nate
ordinary
palm
paróquia
países,
performance@@
physici@@
physics,
prac@@
produz@@
rejeit@@
sara
shall
simultane@@
solit@@
south.
struck
te's
ter-@@
tman
variáveis
zak@@
(atual
1893
1899
1932,
1992)
93.@@
acompanhado
awi@@
bagh@@
capturar
cavalaria
cientí@@
ción
cola@@
eles.
enburg
ensure
franco-@@
frequent
incidente
incluída
inherited
livre@@
lowe@@
magdal@@
maya
memóri@@
mostrando
mounted
n'@@
oblig@@
ocorreram
operacion@@
ota
otomano
pas-de-calais
perdido
perturb@@
plasma
platy@@
pomer@@
possam
quantidades
referido
rodent
screenplay
sian
song"
station,
stress
terreno
titan@@
tox@@
wcw
zhou
ências.
óp@@
órgão
"em
(1912@@
(2009)
(march
1892
2010–@@
absence
ança.
ara.
bapti@@
belo@@
bruc@@
caixa
che,
ciam
citing
colônia
concerned
criticism
cry@@
cze@@
decep@@
diretor@@
edit)
em-@@
equações
false
fired
fragment@@
frame
gospel@@
hamil@@
heigh@@
instance,
instrument
intercep@@
internet.
itos,
ive
licença
like@@
linguagens
m/@@
maine
mecanismo
membran@@
moscou
mö@@
name@@
nicaragu@@
nord-pas-de-calais
novel,
olho
ológi@@
pele
petal@@
plug@@
plum@@
pool
pp
prima@@
quez
religiosa
resolu@@
restauração
samurai
scientist
sinônimo
sistem@@
statistics
supposed
tara
taxas
tetr@@
translat@@
turismo
viria
wings
íde@@
1963.
50%
97.@@
acident@@
aco.
ae,
alcan@@
audiência
ava.
award.
caribbean
castell@@
classificado
concerts
conf@@
consequência
contest@@
diab@@
elevado
emente
enor@@
fevereiro,
fighters
formula_2
freqü@@
jackson@@
janu@@
ki"
lome@@
luc@@
meh@@
momento,
monroe
morreram
ney.
noi@@
obscur@@
ody
orchestra,
plain
próxi@@
revisão
savo@@
scu@@
shei@@
subme@@
testing
transit
trun@@
velocity
villag@@
virg@@
zia
zim@@
ília
(mais
(não
15,@@
180
1995@@
6/km²).
agrup@@
amster@@
antigu@@
blon@@
cavalry
celtic
comparison
cristo@@
dita
ego
evit@@
footage
fís@@
geological
iniciar
involves
iraque
itself.
jo,
judicial
logan
lucas@@
lóg@@
munic@@
nf@@
nord-pas-de-calais,
ológicas
pan-@@
physicist
player,
presidencial
promotional
publis@@
revi@@
routle@@
sch,
sector
sessões
solomon
songwriter
sóli@@
wang@@
yi@@
áu@@
1990s,
abilities
afirma@@
amounts
anne@@
bismar@@
club.
comed@@
companheiro
continente
correu
defendeu
dirigiu
dual
emergency
felipe
fied@@
files
funer@@
gas.
genesis
hanna
harv@@
heidel@@
juntou-se
kong@@
landing
livro,
mid
mond,
newton
noruega,
parecia
party@@
pas-de-calais.
polici@@
produtor@@
reasons
recebendo
repres@@
satélites
sist@@
sni@@
structur@@
such@@
supports
surre@@
uganda.
"da@@
"let
0-19-@@
106@@
17.@@
2007:
albi@@
argument
away@@
axiom@@
cartoon
collapse
cão
decidiram
discos
entraram
ers'
exclusively
forme@@
fur
gender
gom@@
hados
insist@@
ische
japanes@@
mercur@@
mother.
nash@@
orni@@
pista
pneum@@
preserved
progress@@
scro@@
singap@@
tion==the
traduzido
tunis@@
um*
vice-presidente
waiting
xa
zan
zon
én
х@@
)"*@@
1888
1919,
1945)
1950.
26-@@
add
additionally,
anhal@@
annie
antho@@
baham@@
beyon@@
bible
boy"
ceased
christians
claus@@
closer
collective
complexidade
controversy
céu
dang@@
deal@@
declínio
ella,
es==the
estrangeiros
evolved
extent
facto
fate
fifteen
gnu
gres@@
guatemala
h)
hebrew
hip-hop
ilha.
investigation
irene
irrit@@
kirk@@
ló@@
ortodoxa
potências
reception
responsáveis
said@@
schltr.,
shadow
sico,
sivas
so-called
sovi@@
studies,
tal,
together,
township,
trilog@@
ulti@@
vist
xii
árab@@
áustria,
ín,
ível.
"#@@
"king
01
09
128@@
129@@
14th
1898
2.5
==geography==according
_-_@@
a"*@@
ai"
archive
associate
automobil@@
az,
bridge,
cantar
canção,
casos,
clearly
como@@
condecor@@
conexão
continha
cp@@
crim@@
cór@@
descendente
dramati@@
efficient
ep,
espi@@
fatos
genera
gris@@
himself.
hyun@@
illinois.
imen@@
instruction
kawa
level,
limitado
loan
manhattan
nam
o)*
otas
posteriores
program.
purple
ratio
salam@@
sta,
stone@@
stood
suffering
syndic@@
syri@@
todd
tto
vat@@
wee@@
week,
wo
xy@@
zzo
áveis,
ústí
"ab@@
()*
1937,
1991)
2011–@@
ataqu@@
autôno@@
beth@@
categor@@
characteristic
cluster
consci@@
consideradas
cyr@@
de",
defend
differential
edinburgh
ego@@
eixo
eletr@@
escolher
establishing
facilities
garota
grammar
horizontal
idên@@
ies,
interna
ja.
julgamento
kant@@
keys
kit
km,
kru@@
lob@@
mason
mundo@@
oak
office,
originated
oy@@
periods
processing
práticas
próximas
ps.
queen's
rand@@
revolution.
rigor@@
similares
somme
strip
swit@@
te;
telenovela
trach@@
trí@@
tung@@
títul@@
uniform@@
view,
website*@@
índia.
η@@
ー@@
"back
"final
"mu@@
"rock
(29
(no@@
.org/@@
1896
1994@@
2012)
83@@
978-1-@@
action@@
airlines
aproxi@@
aulas
avis@@
borne
campanhas
chile.
chryso@@
cio,
colors
column
comm@@
confis@@
crack@@
crash
crossed
cú@@
democracy
deus@@
event.
fatal
feeling
ganharam
goods
humanit@@
idades,
institutions
ire,
ju
juiz
kou@@
ley's
midfielder
morrison
mouse
olym@@
ológicos
orçamento
participantes
patriarch
pena
piedmont,
plied
portanto
raise
recognised
resident
restric@@
retorna
roland
role.
salão
selv@@
service,
servidor
shield
sporting
sula
thri@@
tivo.
tomo@@
trazer
uga
á-lo.
"cer@@
"we@@
"é
(17
(2011)*
1996@@
1998*
:"
==references====
ahead
astrônomo
athletes
bahá'@@
beth
born@@
considerável
conson@@
contraste
definir
disk
doutor
elling
erro
escondi@@
etti
eul@@
faculty
franch@@
gibb@@
hern@@
humor
inc.@@
inspiration
invest@@
ion,
irving
johan
m*
marti@@
meis@@
model,
museum,
ponti@@
produção,
purpos@@
rebo@@
remainder
replac@@
rock"
ror@@
russos
shell
skelet@@
ski.
sophia
to:
tournament.
viral
visions
vizinhança
vér@@
(18
(lu@@
)*"scopula
1890
62@@
:00
:::
ala.
arsenal
atsu
aun@@
aw
blind
bow
bs,
cambridge:
cap
concepts
cruis@@
crypto@@
curv@@
dies@@
endere@@
environ@@
estúdios
f.,
fluid
formou-se
gregos
grin@@
harm@@
hind@@
hub@@
idéia
iidae.
ilha,
inc.,
indonesia
jules
king"
load
m),
mining
mongó@@
municípi@@
máxima
ope
patin@@
pequ@@
permissão
production.
páginas
realidade
relacionado
resor@@
ro"
romania
s"*"@@
sandy
strat@@
tering
thinking
thompson
titul@@
topic@@
tornaria
unusual
ver"
vicente
vir
wine
zar
zav@@
óli@@
ев@@
ц@@
(m.
1930.
2006:
2015.
900
==plot==@@
airlin@@
ard.
artística
assent@@
atin@@
aux@@
bai
bispos
bound@@
bár@@
cathol@@
characteristics
comentou
continuous
critic
disponibiliz@@
einstein
encyclopedi@@
enfor@@
espanha@@
essentially
fossil
frase
friendship
giorgio
guilty
hali@@
helen@@
heroes
hista
home,
hon
ia)
icio
identical
imperatriz
jornal@@
ker"
lana
love,
mammal
mammal@@
mathematician
mississippi
mother's
muridae.
nash
ofensiva
ológ@@
order,
oregon,
pací@@
policies
preval@@
prússia
quadro
quân@@
raramente
rebeldes
siber@@
squad
steps
tated
taxonom@@
te),
temperatur@@
tend
times",
today.
traç@@
uch@@
ógica
"...
"take
1)@@
137@@
1947.
1980s,
2009–@@
21st
32-@@
82@@
abbreviated
ajus@@
anyone
artillery
atuação
believes
bic
body,
britânico,
cente
commerci@@
correct
cristianismo
côtes-d'ar@@
ecclesiastical
egypt,
empty
ensu@@
ery,
ger"
gigante
guarante@@
gum@@
heir
idioma
incapaz
intelectu@@
jal@@
leader@@
marx
matemática,
matsu@@
mero
movies
notori@@
ont
ortho@@
osos,
palace,
partil@@
ph.d.
plur@@
posthum@@
pot
prision@@
ra"
realis@@
refugi@@
região,
restricted
sandra
seek
sessions
soldier
songwriter,
soviética.
sozin@@
spacecraft
style.
sure
tarefa
undertaker
vitori@@
wu
xadrez
(2010@@
(le@@
(são
135@@
15–@@
18,@@
2007*
==references====@@
adjac@@
amal@@
ambassador
americana,
artifici@@
assassinado
atuar
baker,
benefit
britânica,
candidatos
cinema,
clou@@
colli@@
confus@@
confused
cria
cyprin@@
dedicada
dependent
destruí@@
devas@@
diag@@
dindo
divas
diá@@
drake
effor@@
ense"
entering
faus@@
finis@@
fun
geoffrey
governed
htm@@
ig
influences
lançamento,
legislative
lhes
lima
ling,
montes
movement.
nicolau
oitavo
pain
parent
percent@@
pour
proteínas
raça
rei.
resgat@@
responsibility
romances
sky.
soldado
tko
ton-@@
torno@@
trabalho.
usual
vr@@
wrestlers
"geodia
#re@@
(2009@@
(by
(of
14,@@
1955,
8/@@
adultos
ah.
anar@@
ano"
arizona,
björ@@
boss
canais
cia.
colegas
contribuição
creator
culture.
derrotando
dirigida
drug@@
encyclo@@
envel@@
esca@@
eu,
experiences
extra@@
fixo
gear@@
groups,
gt@@
homos@@
incorporada
intern@@
involvement
jogando
jung@@
literatur@@
locked
moderniz@@
mús@@
neighborhood
nina
ocasi@@
ocasion@@
onica
passion@@
prima
rarely
russo@@
stir@@
tham@@
tiva,
transmission
tril@@
trouble
venus
ão*
ς
(#@@
(1913@@
140
1959)
==bio@@
acumul@@
admitted
arius
beetho@@
bers
brasão
cable
causas
cello
cional,
coim@@
crença
curva
dolph@@
dorothy
drilliidae.
dublin
dw@@
encontraram
excav@@
fia,
fundadores
gent@@
grande,
hadas
indonésia
invasi@@
kazu@@
kid
kon
latest
lesão
oferta
oliv@@
opiniões
oso,
papua-nova
per"
platina
podemos
pos
preach@@
profun@@
regard
repúbl@@
sale
ses,
shan
sings
south-western
star.
sword
talent
temos
tentaram
tradicionalmente
type@@
ândia.
ães
íp@@
ō"
ن@@
"go@@
(ad@@
112@@
acional
acro@@
alcance
alism,
apoiou
aun
bono
condenado
crust@@
deus,
dum
episódio,
esz@@
flutu@@
franken@@
hed
hidrogênio
holi@@
impl@@
intense
itação
lidar
lp
mage
maid@@
man",
massachusetts,
mbia
meses,
negotiations
nul@@
paraná
petersburg
polis,
populações
prison@@
proeminente
protocolo
prus@@
publish@@
público.
rear
saga
signing
sole@@
solo,
sp.
stras@@
themsel@@
travelled
turi@@
utilizadas
ável@@
é-@@
(11
(2010)*
(august
(br@@
1889
2010:
ación
agree
ala@@
alme@@
anderson,
anthro@@
aspis@@
bacia
berger
brasileiro.
capturado
carac@@
chinesa
colour
compositores
computing
conversion
day's
des"
deterior@@
eletrônico
elu@@
eritre@@
fruit
gales
geral.
green,
gross@@
gue,
heaven
hemis@@
hetero@@
holandes@@
hu
intim@@
investment
joh@@
kia
killer
kni@@
maram
march,
material.
moléculas
mu
oblast
ome
operates
os",
pennsylvania
phag@@
polónia,
posit@@
raj@@
realização
reportedly
republicano
ruas
scott,
segundos
sidade
suggest
t/@@
technolog@@
to)
tura.
valuable
vesp@@
von@@
windows,
yaz@@
zas
zz
île-de-france
ônicas
"on@@
(1920@@
(5.@@
17,@@
1921,
agents
asteraceae.
barra
battle,
besides
bloco
branches
camadas
cases,
cerebral
chip
colombia.
dedu@@
defensor
denied
descober@@
development.
discípul@@
dose
doutrina
ecuador,
edmund
elevated
grafia=====@@
grafos
headquar@@
ingrid
km.
lutadores
manutenção
mixture
napole@@
ned.
oria,
paredes
pharma@@
praz@@
quim@@
recei@@
s's
sb@@
smallest
soviética,
stadt
substantial
success.
sucedida
sultan@@
taur@@
tiro
tradições
turnê@@
vad@@
werner
y)*
ônic@@
—the
'the
(2008@@
(28
145@@
1935,
1954.
1987@@
2015,
affili@@
approxima@@
assault
avaliação
bar,
cam
casa.
casar
chop@@
cly@@
conjug@@
corridas
cumber@@
declined
desafio
devil
dies
discussion
eiros.
ey.
facility
feelings
fim,
flet@@
inspec@@
iriam
italiano,
ku,
legitimate
license
mainland
mcco@@
mein@@
membership
meses.
million.
monarca
napoleon@@
ning.
orquídea
parar
parceiro
personality
prisioneiros
representado
roup@@
sd@@
secular
separation
shoo@@
sor,
submarine
thirty
tidae
tiger
tribut@@
umen@@
vand@@
vizin@@
www.@@
ys,
zing
(177@@
(ut@@
::::@@
allies.
ando-@@
anga
appro@@
approached
aq@@
aspecto
bay,
bowie
cantando
carbono
cle.
coalition
collin@@
corre
d.c.,
derru@@
dese@@
desenhos
detective
diamond
dorf,
estadunidense,
estatal
eventual
exercis@@
flew
français@@
friendly
gav@@
geni@@
geometr@@
globo
grapher@@
gua
helicop@@
hendri@@
historically
koz@@
ków,
lawr@@
level.
líquido
mae@@
metros.
nebras@@
nicknamed
nucleares
organ
os;
ostr@@
ou-o
pais,
philosophy@@
powell
probabil@@
province@@
reconheci@@
resisti@@
ritmo
sacri@@
smil@@
source@@
time)
trans.
tratados
uma@@
use,
virgínia
wait@@
ño
ö
ер@@
(2006@@
1956.
1961.
1963)
96.@@
abstract
ancestral
ansi@@
appl@@
atmospher@@
carr@@
cessão
ck.
clai@@
closest
comet
credits
cumpri@@
deaths
deuses
dict@@
differenti@@
distinction
dome
filosó@@
geórgia
gême@@
harper
hot@@
inicialmente,
inu@@
junta
kb
ker.
key,
knights
languages,
le)
lewis,
lin.
merely
metric
operate
orum
parecem
park@@
recentemente,
reduz@@
released.
renault
sections
service.
simon,
steam
suma@@
supri@@
syrian
tel,
temperaturas
territóri@@
trevor
uganda,
vel,
wel
worth@@
álbun@@
átomos
âncias
ógico
о
(para
160
aco,
adams,
amoto
atribuído
cavaleiros
challenged
charl@@
coch@@
companhias
controvers@@
countr@@
dac@@
de:
depends
derek
ders,
development,
encarreg@@
entertainment.
eras@@
forces,
franquia
frequent@@
gras@@
guinea.
hodg@@
homer
illes
inducted
ing".
interno
korea.
kos
lom@@
mell@@
moor@@
myster@@
observação
ocidentais
olympics,
pacific@@
pedras
pick@@
poland,
popular.
possession
process,
psic@@
pursu@@
recommen@@
seren@@
shat@@
shepher@@
slave
stel@@
story,
surpreen@@
swift
switzerland
vancouver
variations
vehicles
vencendo
vertebr@@
wł@@
yev@@
án,
ísmo
ówka,
"life
(1993)
(warren,
03
08
16.@@
a,@@
a.m.
archiv@@
bap@@
beet@@
bishops
brilhante
ca-@@
cadeira
canada@@
captain@@
charlot@@
cobr@@
colocada
damente
demor@@
deriva
eli
envolvi@@
even@@
exchang@@
explain
finlândia
furi@@
gustavo
interpreta
isa@@
jesus,
joy@@
km)
kyo@@
lago@@
largo
looked
los.
marcel
mater@@
members,
mencionado
momentos
nx@@
partid@@
phillip@@
placa
render@@
revolution,
sej@@
selo
shift
socied@@
tendência
trico
variation
varsó@@
vely
wies@@
yuri
я
و@@
!".
(1995)
(missão
(os
124@@
2006*
92@@
abrevi@@
aces
adolescen@@
alfonso
amanda
apes@@
apresentações
attend
author,
be"
cairo
chili
chlo@@
classificou
como,
deserto
designation
diferentes,
dino
drop@@
election,
engines
enviar
facts
feet).
fotograf@@
fundos
governments
ground,
identify
indicam
irre@@
isch@@
li.
liberty
linguistic
literally
medium
metabol@@
mistak@@
ned,
negros
nim@@
númer@@
observou
office.
onne
orde@@
palav@@
pedr@@
phali@@
phere
poems
política,
president@@
prisoners
produtora
ration@@
regimento
revolution@@
richard@@
s.h.i.e.l.d.
seine-maritime
sobrin@@
substituindo
sufici@@
tech
terminando
theori@@
tiny
trinidad
vistos
voleibol
wife@@
wild@@
yon
zag@@
ílio
"mr.
(2013@@
(live@@
1918.
27-@@
actualmente
agreg@@
ambo@@
an",
ander
anten@@
argentino
ation".
ação"
barri@@
cavalo
conv@@
coral
dadas
data,
de*
dinamarca,
dying
eless
energi@@
espin@@
felix
ficada
filoso@@
flowers
footballer.
fow@@
freshwater
fronte@@
frut@@
gram
gratu@@
hence
interests
ire.
isse
itation
itens
landscape
mates
meyer
ner's
nervous
novo,
ocorrer
ola,
old@@
parede
patriarca
pode-se
points,
produzi@@
prolong@@
pursue
races
raios
s)@@
saved
sess@@
social,
space,
spy
suíça.
tenista
teologia
uru@@
vis
wash@@
weber
welsh
words,
(2010)
(23
(ao
(tv)
146@@
1911,
1958.
1970s,
1994)
2008)
2008:
94.@@
advant@@
aku
albums,
alves
amente@@
amphibi@@
anglo-sax@@
anza
artilharia
ativo.
blind@@
britann@@
burgo-@@
catalogue
character.
charter
civilian
commit@@
costume
culturais
datas
dava
de'
denominada
diane
documento
edade
emplo@@
emul@@
encial
entregue
escoces@@
estat@@
eucli@@
fashi@@
fauna
fog@@
fundad@@
fós@@
galax@@
governing
hercul@@
hills,
ias,
industry.
insis@@
ists.
jerusalém
lik@@
microsco@@
molog@@
munich
myspace
neum@@
observer
opi@@
opponent
osaka
patients
peixes
pessoais
phe
pointed
previ@@
sacrific@@
shadow@@
sophie
star,
subtropic@@
sul-core@@
supervision@@
ta)
talking
também@@
tere@@
topolog@@
total,
trabalhava
traveling
us:
vontade
waves
útil
"******
"los
"pi@@
1953,
2005*
2005:
_-_
angola
anterior.
ar)
ator"
autumn
bara
baz@@
best@@
biography@@
body.
but,
canter@@
centers
cooperação
custom
d'ar@@
davies
desig@@
desisti@@
dine
education,
equipped
erich
escor@@
ette,
flex@@
gathered
gens
gonzález
gray,
hollywood,
ine"
instead,
irmã@@
istan@@
johns
members.
missile
mysteri@@
myth@@
médicos
network.
nór@@
oridade
ostro@@
pacientes
penn@@
poland.
politici@@
position,
preferred
profissionais
proprietário
quei@@
queim@@
renowned
representou
rodrigo
sat
shen@@
shire@@
site.
speakers
teo@@
then-@@
to*
trem
ucr@@
visitantes
vivendo
zelândia
ásia.
ém.
éti@@
ír@@
"mag@@
1880
1912,
1953)
2006)
2008–@@
2009)
alterações
claire
coro
cuban@@
day",
descrip@@
educa@@
entertainment,
equatori@@
ergu@@
espect@@
example@@
execution
fascin@@
giov@@
gir
graphical
homenage@@
ig,
independentes
influente
irlanda,
iros,
japon@@
jung
kag@@
lynn
males
marriage,
montre@@
mort@@
novamente,
nápol@@
organismos
paleo@@
pia,
pica
pione@@
pyr@@
ra*
rita
rooms
roth@@
russo:
s======@@
safe@@
sidney
sime@@
stars,
survi@@
tall@@
tive@@
tornar@@
travis
tron
utah,
vê@@
xix.
zew@@
êmi@@
ни@@
(fe@@
1992*
abriga
align=left@@
americans
anor@@
apreci@@
asks
biał@@
bott@@
bélgica
celebration
compounds
comprar
confederação
contempor@@
democrac@@
dry@@
elétri@@
enri@@
ented
entin
executado
explains
fleming
foguete
fó@@
germans
gico
glass@@
ia:
inus
ison,
james,
ji,
jornais
kang@@
lars
madon@@
manner
modi@@
novem@@
offices
otto@@
outono
participation
personnel
phyl@@
popular,
propôs
pushed
quias
ray,
repeated
reser@@
salto
sans@@
sexta
shire.
shrin@@
socorro.
somme.
son*@@
subfamília
terce@@
tested
tism
titu@@
torpe@@
tório
ulares
used.
vital
volcanic
woody
x)
yr@@
"ad@@
"per@@
(1981)*
(1991)*
100,000
2004*
abandonou
ace.
acús@@
again"
ala,
alive
all-star
anders
apareceram
aparel@@
arma@@
arquiv@@
balan@@
bath
belar@@
britain,
colec@@
convic@@
cujas
dai@@
deixado
ense.
gar,
grandson
grapher
hawaii
helsin@@
html@@
hungar@@
icus
inspiração
interação
jupiter
liè@@
logos
loyal
mail@@
mess@@
mini
naked
neo
of,
oi@@
partnership
pression@@
publicly
recrut@@
registered
removi@@
resort
s"@@
salz@@
sex,
significativa
single.
sla@@
stockholm
structural
stun@@
suitable
síndrome
thron@@
tra,
transmitido
turbul@@
unix
usse@@
voices
xx.
yama
yvel@@
órica
"mil@@
"national
-like
.).
2009*
2011:
9*@@
==bibliografia@@
==na
abadia
acas@@
ages,
alternativo
aquela
arca
assinatura
ated@@
bril@@
bál@@
c+@@
c/@@
climb@@
collections
colombian
czar@@
cálculo
dancer@@
descobertas
detail@@
dor,
emprésti@@
eno,
estocol@@
explica
fisher
fortal@@
forth
hamento
informed
insetos
ix,
lisboa,
lonely
l’@@
mantido
manufactured
maran@@
miller,
monst@@
narrow
nevada
opon@@
paraí@@
ponta
produções
quick@@
rebel
religiosas
rogers
shuttle
sixteen
sq@@
stall@@
tch@@
tribes
usa.
vencedores
vic
white-@@
win_
works.
zem@@
índi@@
ω@@
й@@
"ha@@
"si@@
(3,@@
0-67@@
105
1940.
1961)
7/@@
agosto.
andar
apont@@
arrecad@@
bang
bore@@
budap@@
croatian
dex@@
diameter
disputado
distinctive
divorci@@
dn't
eck@@
eiros,
embaixador
entertainment@@
es)*
esia
evolutionary
falantes
gerente
hear
himself,
honda
hospital,
ic:
implemented
invol@@
itos.
josé@@
kyle
moç@@
neighboring
nurem@@
opsis
paixão
palestr@@
perspectiva
phantom
placing
port,
prospec@@
quaisquer
quest
saler@@
segui@@
sugges@@
tensão
testi@@
vieram
winds
zac@@
áfrica,
áudio
äl@@
ço,
þ@@
ла@@
"two
's.
(2011)
(2014@@
000.
1901
2009:
ada"
ado)
advog@@
ait@@
alicia
aling
angela
areas.
athens
atração
austro-@@
açú@@
baseadas
basil
basin
chicago.
chromo@@
compatible
considera
content@@
conversão
convidados
cornelis
des-@@
descendants
difficul@@
dupl@@
eleitor@@
ensemble
ental
estimul@@
fato,
ferrar@@
gee
gis@@
goe@@
grass
guitarr@@
heiro,
impedir
inch
ingl@@
intermediate
inúmeras
ity",
kn@@
knowle@@
livres
mais,
mangá
manuscript
meia-@@
mercad@@
mollusc
monarchy
morgan@@
newspap@@
org
paró@@
proceedings
proposal
prussia
scholar
seattle
sol,
stimul@@
suburb
summit
synthes@@
television,
terren@@
toscan@@
treasur@@
tsu
turkey
voz@@
vítimas
welcome
year's
ب@@
(1985)*
(26
05
1949)
1993@@
350
==recep@@
aconsel@@
alabam@@
albânia
anas@@
assunto
bancos
belgium
belong
bibliography
blen@@
burkina
burns
cave
cf@@
châ@@
coen@@
communi@@
concedido
conscious@@
cristi@@
deba@@
depth
desas@@
diseases
dispute
diverse
dobr@@
dock@@
eiro,
eles,
enx@@
escaped
explicou
falha
ff.
fill
fin
foundation,
galaxies
georgian
gon
id=@@
impe@@
jackie
kay
kowo,
legendary
ls@@
luna
mation
mirror@@
nephew
ply
push@@
rated
religioso
responsi@@
rio@@
rumble
ruth
seemed
seguintes,
seine-maritime.
sobrinho
suc@@
sui@@
symbols
tali@@
tênis
vampire
vias
yok@@
łę@@
β@@
(2)
(2012)*
(on
126@@
2012:
==referências@@
altitude.
angels
anger
atis
auguste
aure@@
bons
briti@@
brus@@
cdp.
clark@@
company's
compôs
controversial
critics,
demonstrated
dinâmica
discovers
do*
estágio
eventualmente,
expensive
exílio
feld,
fico@@
fier@@
flags
gaining
hain@@
harris,
herman
historic@@
home.
hunting
immigr@@
inglês)
injury
inspe@@
iz
jericho
korea,
laborator@@
lili@@
listas
m).
maced@@
matriz
mented
ming,
months,
motivo
movement,
n'
need@@
nigeria,
opa@@
patterns
performance.
picked
pod
presents
quat@@
r&@@
reações
recurso
reforms
remain@@
río
saints
settle@@
shrubl@@
ston.
teat@@
terrestre
thomas,
toyota
variável
woods
île-de-france,
ς@@
"com@@
(2005@@
2005)
appointment
arras@@
biology
blas@@
buch@@
buy
candidates
casamento,
commented
concerns
contar
cuc@@
decorated
deixaram
democracia
dente.
distinção
district@@
eduard
espanhol.
existentes
exp@@
experimentos
forests.
frater@@
fósseis
galáxias
gust@@
haver
hypothes@@
i/@@
idol@@
indicated
kes,
lian
ma)
makeup
mantis
marido,
mention
mexicano
minamoto
ministr@@
musical,
n's
neighbour@@
ories
paquistão
pard
passi@@
pensa
permitem
publi@@
quia
restrições
rhode
ria@@
secretar@@
sentenced
shad@@
skills
sobreviventes
spin
style,
supporters
suppres@@
syndro@@
teatr@@
technology,
theological
thing"
ultrapass@@
ven,
vent
vian
wade
"es@@
-to-@@
1959.
200,
4*@@
98.@@
].
accident
achievement
algorith@@
apresentando
archives
arábia
ast,
aum@@
boun@@
bul
bum@@
cabr@@
campeonatos
carreira,
cobertura
colômbi@@
confiança
cori@@
court@@
disney@@
doug
es=====@@
exibida
ficam
grão-@@
guang@@
guid@@
hannah
ight@@
inoc@@
invented
jit@@
jr.@@
kaf@@
kristi@@
legs
lombardia,
londres@@
luta,
na's
nocaute
olga
oxford:
p.,
pakistan
pierre-@@
plate@@
plen@@
prêmi@@
reaches
regulares
rett
schil@@
shef@@
spirit@@
station.
tenente
theatre,
toron@@
trust
tua
ue@@
utah
war"
zhang
ália
ênio
"dis@@
"do
"th@@
(1994)
(car@@
(dall,
00–@@
148@@
16,@@
1913,
20,000
2012–@@
==plot@@
aceita
afro-@@
agar@@
and's
antholog@@
anualmente
anças
ari.
arts,
atoms
atures
batalha,
biolog@@
brevemente
byron
caráter
civili@@
coins
colômbia
consag@@
cristó@@
discussed
double@@
elena
elétric@@
enthusias@@
enç@@
equador
esa,
feminina
glouces@@
gron@@
hes
hospital@@
hung@@
ia's
idal
integrante
ke*
kenya,
kev@@
lawy@@
lent@@
ligeiramente
lima,
marcel@@
middle@@
montana,
muçulmanos
nonstop
noti@@
nova,
observation
ocorrido
offering
pairs
pensam@@
prag@@
prejudic@@
propri@@
qing
qualifying
quente
register
renânia-palatinado.
roads
row,
samples
seem
shaf@@
sicíli@@
software,
spee@@
tant@@
te*@@
treze
tural
twentieth
uruguai@@
v)
variam
vel.
wealthy
willing
ří@@
천)*@@
"a.
(1979)*
(2002).
(2004@@
.org@@
06
136@@
1946.
2%).
2013–@@
==notes====references@@
abandonar
adelaide
alla
amazon
ancest@@
answer
appli@@
appreci@@
avat@@
aver
banglades@@
batiz@@
bavi@@
berkeley
bernardo
biblical
birthday
blad@@
blu-ray
ce",
centered
collaborated
compositora
comprises
concentrated
conto
controvérsia
crav@@
câmera
data.
degrad@@
donna
els,
emperor,
enre@@
eux
fa,
fallen
fare@@
fe.
friday
grécia.
guitarra*
guitars
horse@@
impossible
interpreted
iraqu@@
kry@@
language@@
machines
matil@@
monument
negóci@@
offer@@
organizada
permanecer
potter
provar
quartet
requested
salas
sicil@@
stars.
surge
sweden@@
tach@@
televisão.
ten.
thorn@@
tivi@@
todo@@
twitter
ucrânia
vendidos
vere@@
visitar
wed@@
zida
ências@@
"so
')
(1988)*
(2004).
(bar@@
(uncredited@@
)***
-o
1910,
1920.
72@@
:the
a.c.@@
alfab@@
andrew@@
argumento
backed
betr@@
brooks
bundes@@
burgundy
da:
defending
denis
divide
dor.
duck@@
emil
enrique
esportes
estocolmo,
etapa
faro@@
favour
fina
fortalez@@
fresh@@
handed
holland
househol@@
hug@@
ina"*"@@
incar@@
ing===@@
jov@@
kas
lakes
leste.
limits
lined
liu
loved
mahon@@
majest@@
mandar@@
masco@@
maç@@
mergul@@
microhy@@
mili@@
monet@@
musician,
nigéria,
norte-americana.
numerosos
odon
ofereceu
om,
ou-@@
pack
performance,
posição,
raízes
respondeu
restore
sette
sius
sovereign
stadium,
sugerem
sylv@@
top-@@
wiki@@
yer
áqui@@
í,
"et
"ru@@
(eds.
-lhes
1885
1891
1900,
1931,
1934,
1941.
1965.
80%
84-@@
ager
américa,
ando-a
antly
areas,
aventura
bee@@
beir@@
bid
bor
bowi@@
campania,
catalo@@
christianity
concílio
confirmado
consequen@@
decl@@
depo@@
design.
duplo
edith
events.
externa
firm@@
housing
husband,
initiated
inno@@
itself,
ivory
juris@@
kic@@
lenda
live"
minist@@
minority
mush@@
nativos
o'bri@@
objetivos
oli
olímpi@@
organizar
organizou
passenger
paula
presidenci@@
prey
propul@@
ranging
redon@@
revistas
ringu@@
ro-@@
ronnie
sacerdo@@
seeking
sha
tanzania,
tecido
tis,
transliter@@
va.
velmente
vienne
visiting
zeit@@
zeppelin
áquia
!!
"hy@@
(e.g.
(embaixada@@
-lo
109@@
1861
1916,
1925,
1926,
1960@@
8*@@
adventu@@
alba
anony@@
aquil@@
architecture@@
assistência
avenue
block@@
buf@@
cabin@@
caracterís@@
ceu@@
chad
client
co.@@
codex
communauté
comprehensive
computa@@
consciência
costuma@@
cott@@
croati@@
decisões
depos@@
disciplin@@
division.
doesn't
dominante
ely,
enemies
eries
espectro
eua.
fed
freqüentemente
fs@@
genes@@
gerais,
globul@@
governament@@
grandfather
gregório
guild
gött@@
hok@@
holmes
implementation
inteiro
isted
kiev
kine@@
lamb@@
lewis@@
magazine,
marina
matagal
meiji
midnight
moderate
novela
orle@@
ouvir
page,
parl@@
perfeit@@
picardie
polin@@
postal
prédio
quick
resear@@
riam
seized
sponsor@@
suite
syll@@
synthesis
theatrical
thirteen
transformação
trophy
ts",
us$
vare@@
vegetal
wear
wheel
y/@@
ès-@@
últi@@
"where
(1982)*
(ab@@
11–@@
125
144@@
2_
adver@@
ako
analog@@
aprendeu
arch
association@@
baldwin
beas@@
bolsa
champion.
chir@@
clon@@
colis@@
com/@@
companheiros
comparado
conduct
dans
dele.
demos
derrotaram
descent@@
diversi@@
dong
elek@@
emiss@@
enterpris@@
ernesto
españ@@
explorar
i'll
i've
infanti@@
interaction
ising
lah@@
lau
litt@@
looks
marcas
mesmas
mh@@
molecules
murdered
music"
nal
nette
nos,
oliveira
or-@@
palae@@
pastor
pesados
pist@@
plethodon@@
porsche
preliminary
preparação
purchase
quiet
reconcili@@
reflected
respective
rop@@
sched@@
sicili@@
simpson
snak@@
sponsored
testament@@
text@@
unless
váli@@
wwe@@
yard
ísti@@
über
ко@@
"cal@@
(1919@@
(br:
02
139@@
1993)
2004:
abund@@
affair
artís@@
as)*
atualiz@@
baroque
behav@@
black,
cassin@@
cional.
consor@@
contamin@@
czechoslovak@@
date.
dawn
decreto
dedi@@
download@@
edif@@
editorial
else
emotional
enberg
enh@@
episcopal
escritora
espada
fabaceae
falada
fergus@@
ffy
filhas
finalização
finance
frances
glor@@
grafia,
grosso
hrad@@
imor@@
impressão
infantil
ington,
injec@@
kau@@
landês
ley*
listing
magaz@@
massac@@
meet@@
nato
netherlands.
northum@@
ony
opo@@
other,
piau@@
pilo@@
politician,
posição.
precursor
puts
real-@@
regente
rulers
ses.
shah@@
shannon
sight
skul@@
sonda
striker
surge@@
sut@@
thanks
there's
tied
toria
velho,
viajar
vocals*@@
watch@@
ína
"history
"micro@@
(176@@
(died
)*""
1894
1960)
1980s.
2".
2;
90%
actr@@
agrícol@@
alabama
altitude,
apocalyp@@
atitude
basse-normandie
botanical
burmese
claim@@
computers
conclusion
contradic@@
corporate
cristão
currency
côn@@
dami@@
descend@@
dirigir
eme@@
emprego
envolvimento
estro@@
fuga
furthermore,
gregor@@
guinea
gym@@
hiro
históricos
ie,
ii",
integração
inter-@@
invaded
ki-@@
kids
kut@@
l)
liderados
loire@@
lois
luísa
menina
mercen@@
monk
monster
nd
ocasionalmente
paten@@
photos
printing
propósito
prototype
recurring
reflex@@
reggio
reinos
relacionada
respe@@
retirement
rhyth@@
scholar@@
seriado
sid@@
sively
son"
spend
stab@@
straus@@
thernmost
tra.
variante
"s"
(i.e.
(se@@
*a
07
101
107@@
17–@@
1915,
1939.
91.@@
`@@
aboard
abyss
ader@@
aggreg@@
ahmed
al==@@
ani.
antecedentes
barber@@
barco
bohem@@
catholic@@
cich@@
cometa
contain@@
contos
cp
cryst@@
cyrus
departamentos
divididos
do-o
du-@@
egi@@
egs@@
en:
eon
escapar
filo@@
guiné.
institute,
iraqui@@
jaw@@
jura
könig@@
laugh@@
lecture
legiti@@
light"
madhya
martha
memórias
merch@@
metal.
milão,
mologia
mínimo
nano@@
negócio
nobres
para@@
paris:
parks
pe-@@
phillips
planes
pompe@@
procurar
proxim@@
recent@@
reviews.
rollin@@
ruther@@
serbia
spiral
taiwan@@
thes
tsar
vocais@@
windsor
withdrew
wu@@
łu@@
"never
(2002@@
(an
),@@
1965)
===after
b"
belonged
blue@@
calvados
capaci@@
celestial
chass@@
checoslov@@
city"
clan@@
clay@@
coal
colspan="@@
combus@@
composer,
configuração
consumo
cott
dame
de)
diante
do)
dominican
elevada
espel@@
etymolog@@
fire,
ges.
harvar@@
helping
heró@@
imigrantes
independ@@
intelligen@@
iren@@
iy@@
ko.
la"*"@@
led.
let's
lowe
mali
marg@@
moul@@
mís@@
nea
oct@@
ovice
pac
persecu@@
photography
pid@@
poemas
puni@@
q.
reed
results@@
retrato
ritual
road.
rocha
ropo@@
s===*"@@
sc
sharp
specialized
supremo
síntese
testament
tests
tip@@
vampi@@
verde,
wester@@
ì@@
"red
(2012@@
(known
(sometimes
1933,
1949.
2004)
7%).
==história@@
afri@@
also@@
archdiocese
arizon@@
armstrong
ask
authori@@
automatic
ação:
baby"
bônus
calvados.
cedo
college.
comunicações
cooperation
cous@@
discover
disfar@@
dn@@
domés@@
electrons
employ@@
entusias@@
escócia,
esperado
exi@@
failu@@
fleet@@
forcing
gastro@@
generaliz@@
graphi@@
hellen@@
henderson
ia",
independentemente
indicar
ingredi@@
inhabited
iras,
izada
jed@@
lançamentos
literature,
mano@@
minnes@@
monumento
occasion@@
ocean.
ohio.
or's
oured
ouro.
pas
peoples
phori@@
population,
q,
reson@@
sleep
subsequen@@
tennessee.
u2
ukraine
usage
warm
whilst
xviii
(2003).
)"#
)==see
1929,
1960s,
3%).
<
a")*"@@
acontecimentos
aint
ango
approval
arden@@
armé@@
atmospheric
bois
bolivia,
botswana,
chamar
clarke
completou
copies.
cornel@@
d.c.@@
daughters
duncan
dynamics
eca
el's
elas,
enviada
europé@@
exploration
fann@@
first@@
forum
fujiwara
goli@@
hesse-@@
ician
indonesia,
is")
ited
kentucky.
leta
lifetime
lorraine
low,
lowest
ma:
madura,
matters
mccre@@
melody
montreal,
o'ne@@
occasi@@
ode@@
ods
pant@@
patron
paz,
penguin
pepper@@
possib@@
produção.
rendo
rocks
rö@@
schmidt
semanas,
sequências
shig@@
subjects
survival
tay@@
temporal
towers
tricho@@
usava
viktor
weeks.
wein@@
whatever
woul@@
wounded
xavier
y.@@
çõ@@
łow@@
"music
("a
1*"@@
133@@
1884
1944.
1950s
20%
90.@@
</@@
==sinopse@@
abra@@
accumul@@
agonal
alt@@
attack.
austin@@
belga
boh@@
cain@@
calab@@
cannes
competir
court.
dash@@
descr@@
desempenhou
dimentos
disputed
duties
ed;
enviados
eps
fico,
florida.
glory
gravity
helps
homel@@
house"
inclus@@
ine's
iros.
ish-@@
lette
ligada
liked
lâ@@
magnético
mantendo
marshal
matando
matou
menino
mund
narrative
ninguém
ong,
oregon
parap@@
porter
portos
provou
páss@@
públi@@
reconheceu
rush
saturn
sciences,
seats
shares
sinf@@
site@@
slovak@@
sobretudo
soccer@@
sura
synthesiz@@
temente,
ts".
ugg@@
umb@@
un.
ungen
visitors
wyn@@
yuki
ês)
ń,
α
ра@@
"har@@
"jo@@
"se
've
(4:@@
1923,
1948.
1952)
1957)
2,000
acho
advice
alism.
anunciada
as*@@
ative.
attending
austríaco
batizado
beck,
bias
burn,
campon@@
carlo@@
cineasta
citizen
clam@@
colocados
comic@@
competitive
composit@@
concern
continuação
desenhado
died,
dificuldade
diversity
drogas
drugs
dylan
e/ou
elétrons
evento,
evil@@
existente
exército,
forever@@
franchise
genética
giuli@@
goddess
great-@@
gêni@@
hic@@
hitch@@
ilus@@
increases
industry,
instructions
intention
interrom@@
ites@@
k*@@
kash@@
leigh
lita
lu
luter@@
maxi@@
melbourne,
mirror
mission.
mississippi,
mü@@
notion
oit@@
omni@@
oth
ou:
phrase
pick
pilotos
propon@@
proteins
re",
reactions
regularmente
rha@@
romano,
ruínas
sainte-@@
sakai
say,
sentimentos
significativo
sindic@@
stephanie
strings
suspended
também.
thrash
timber@@
timor@@
tribal
valid@@
version.
virgí@@
vol
westminster
wilhel@@
willie
woman@@
"eu@@
"like
"vol@@
(1978)*
1947)
2001*
2ª
accus@@
acet@@
al's
ano*
appropriate
ators,
attempting
bourne
bulgari@@
bus,
cards
claramente
clari@@
conduz@@
câmer@@
developers
diet@@
disci@@
eceu
econo@@
enda
enses
equipamento
err@@
essencialmente
fairly
fenômeno
flamen@@
fronti@@
germany's
gost@@
hammer
horário
hostili@@
inaugurado
indígen@@
infra@@
interest@@
inúmeros
jas
loves
magis@@
maps
mechanism
messen@@
mist
moti@@
mouth,
norway,
october,
olomouc,
pattern@@
percy
pianista
playoff@@
pole@@
porte
professores
referring
requer
sand
seguin@@
sing,
sivos
sley
software.
soprano
spectrum
subsidiary
sucedi@@
sworth
syria
terapia
third-@@
thriller
treati@@
troféu
twit@@
uk.
varies
verlag,
zero@@
ções@@
ício,
œ@@
"ex@@
"not
(1990)*
172@@
1957.
2000*
2006–@@
95.@@
a&@@
adora,
aimed
al-q@@
alpes
assisted
astronomy
behalf
benin@@
britain@@
cemeter@@
clinical
compra
conflu@@
conhece
conter
demp@@
denmark,
edis@@
ez,
fór@@
gale
handbook
heights
humph@@
ides"*"@@
igna@@
indicating
intui@@
iné@@
ir-se
itáli@@
izar
jar
kenny
landscap@@
landês.
localizados
lyon
ma",
marcado
massas
meli@@
mortes
motivos
ni,
ocer@@
operational
passag@@
permaneceram
pleuro@@
poderosa
poison@@
pola@@
policial
pra
presentation
processor
prop@@
punish@@
recipi@@
recovered
recre@@
retali@@
reuniu
reverse
romena
s===the
sabia
sach@@
schum@@
scientist@@
seca
site*
sol.
spending
stalin
subsidi@@
te).
tecnol@@
termo@@
updated
vier
view.
yeong@@
zur@@
áticos
ò@@
únicos
"k"
"white
(one
,:@@
1905,
2003)
50,000
==após
\
alessandro
alleg@@
arquidiocese
ation==the
atom
avenu@@
aéreo
bale@@
baron@@
best-selling
book.
burton
cate@@
cem@@
chick@@
château
corren@@
correspondente
counts
cristina
cuidad@@
cérebro
desenvolve@@
deusa
difí@@
donal@@
dong@@
dwar@@
dência
edmon@@
elogiou
elvis
equations
escravos
faster
fei@@
frame@@
freem@@
funciona
fund
gari@@
gené@@
great@@
habitu@@
humor@@
hões
ias.
igreja,
imigr@@
imprisoned
indeed
ingleses
ini.
interview@@
laran@@
leaf
legends
ligados
make@@
ministros
monster@@
orlando
ortodox@@
paint@@
pensilv@@
pittsburgh
privada
processamento
pés
ques,
regress@@
revival
richar@@
rosto
sexuais
simultaneously
skil@@
suici@@
sétima
sú@@
tamb@@
taxonomic
texi@@
thuringia,
tomás
tours
troph@@
título,
veloc@@
vendendo
zagre@@
zeal@@
ób@@
"rap@@
(londres,
102
1895
1962)
1990s.
1996*
abad
abas@@
aglomerado
argues
aspect
asta
atio
aventuras
below@@
berkeley,
bia.
blues"
canta
cento
chol@@
chromis
citado
clientes
começam
conve@@
counter-@@
cozin@@
custos
delic@@
descended
descobri@@
directors
dono
doors
doro@@
e.g.
edwards
english-@@
espanhol,
estradas
exag@@
faction
fia.
foundations
georgia.
gida
goog@@
hall.
happin@@
haram
hava
holiday
i.e.,
igen@@
illa,
incer@@
inher@@
intermit@@
interval@@
ka"
kauf@@
kills
ly"
man-@@
manuscrito
martín
masculino*
militar.
moto
myo@@
orto@@
os),
pares
part,
plain@@
plate
preser@@
recomend@@
representada
reveal
rus
s,"
saar@@
saône-et-loire
sensitive
shackleton
solo.
solutions
soluções
somá@@
theology
tn@@
trinity
triumph@@
trivi@@
ular,
versus
wood.
worth,
árias,
éis
épo@@
ônica,
ά@@
"get
"pa@@
(2000@@
128
1863
1ª
afterwards
agnost@@
albanian
ansel@@
anus"
arte,
ascendência
assassination
assist
athletic
augustin@@
bird@@
bíblia
caz@@
circulação
city@@
corporation,
cosmonau@@
dale@@
deport@@
died.
door@@
egg@@
emas
empir@@
ensis.
escudo
eury@@
express@@
facebook
focuses
funk
go*
grup@@
in)
jun
ken,
kinds
kv@@
literature@@
meia
nagas@@
one's
ore,
peculi@@
point.
politi@@
program,
prohibi@@
resource
room,
s**@@
science.
sheri@@
shima
significance
stau@@
tantes
theologi@@
tia,
tolki@@
trata
turíngia.
uto@@
vik@@
warning
who's
árias.
û@@
대@@
"impatiens
"ten@@
(2007).
(2013)*
1948)
a";
abrir
afghanist@@
an-american
apul@@
atingido
av
base.
belgr@@
bíbli@@
cabelo
cache
clean@@
compact
comum.
crystal@@
cw@@
câmar@@
darwin@@
di"
direcion@@
direct@@
domé@@
don.
dougl@@
drama,
dvd@@
ece
empi@@
etos
f.c.
fare
fragmentos
gamma
geneva
hardwar@@
hö@@
icamente,
impressed
industries
iniciado
injur@@
intel@@
ise.
jose
kle
lake,
league:
leipzig
leve
louisiana
manni@@
marav@@
marcando
ministers
mith
mobiliz@@
morav@@
munique,
note@@
ohi@@
opinion
pegas@@
permission
pre
president.
promised
reclam@@
samo@@
saw@@
schem@@
se",
secção
snails
submitted
supercopa
tai
tanque
teach
tion*
tourism
transportation
vegas,
warriors
xv
ya.
year-@@
zü@@
ástico
ф@@
"des@@
"sum@@
"trachyuropoda
*john
11)
2007–@@
2013)
5%).
5*@@
a!
acom@@
adaptado
ain't
alimentos
alten@@
antece@@
arrondisse@@
ará@@
athlete
australiana
away"
banned
behavior,
beverly
biz@@
blake
bou
building,
by-@@
cabeç@@
carmen
cash
centre,
chlori@@
chur@@
constituído
depart@@
difficulty
doutorado
ed-@@
eficiente
eliminated
essay
estelar
exteriores
formula_3
frontier
gráficas
gênio
helicópter@@
humbol@@
ika
irlandes@@
ish.
istão,
item
june,
kiri@@
koso@@
laos,
line"
lit
mand@@
marquês
mi,
ocu@@
on".
orleans
ota.
passion
prae@@
present)*@@
rangers
rani@@
releasing
remaster@@
researchers
ruins
saab
safe
samu@@
seat@@
sena
services.
sharon
skill@@
soil
ster.
struc@@
sver@@
territory.
tivamente
tividade
tourist
trabalhado
traz
trit@@
turquia
vancouver,
virgini@@
voos
봉;
"ap@@
"world
(1989)*
(2011).
1958)
80,
adotou
africano
alejandro
alphabet
aprendiz@@
artist,
bahia
britânicas
bye
byzanti@@
cele@@
cliente
completing
confederate
controver@@
countess
cripto@@
dama
demi@@
department@@
deton@@
discour@@
dispat@@
dressed
eagle
eda,
elétrica
emilio
emphasis
erros
es")
espon@@
essay@@
explicar
freddie
friul@@
galile@@
grama
groups.
injured
jesu@@
kav@@
lied
linu@@
literalmente
lithuanian
ltd.
luther@@
matic@@
maus@@
mbi@@
mccl@@
mongol
myth
nc@@
night.
nobreza
off-@@
organised
participações
percebe
perceived
persa
pha
pitts@@
ples@@
podo@@
possi@@
presos
remembered
revolt
rhineland-palatinate,
rotation
sawy@@
significativamente
slowly
substituição
suddenly
tecnologi@@
terremo@@
tiva.
tomaram
transtor@@
ually
us";
venture
victims
video.
vietn@@
week.
wider
české
ō,
"ca@@
"impact
(2006–@@
(as@@
(permanent
1848
250@@
88.@@
9:@@
ac.
achi
afterno@@
alpes-@@
altura,
ambigu@@
ardo
ativi@@
atul@@
b.,
bourgogne
branco,
cac@@
campeã
centuries.
conceived
conduziu
consist
consistia
criadas
criaram
cuba,
curta-metr@@
demanded
discussão
dona
emmanuel
etió@@
exib@@
f/@@
ferramenta
fita
gele@@
gio@@
god.
gü@@
harald
icity
indian@@
indonésia,
iniciativa
irus
ite@@
jamaic@@
ji.
jing@@
jovem,
larga
lawyer
learns
led@@
lutando
maryland
mentions
minutos.
mt@@
nepal@@
onidae
ously,
parasi@@
patriarch@@
philautus
produzindo
progresso
prús@@
ptole@@
público,
quel@@
reconhecida
replic@@
saône-et-loire.
select
sharing
shell@@
telescope
templos
ter)
toni
transformed
trata-se
travels
ts)
ultravio@@
vladim@@
weal@@
wright,
zzy
ísta
"there
"vo@@
('@@
(175@@
(1990)
(bu@@
(q@@
1871
1878
1943.
1955.
3.5
acusado
adm@@
alphab@@
ando.
ane,
angios@@
appeal
aproximação
argy@@
as:*
asking
astron@@
añ@@
benedict
bing@@
bizantin@@
boot
bush@@
cai
caliph@@
cigar@@
closing
commentary
contêm
cotton
da",
dau@@
daí
dealing
declarado
deli@@
diagram@@
doubs
eat
enos
falecido
fict@@
filmes,
frankfur@@
grão-duque
ila,
immor@@
implementação
include:*
inhabitants.
intervenção
keyboard
keyboards,
lançadas
maiden
mara
mccart@@
meto@@
mill
missil@@
mr
nant
nomencl@@
nuc@@
outbreak
paleonto@@
perm@@
pokémon
possuir
presidente,
primitive
quarenta
quinte@@
receb@@
receptor
reflect
release@@
reno@@
rough
s*"@@
sitcom
sket@@
smi@@
statistic@@
stewar@@
studios.
style@@
survive
sü@@
tartar@@
teza
tian@@
tip
tomor@@
traged@@
uncertain@@
violino
wet@@
xim@@
xvi,
z)
zação
éria,
ísticos
órgãos
1881
1912.
1928,
1934.
20,@@
99.@@
acabar
addressed
ages.
aguil@@
aman
anas,
apelido
arcad@@
aritmé@@
arrangement
ary"
as====@@
atenas
atingindo
ators.
avro
baixos,
baviera.
beating
bento
blair
bund@@
buraco
cao
caracteres
champion,
chorus
cinema.
compiled
compli@@
consideram
copper
cw
cácer@@
dinosaur@@
discography
drac@@
efetivamente
embaix@@
escul@@
esfera
establis@@
esteja
etz@@
exempl@@
expand
explanation
fantasia
feather@@
forman@@
founders
frs
god's
guan@@
gue.
hindu
houston,
identificar
implant@@
indústrias
infan@@
inglês:
intelligent
iores
keep@@
kent@@
kepler
laus@@
let,
libelinha
logic@@
lombardy,
mape@@
mary,
melissa
metros,
miami,
michele
monarch
morcego
morrer
museum.
observado
parte,
personally
pesco@@
picar@@
pictur@@
poló@@
prelimin@@
problems.
programme
promes@@
pô@@
queen@@
relief
religion,
retri@@
rim
rockefeller
seo@@
shelley
shopping
skie,
spic@@
static
superiores
swif@@
sé
theod@@
throne.
till
upp@@
voting
wake
washington@@
én@@
íveis.
świ@@
ン@@
"das
"specklinia
"t"
(1977)*
<www.iucnredlist.org>.
==espéci@@
==references====further
==villages==gmina
alcal@@
anting
assimil@@
basílica
berlin.
bios@@
brigada
casu@@
cerem@@
child.
chilean
chineses
comprising
cultures
cylin@@
deer
dele@@
devast@@
diam
dob@@
doctrine
ed)
enjoy
es"*
fame.
fér@@
genu@@
gian@@
gmina
hai
harbor@@
ieee
impedi@@
indicando
jacob@@
judy
july,
jurí@@
kov,
lama
lara
lichoder@@
marat@@
moda
monthly
moore,
mutual
natalie
obe@@
ona.
opera,
option
overseas
pacote
passengers
placas
psiqui@@
públicos
quadrad@@
record.
reduction
renda
resign@@
retrieved
rumores
sexual@@
star"
stored
stuttgar@@
suzu@@
teto
th's
uki
valley,
watching
writes
wrong
xon
ício.
"sun@@
(1989)
(1992)
1867
2001)
3000
==after
abrup@@
achou
affect
alcançando
amento@@
andrés
answer@@
aplicado
aries.
aring
benny
birman@@
blast
capric@@
causando
champag@@
choc@@
cket
congress@@
cript
db@@
editado
escand@@
estatísticas
ester
explorador
exposed
face,
hoch@@
holandês
incêndio
intervalo
ister
istão
iting
jorn@@
kron@@
lepidoptera
lington
lords
mckin@@
midfielder.
mixing
mma
molé@@
máscar@@
never@@
nº
obtido
ocupado
operator
orlé@@
puy-de-dô@@
raphitomidae.
reagan
recommended
reconstrução
research,
sad
schaft
sergio
shang@@
show's
sudan@@
suic@@
surrender
temperatures
tournament,
transformation
ui
university@@
venen@@
voto
women,
world",
worldwide.
árabe@@
área.
ò
ólogos
е
"at
"who
(1918@@
(1988)
(vi@@
1897
19,@@
1917.
1927,
1956)
1976@@
2000)
2005)*
2006)*
30.
92.@@
:==@@
==geo@@
abak@@
alic@@
areia
atol@@
ball,
bled
bolívia,
bonnie
brab@@
brancas
brigade
budist@@
bö@@
calder@@
christmas@@
clive
constantemente
cristã@@
célula
daphne
dolph
drak@@
duet
dvd,
emitiu
ench@@
engineers
entidade
envolvidos
error
escolhida
escócia.
eta@@
eventually,
explicação
explosão
exposure
extensively
fourteen
frequentou
gate,
glomer@@
gonna
hima
hoje.
igor
impostos
iniciada
jean@@
knowing
lindl.
marcha
mudaram
musical.
mutu@@
natural,
nett
nier
norueguês
opção
ova,
pertencentes
pioneiro
pontos,
pró-@@
psis
rca
realized
retain
santana
seguidores
seth
soc@@
spectr@@
submarin@@
teclado
teod@@
trist@@
twil@@
utili@@
vam
vendé@@
vitam@@
ândi@@
è
ônios
ин@@
"ko@@
(2000).
)men's
152@@
acabaram
acad@@
aeros@@
aka.
ales"*::::
alexandria,
anian
apoiado
aridade
avn
barrett
bavaria
berli@@
biologia
bium
britânica.
budějo@@
capitol
chain@@
chefes
cinemas
cobri@@
confronto
consequence
costum@@
dawn@@
diplomat@@
disaster@@
dreams
egito,
electronics
enfraque@@
erected
es**
específico
esque@@
extends
feels
ferti@@
foro
fou@@
fuji@@
gaus@@
gladi@@
gloria
grécia,
guerrero
guia
guiné,
history"
i*@@
icono@@
isabella
jogos,
johan@@
jö@@
keyboards
lake.
languedoc-roussill@@
mature
nei@@
ocupada
ois
orias
parâ@@
pe"
pf@@
proof@@
pupil@@
pú@@
rapha@@
rochas
root@@
rt@@
rápi@@
salamander
second,
selecionado
servindo
setembro.
sm
strateg@@
substância
sucedeu
sun,
tance
telescópio
temporarily
tica@@
together@@
tornam
triangle
vitória,
volumes,
wonder
úncia
"g"
(disambigu@@
106
108@@
1944)
2003*
accomplish@@
alfa
astronô@@
ations==@@
atuando
bari@@
bateria,
beautiful@@
beise@@
beleza
blog
born,
cauda
cita
citi@@
classics
compati@@
construções
crianç@@
culto
czer@@
daph@@
derrub@@
descent
ems
enterprise
evangelho
excellent
extraordin@@
fastest
finaliz@@
galac@@
glen
gott@@
gün@@
han.
hipó@@
holm
igreja.
incur@@
independently
inevit@@
introduzida
itando
ith@@
jord@@
juventu@@
kee@@
kingston
litoral
maritime
mccartney
melan@@
microsof@@
month,
média,
nik,
oma
pius
preparation
productive
propostas
protes@@
qui
regiment
repu@@
requer@@
sacro
secas
shock
shrine
south-@@
substance
surren@@
swan@@
süd@@
temple@@
thai
ting.
tokyo@@
tric
turbo@@
título.
wooden
x",
zealand,
zuri@@
zzo,
édia
ó,
ί@@
ш@@
"first
"sch@@
(1975)*
(2006).
(live
(pl@@
(radio
--
0-521-@@
1882
1908,
2º
abel
accessed
accessible
americanas
anteriores,
aposentad@@
athen@@
avenida
berlim.
brac@@
censor@@
charges
composers
condicion@@
connect
danu@@
darwin
din,
eggs
emir
endeav@@
er),
espion@@
ethno@@
evapor@@
exem@@
facto"
fbi
ffs
formula_4
fotografias
fre
futebol.
gasol@@
genealog@@
ille-et-vil@@
incluíam
intensidade
ischen
isms
its,
izing
jant@@
japan's
jean,
journe@@
kosovo
krak@@
light-@@
logia,
love",
ltd.@@
macin@@
mago@@
matur@@
mico,
mio
mudar@@
nominal
operador
ophon@@
oriental.
palmer
parall@@
parques
pesado
podendo
ponte@@
populations
preocupação
prevented
provisional
publisher@@
puzz@@
rainbow
renewed
roger@@
romans
santuário
saraj@@
septem@@
skull
sne@@
sound.
stage.
story.
tendem
tenu@@
threaten@@
thum@@
tios
tipo@@
tour"
trot@@
two,
tyran@@
update
varying
venezi@@
worl@@
wri@@
yem@@
you",
±
áfrica.
́@@
":@@
"dr.
"fre@@
"sing@@
1999*
2002*
2008*
40%
addic@@
advertising
ahar@@
air.
ale"
alised
ange
aprovou
arriving
ashes
atletismo
aureli@@
bald
bani@@
bate@@
behavior@@
bielor@@
bosnia
braun@@
brinque@@
castle*
chancellor
chry@@
cles,
community.
conducting
delayed
deliver@@
e"*
eix@@
elin@@
employment
entro@@
esa.
estivesse
ets,
eyed
fabricante
fugiu
gence
geu
greenwich
groo@@
gér@@
hormon@@
ii:
ilities
instant@@
ireland.
johans@@
kolonia,
kong.
lands,
leipzig,
licen@@
lier
literature.
load@@
lopez
luca
mann.
maple
mccar@@
media,
mening@@
ment"
mercados
mgm
nativa
necessários
network,
norway.
obrigado
ora.
package
pente@@
pentium
physician
plastic
predecessor
profundidade
quebec,
r)
raiz
rea
renascen@@
robbie
rough@@
saddam
sait@@
separado
simone
small,
spelled
spider
sprint
stark
stewart,
stores
symphon@@
tar,
teor@@
ther.
therapy
tili@@
time)*@@
tist@@
toul@@
turridae,
turrids.
túmulo
understood
unity
unknown@@
vietnam.
vil
vols.
whitney
ópter@@
€@@
"er@@
"ge@@
"great
"last
(1986)*
(1991)
(2011@@
0-9@@
1942)
1984@@
21.@@
3.0@@
5)@@
5*"@@
abd
aceae*:::::
ado:
aia
aids
all"
ance"
anthem
aquari@@
arit@@
ases
asia@@
ate"
atenas,
august,
black-@@
cair
capri@@
carin@@
casting
cea
ciclone
cinturão
confu@@
connections
cortes
cota
deles,
diam@@
dian
distinguish
divisi@@
dot@@
dubbed
dências
ede@@
eleanor
electromagnetic
eletrônicos
empur@@
ensaio
envolveu
estone
evel@@
ferrari
fiz@@
galeri@@
goalkeeper
homens.
hypothesis
hä@@
hóquei
incentiv@@
instalação
johnston
kent,
laurence
libertadores
macr@@
manif@@
mercú@@
mesquita
monges
multin@@
mundiais
necessarily
noise
norton
nos.
olivia
organisms
orientais
photographs
poet,
postul@@
proveni@@
rebecca
reminis@@
restri@@
segment
sibl@@
sier@@
sistema.
sucessos
templo@@
tomatoes
tóquio
upcoming
utilizam
vap@@
vatican
what's
wins
xvii
y===@@
zum@@
éci@@
élia
éria.
"tar@@
(2007–@@
(featuring
(german@@
--@@
1500
1860
1868
1970s.
1994*
5,000
aband@@
administrativo
algebraic
assig@@
assinar
atel@@
athens,
bath@@
battle.
bem@@
bey
bizant@@
bones
buri@@
cados
cameo
carne@@
católico
ce".
clarence
collins,
cricetidae.
cuba.
cune@@
desenh@@
dimento
electoral
enas
ento@@
epo@@
estabiliz@@
establish@@
exhibi@@
falou
fases
ficial
formatos
general.
graphy.
hearing
hing
hippo@@
hogan
home"
idade@@
indo-se
kand@@
kazakh@@
lasting
links@@
magnific@@
mathema@@
melbourne
merchant
milhas
missouri.
mohammed
monro@@
multiplayer
mísseis
múltiplas
nations,
nets@@
noção
olímpica
penn
pithe@@
placement
prais@@
proposto
race.
referenci@@
reprinted
rivers,
secul@@
september,
slip@@
sofrer
su-@@
substituída
tens
traditions
vistas
votação
warfare
worn
yn,
"some
(1972)*
(1987)*
(2013)
119@@
1850
1991@@
3_
5:00_
6%).
60%
==production@@
adicionado
adobe
aerospace
agus@@
annually
anti
anúncio
aram.
arena,
arum
ativos,
atravessa
bella
bet
blow@@
britân@@
buffalo
cargos
causada
caxi@@
ceu,
clerg@@
clín@@
coast@@
continuam
cox
creditado
cunning@@
dactylus
deemed
delph@@
deposit@@
destruída
disputou
diário
earthquake
education.
eletrônica
embedded
enburg,
escas@@
escrav@@
fragments
frog@@
gold,
gross
haf@@
he's
identificado
igre@@
inc@@
interesting
interrompi@@
istics
jama@@
jay-@@
kiyo@@
laf@@
lag
lan.
lectures
lo-@@
mido
minutes.
mom@@
monks
montgomer@@
muscle
namental
nativo
nicar@@
noiv@@
nokia
normandy
off.
patrim@@
peripher@@
pesquisadores
português,
presby@@
processador
profit
protagonist
pí@@
receives
references@@
responded
rico,
sando@@
sc@@
seem@@
shah
surprise
syd@@
tall
tesouro
toneladas
transpar@@
tributo
u.s.,
udin@@
ury
volks@@
yokoham@@
zeus
æthel@@
óleo
س@@
"b"
"gr@@
"high
(after
(first
(versão
*"ribes
10)
162@@
1859
1904,
1941)
2003:
2008)*
6"
87.@@
abi@@
actin@@
afc
alemanha@@
alp@@
als@@
antecess@@
anterior@@
artem@@
atacado
ation;
atriz,
aumenta
banqu@@
bi,
bizar@@
bloody
caul@@
cerato@@
cherry
chicago@@
chy
comida
comprome@@
construídas
contested
crenças
crowd
deeply
dele,
distant
divorced
dynasty,
ean
educado
emancip@@
engrav@@
fabricação
feed@@
geschichte
gli
hawk
hebra@@
houten,
igo
iii"
imos
ino*
isle
i̇@@
john.
lang
leak@@
lessons
licensed
lity
makers
matthe@@
mcl@@
mensagens
mickey
montana
nach@@
nay@@
nickname
nidade
nissan
norte-@@
norte-americano,
obo@@
ocidente
onto@@
outro.
passos
pereira
peu@@
polonês
precisão
race@@
raç@@
research@@
revenge
sequences
slu@@
spectro@@
stronger
superfamily
table@@
tains
tamento
uniform
verso
victori@@
viúva
world:
xi,
zel
zelândia,
ólica
"ann@@
"dan@@
#"i
(ver
1936.
1989@@
32.@@
89.@@
access@@
achu@@
ada:
aliado
alter
ami.
api@@
ature,
campaigns
cas.
choic@@
cing@@
civilização
comfor@@
composições
compris@@
cristiano
cuid@@
curve
cír@@
defende
deste,
destination
develope@@
dialect
dinossau@@
distinc@@
divers@@
dix@@
départem@@
enjo@@
esh
fazen@@
fidel@@
fluor@@
fã
han,
heróis
ho-@@
indivídu@@
indivíduo
infection
informou
initiative
inse@@
isso.
jil@@
karnat@@
leningr@@
lis
luther
maker@@
manned
mathematic@@
mico.
micros@@
midade
multidão
musi@@
naples
nationalist
nominations
nut@@
ori,
ouro@@
paradise
phyllo@@
pierce
prono@@
proteína
psychological
recognize
records)*
relax@@
restaurar
rodríguez
rotas
rud@@
sae
samur@@
schwarz@@
sea@@
segre@@
shots
shut
siam@@
sinfônica
south-central
sub
substituto
subúr@@
sulliv@@
sun"
surgery
technologies
thesis
tomato@@
tria
tung
ture"
uprising
used,
virginia.
virtually
vocabul@@
withdraw@@
woman"
y==the
ácidos
ênfase
υ@@
ж@@
(2002–@@
(2005)*"@@
1%).
1946)
1950)
2-0@@
2002)
40,
4x@@
5.000
alegou
alienígen@@
anag@@
andrews
aquisição
ara@@
benefici@@
birm@@
boat@@
brook
cada.
camero@@
carcin@@
ces"
chau@@
chuva
cionalmente
cirurgia
clube,
controls
da's
daisy
defensores
del,
dela.
develop@@
dist
emanuel
ess"
ester.
fic
folcl@@
frá@@
generate
glau@@
gonç@@
governantes
higgin@@
himal@@
hybri@@
illian
inclinação
intro@@
jackson.
kick
kling@@
la",
laser
leton
manuscritos
mars@@
maxwell
metry
necessariamente
nixon
norma
number-one
numerical
p),
p.m.
palat@@
percussion@@
poland@@
positiva
presente)*
promoting
rebels
rings
russa.
saxe-co@@
secured
sentence
separada
show",
simples,
sional
social@@
société
song's
spider-@@
strauss
superman
technology.
terebra
toyo@@
tóquio,
uno
utilizou
vigor@@
yuan
zanzi@@
",@@
"harry
"sweet
"war@@
(1997@@
(2)*
(eu@@
5;
aca,
adotado
aea
africana
ali.
anab@@
anato@@
aper
apr@@
aprovada
arc
armazenamento
assegurar
association.
astrono@@
awa.
away.
azerbaij@@
barney
berry,
brussels
básic@@
bósnia
c:
carrier
copenh@@
copenhag@@
cópias.
da".
dano
dei@@
dimit@@
distrit@@
dą@@
ebert
ecer@@
ed",
eleph@@
esco
etern@@
extend
featu@@
feliz@@
fewer
filipinas
fire.
folk,
formiga
fugir
full-length
game"
hausen
idel@@
informal
javier
jean-baptiste
largura
longas
lorent@@
mexico@@
milo@@
mud
notícia
nym@@
palme@@
phel@@
primária
prisoner
químicas
railroad
rational
resultante
ri.
sammy
satellites
sk.
spid@@
sson,
suggesting
surgimento
synchron@@
track,
und,
upe
uzbe@@
viviam
vlad@@
zuc@@
álvar@@
"death
"ker@@
"some@@
(1984)*
(rio
*"calyptranthes
104
1870
1886
1887
1924,
1979@@
7/km²).
abdul@@
agos@@
alleged
am"
aprender
aprovado
are:
ayed
bearing
bric@@
buy@@
cec@@
centaur@@
centro@@
ceu.
challen@@
chemist
contratou
dades,
deluxe
developer
dij@@
doubs.
ensi@@
etap@@
evo
excit@@
flóri@@
friends,
gana,
gloss@@
gravitational
guiana,
herança
heredit@@
himsel@@
hohen@@
ians
idol
igual@@
illino@@
isi
itz,
jobs
klo@@
legislação
ler's
longitude
maior,
maximilian
mendes
michaels
monetary
money,
morton
municip@@
negra
nevada,
occurring
omar
os).
ovos
pad
pit
play-@@
reconhecer
regar@@
regionais
reprodução
resolve
retreat
role,
seal
shre@@
si"
singles,
sister@@
tanques
tarefas
tecnologias
tenor
todavia,
tune
turb@@
tuscan@@
us"*
usaram
vivo,
vítima
wealth
where,
winston
xia
#"the
(1998).
(2004)*"@@
(at
(is@@
1993*
2001:
28.@@
allen,
aluno
amarel@@
angul@@
apósto@@
arranjo
assembled
ations"
away,
ballad
bounded
brut@@
burned
centuries,
clássicos
commander@@
configuration
cordas
crani@@
cyth@@
daniels
derrotados
desco@@
edic@@
einste@@
emperor.
ence"
esquema
ether@@
exhaus@@
falado
folia"
german,
geór@@
gift
governmental
grande@@
gravidade
greco-@@
grã-@@
har,
hersel@@
herzegovin@@
hull
iana
ige
igni@@
igualdade
ill.
incluídos
irã
ité
júlio
júpit@@
ky,
layers
left@@
lex
lexi@@
localizadas
lowell
líqui@@
maintaining
mapas
matth@@
mauri@@
media.
mensag@@
mp
mudado
myanmar,
módulo
namí@@
nott@@
ocupar
ongoing
oxig@@
passe@@
pensar
philharmonic
philippines
pi,
populated
practices
privileg@@
procurou
public.
publications,
publishers,
ques.
recuperação
renunci@@
retr@@
reynolds
ricos
sau,
ships,
signal@@
situações
spy@@
story"
strong,
switzerland,
tained
talent@@
technic@@
tomado
turco
visões
vysočina,
yed
ânio
âr@@
ро@@
"poly@@
"time
(1980)*
(1999@@
(desde
(john
(not
))
0.0@@
1864
2002:
25.@@
aberde@@
abrang@@
adi
antiv@@
armor@@
array
asha
auxiliar
bachel@@
bant@@
barton
bizantina
bong
brachy@@
burma
burundi,
c"
charente-maritime
chis@@
científico
claudio
coffee
comparative
congel@@
conselheiro
controller
corin@@
crates
ct
daqu@@
days"
dly
dogs
downlo@@
earning
escr@@
estimates
estágios
etel@@
expo@@
faria
fect
flores@@
fã@@
giram
gradi@@
hugh@@
inger,
integration
ity".
julio
kker
legally
lisbon
lized
lund
lung
measu@@
mentor
meta@@
migu@@
mongoli@@
monitor
natal,
nazista
nono
nú@@
o'con@@
ocupa
orgul@@
orquídeas
ous"
paralel@@
pascal
paul,
pei
percussion
periodic@@
plzeň,
poto@@
propel@@
qat@@
quit@@
ranks
recipient
releg@@
riding
rudol@@
sediada
singapore
singular
soberania
speaker
structure.
ticket@@
tissu@@
um)
vio@@
vulc@@
wice,
wireless
württemberg
xide
ziu
zyn,
ógicos
ólic@@
ń
"c.
"family
"hot
("o
(2004),
(os@@
1-0@@
11/@@
143@@
1951)
1988@@
25%
4%).
==life==@@
acknowledged
acol@@
acr@@
administered
adults
air-@@
alain
alegando
alemãs
amazing
ancestr@@
anteri@@
anteriores.
apa
association,
australiano
avelmente,
bachar@@
barcelon@@
batalha.
belle
benedic@@
berry@@
bombay
brai@@
brett
cameroon,
carne
católicos
chell@@
ciudad
cobain
commerce
complexos
considerando
constantly
crater@@
célul@@
defines
dete@@
deuve,
drome
eat@@
ecuador@@
eing
encontram-se
enhanced
ensinamentos
es)@@
ext@@
falecimentos
feast
field@@
fred@@
gerar
giacomo
gias
gosta
grey@@
haj@@
hearts
hospe@@
iidae
iphone
isen@@
ji-@@
lauren
louisiana,
macy
menciona
meria
metrô
mo*
moses
narrativa
nett,
oligo@@
olivier
ough@@
parcial
passam
pavili@@
perio@@
permit@@
proto-@@
psychology
reconstruction
rentes
richardson
rider
right.
rin
scene,
semana.
shine
sonata
state's
strict
stron@@
strongest
studio,
sun.
surgiram
symphonic
teas@@
threw
to",
trium@@
unic@@
urbana
variantes
vasco
vatican@@
ville-@@
vídeo,
wich,
wikipedia
árvor@@
ови@@
大@@
"grand
"pan@@
"—@@
's"
(1973)*
(1983)*
(late
1.2
100.@@
105@@
1954)
2002)*
action.
aeto@@
ague,
amsterdam
appen@@
ardo,
ash,
ass
assinaram
astronomia
atmosf@@
baltic
basilica
boulev@@
bridges
britney
characters,
churchill
connecticut,
considerably
constitucional
distribuído
documented
econômicas
elias
escola,
ese.
excelente
exper@@
faç@@
ferry
feudal
flic@@
fool@@
ges,
graç@@
hamilton,
héra@@
i")
illumin@@
imperador,
indones@@
indonesia.
indonésia.
indoor
indre-et-lo@@
jah
joachim
jogos.
lica
linhagem
lionel
lo"
luciano
marl@@
menor,
mesmo.
mex@@
modernas
monge
montenegro@@
mãe.
naturally
neutral
nobil@@
noruega.
novamente.
nut
objective
occasional
oku@@
ordenado
page*
pedro@@
período.
petrole@@
políci@@
propried@@
que:
quot@@
raising
reducing
reformed
relativa
rue
savage
scotland,
setentri@@
shoul@@
similarly
solve
sons.
soviéticos
stere@@
strictly
suke
ta:
thail@@
theodor
thrown
tole@@
treasu@@
unt@@
veneza
vespertili@@
vienna,
voivodeship@@
website@@
weekend
württem@@
·@@
ási@@
ен@@
ה@@
"'s
"come
"mer@@
(2007)*"@@
(s)
(to@@
0,1
0-39@@
1933.
24.
450
a_@@
afirmam
aided
airline
airport,
ales.
anas.
ano-@@
april,
aqui@@
ateral
atribuída
automobile
bay.
beam
bee
beno@@
berkele@@
borough,
browser
building.
capo@@
charli@@
chef@@
comit@@
confid@@
consorte
conting@@
convec@@
cornell
correspondence
crom@@
demonstração
denot@@
desktop
dialogue
difficulties
dissolved
electr@@
ener
esch@@
estadu@@
estú@@
ferdin@@
ferido
fl.
gerenci@@
grammo@@
guay@@
guz@@
hano@@
hemisfério
holder
hood.
igles@@
infeliz@@
irlandês
itores
its.
ity:
jerome
jp@@
jupit@@
label.
lel@@
lise
market.
material,
maternal
merger
mori@@
near-earth
nepal,
over.
pagan
patient
perseguição
política.
porta-@@
prazo
precisava
principado
protestos
protótipo
pseu@@
regent
reich
renunciou
repeatedly
retirar
revolucionário
runners-@@
sciences.
segredo
series*
shirley
shorter
sino-@@
songs"
suit@@
surface.
sánchez
talks
television.
tia.
time",
tivos,
top-level
vice,
vicero@@
videocli@@
vie
vietnã
wednes@@
width
wore
year:
ymous
édi@@
éu
"international
"m"
"sal@@
(2004–@@
1862
1875
2007-@@
acey
act!
actively
aircraft.
amen@@
ament
ape@@
aram,
are"
arin@@
armada
ation===@@
azul,
beh@@
bh@@
biographical
bj@@
bélgica,
camarões,
chamberla@@
chon@@
cody
cohen@@
com,
conflicts
decisive
desem@@
dezenas
dinamarquês
disrup@@
duplic@@
duty
earthquak@@
eias
eigen@@
end.
enters
entertain@@
entretenimento
escocês
especialistas
eta,
fazenda
fever@@
fier
fox,
fries@@
fundi@@
geometria
glasgo@@
hms
hoped
illegal
infant@@
issa
item@@
jogado
jura.
kang
knockout
kowski
kw@@
lança
lisboa
mai
manufacturer
memories
millions
miranda
mon,
monkey
montenegro
neck
nomeados
obras@@
on:
pais.
palazzo
paro@@
philippines.
pitch
planejado
plaza
pling
poz@@
predominantly
prefecture
proeminentes
profundamente
psicol@@
publishers
putting
regressou
richi@@
rip@@
romance,
ruf@@
scat@@
sf@@
smackdown
snake
sonho
sphere
stin@@
sven@@
tified
tomé
topped
tradition,
treatise
tóqui@@
uca
unt
urg@@
us")*"@@
wanna
ways,
window@@
zimbabwe.
zodi@@
ón.
ч
ل@@
(2000)*"@@
(2001)*"@@
103
1909,
1937.
1998)
2014)
==;
==um
a)#
abram@@
acadê@@
adv@@
ae"*"guignardia
afegan@@
aig@@
aleksandr
alize
altered
altitu@@
anarchist
battali@@
bernhard
brati@@
breathing
breed
bulgaria,
básica
café
calculated
castill@@
catálogo
chanceler
choreo@@
ciclo@@
cinder@@
cliff
colina
colonies
concorr@@
conrad
conspiracy
constituída
dais@@
darm@@
defec@@
dela,
dency
detected
dialo@@
dora
drove
drown@@
eber@@
edition.
erec@@
estamos
estelar@@
events,
exhi@@
feliz
fere
fide
fighter@@
filho.
fishing
fortr@@
futebol,
gill
gou
grif@@
guatemala,
hussein
hōjō
ibra@@
ichen@@
imple@@
inspirada
knows
lab
lake@@
lamar@@
locais.
machos
maggie
mali,
manifesto
marcelo
marty@@
maurit@@
mbo
meia.
metacritic,
midi-pyréné@@
mont,
máxi@@
notação
novgor@@
numerosas
og
ouvi@@
pdf
pel
porto,
potenti@@
preston
quel
queriam
radius
recon@@
relatou
rent@@
romano.
saxof@@
segmento
semana,
semanas.
sey,
simulation
state@@
sting
superfamília
surrendered
target@@
tentam
tions"
transformou
unani@@
universe.
venetian
veneza,
woo
yugoslavia
zoo
ат@@
"entertainment
(1998)*"@@
(2):
(2012)
(but
(to
1883
1898,
1951.
1952.
5%@@
:a
:m01@@
a-de-@@
acid,
aga,
alun@@
america's
amostra
an-born
android
antí@@
apply
ation's
ation),
basquetebol
bayer
bayern
bili@@
billi@@
bride
calci@@
campaign,
candid@@
castan@@
catch
charted
citando
cle,
colônias
considerar
cyclone
def@@
demonstrou
desenvolvidos
desesper@@
deus.
editor,
elder@@
ellis
enormous
ensaios
equador,
esmag@@
espe@@
espiritual
estabilidade
estátu@@
estêvão
excur@@
floyd
flyn@@
g"
gard
gic
gosto
granada
guarni@@
hausen,
heaven@@
hender@@
hierarquia
i"*
increas@@
invention
ix.
legí@@
lily
macpher@@
mariana
milwau@@
minne@@
mitsu@@
moscou.
mvp
nations.
neve
nielsen
non,
obst@@
osos.
ossos
overwhel@@
parents,
pey@@
phras@@
pia.
pla
preceding
premiado
prepare
prob@@
prolifer@@
quis
race,
relating
retirado
reza
riqueza
s==;@@
salvador,
santos,
schus@@
sing.
sor.
stevens
strate@@
submarino
subor@@
symbolic
tenberg
transform@@
tratar
treasure
unincorporated
vati@@
venezuela,
victoria,
vol.@@
wagner
wales,
wall,
wed
woj@@
women.
zano
ânea
ópolis
ótica
"every@@
(1985)
(1987)
(2002),
(album
(nome
(san
1.0
1922.
1938.
1955)
2005–@@
==faix@@
==geografia==@@
acusações
aftermath
alam@@
alha
an),
anal@@
annexed
anom@@
arranj@@
ars@@
aru@@
asco
associadas
astronom@@
aumentando
austro@@
avó
azerbaijan@@
aça
barry@@
belgium,
bundesliga
campbell,
chet
cohen
comba@@
completion
concrete
conservação
corn
crac@@
criti@@
céle@@
dice
diego,
doom@@
dueto
décad@@
encies
espan@@
exiled
existir
explore
fcw
funds
fuzil@@
fábr@@
gole@@
graduating
guiana
habsbur@@
hann@@
heaven"
hér@@
jiang
jos@@
juí@@
kyr@@
leigh@@
library,
longos
macken@@
maid
marie-@@
megal@@
mex
mila
mito
moon"
movie,
mud@@
nine@@
number,
ocasião
odacty@@
ologia,
ownership
pelopon@@
piper
platform@@
poitou-charentes,
polynomial
promp@@
publisher
ra-@@
ridic@@
right-@@
rivi@@
robus@@
rü@@
schw@@
sh.
sinfonia
sized
slower
sodium
stati@@
strait
terap@@
tion)
toca
tors,
tournam@@
transformar
tuní@@
upgraded
ute
village,
visits
warsaw
weeks,
wig
women@@
zal@@
zone,
ônicos
ści@@
"is@@
"m.
...)
1953.
2000:
22.@@
acerca
agin@@
alemã,
angu@@
anism
arrest
arts.
asper@@
attach@@
attitude
ayan
bertrand
bly@@
ca*
castle.
clássi@@
compostas
contempl@@
control.
convo@@
council.
cus"
cyber@@
dents
deposed
depósitos
discor@@
doctrin@@
domínios
el*
elton
enko
episodes@@
equilibrium
estima-se
evans,
ex-jogador
feed
forest@@
fracass@@
fredri@@
fria
friends.
furac@@
gan,
ghost@@
gomphus
gottfried
graphs
greece.
hart,
haru@@
hondur@@
hub
humanos.
icz
illy
incomple@@
inda
insisted
ir"
irlanda.
ison@@
khmer
kings,
linnaeus,
lino@@
luxembour@@
lá.
marvin
massachusetts.
mc
messi@@
metria
midd@@
municipality,
na)
navegador
nineteenth
north.
not,
november,
ocephal@@
osis
oxide
pardubice,
participating
partition
pdf@@
pessoalmente
pler
plut@@
pontific@@
possible.
primeiro,
procedure
pty@@
queen,
re*
reside
robertson
romeo
sailor
ser.
shows,
slavic
speaks
splen@@
stum@@
such,
tati@@
th*
through@@
tosh
traf@@
typ@@
vene@@
venge@@
vestido
vigil@@
vilas
worces@@
writer@@
wwe,
yag@@
yō@@
ésia
órico
":*
"grande
'n'
(†
-en-@@
-in-law
1914.
1995)
1997:
4;
a").
ability.
academy,
ae)
align=@@
amoun@@
armênia
arrives
aside
attorney
autonomia
autoria
birming@@
ble"
brooklyn,
canadense.
canadiens
cantada
carnegie
categories
ce:
center"
characters.
chocolate
choir
cities,
clé@@
co-written
coast.
coma
combates
computational
condessa
congo.
conselhos
creates
crocodil@@
dieta
diplomata
diversidade
dji@@
donated
dover
embarked
escultor
expressa
fid@@
florent@@
franço@@
frey
físicas
gap
garcia
geometry
gerard
ggy
girls"
girls'
goku
grego@@
gu
guadalaj@@
guilher@@
hours.
humanos,
illness
immun@@
javas@@
jo.
joaqu@@
kidnap@@
kie,
kris@@
mollus@@
motorcycle
mover
mulher,
mys@@
müll@@
naming
naugh@@
odys@@
olive@@
olí@@
ontario,
osas.
panama
paradig@@
parentes
party's
per-@@
político,
presidency
preços
puebl@@
rech@@
rna
robbin@@
romana,
s"),
s#
salis@@
schmit@@
separados
similarly,
sitting
sofr@@
spielberg
storyline
surinam@@
tanks
technologi@@
testamento
th)
tira
tomadas
toy
trib@@
troy
underwent
uruguay
vander@@
variables
vermelho,
viking
vizinhos
writing@@
zimmer@@
ásti@@
êncio
"blue
"f"
"mis@@
't
(orchidaceae).
0-4@@
1-8@@
1874
1929.
2007)*
2009)*
8%).
9%).
==biblio@@
==species==@@
____@@
abe
achievements
allegedly
andre
ark@@
axel
bahá'í
baltimore
bates
bin,
boom
boxing
braços
canção.
cazaqu@@
clement
competition.
compreensão
constituem
cromos@@
cutting
delawar@@
desaf@@
distur@@
divór@@
doom
doutor@@
eb
emerging
english.
eve,
filipinas.
fish,
franco@@
gno@@
goals*
governou
gravadas
hiko
hollow@@
hospital.
inn@@
irregular
itude
jersey.
julho.
juntar@@
kig@@
lap
maior@@
mans,
marcada
medicine,
missionary
month@@
moore@@
morfis@@
municipal@@
mussolini
namorada
noite.
numbers.
oki
panor@@
pied@@
ply@@
populous
practic@@
primeir@@
produzidas
punjab@@
purchas@@
raúl
reinmu@@
relí@@
russell@@
russo-@@
seattle,
sending
serviç@@
sive,
st"
stein.
switch
theater,
theo@@
they@@
thium
tific@@
tower@@
uh@@
vega
vely,
veness
vernon
vertex
virgem
wich@@
wikipedi@@
witness
woman,
zagueiro.
áustri@@
ъ@@
"****
"metal
(1999)*"@@
(2005),
(2009)*"@@
(high
10:@@
1876
1938@@
21-@@
59.@@
a.c.,
ad"
aded
aglomer@@
albe@@
alemã.
alto,
apped
archive@@
arun@@
assentamento
atacaram
aud
automatically
automá@@
b).
ba)
bair@@
bicy@@
boom@@
bourbon@@
bó@@
canti@@
capsul@@
carreira.
chemic@@
collect
conifer
cruz,
dab@@
depu@@
dialects
dialeto
dialetos
dimensão
dismissed
domenico
dynasty.
e**
entender
entrega
espera
esperava
eter@@
führ@@
griffin
haute-saône
heat@@
hick@@
hindu@@
hist.
horas.
ia*
infant
influentes
int@@
inter
italianos
jesus.
jou@@
jérsei,
km/h
laços
life",
maior.
me".
mona
mozambique,
mtv@@
nat
nauchnyj.
norse
olimpíadas
overview@@
phili@@
pictures.
portions
predominantemente
preparar
proc@@
prosecu@@
pseudônimo
pulled
pê@@
queri@@
rev.
revers@@
ricky
secreta
sible
smooth
snor@@
spite
steen
straw@@
suporta
supplies
swimming
talento
tamentos
tera
thessal@@
tigre@@
to".
tomas@@
treat
turbo
turcos
villi@@
vilão
viram
vozes
witch
wre@@
ylon
}
íno
"anti@@
"cam@@
"ob@@
"para
(editor@@
(embora
(ex-@@
(original
(vila)
(wwe@@
1924.
3º
7*@@
==uma
acon
ado*
ador-@@
afterwards,
al-mu@@
alar@@
alaska
anger@@
angered
antes@@
anum"
apache
ars,
babylon@@
baden
benoit
bez@@
bien@@
bn@@
busin@@
carlos,
chath@@
chemistry,
ches,
civis@@
concedida
conhecer
corro@@
counter
cus,
demanda
demands
derby
diagnóstico
diame@@
diet
disaster
drafted
efec@@
en)
encontro@@
enemi@@
enzy@@
ença.
epit@@
estru@@
face.
fifty
fos
gallery@@
ganha
garden,
ginástica
goss@@
goul@@
half@@
helmu@@
hill.
hor
ico@@
igh
impossível
ingo
interrog@@
ist"
júpiter
labem,
lanka.
le".
leader,
lepto@@
lope@@
losses
mandou
margarida
markets
medin@@
moni@@
moscow.
n),
noble@@
noc@@
open-@@
organization,
persis@@
phorus
pictures,
posted
prayer
prenti@@
presti@@
psico@@
publicamente
pudessem
quete
rad
refriger@@
reim@@
renascimento
reviews,
rich,
richmond
roosevel@@
runner-up
sailed
sangr@@
sardin@@
scul@@
sdorf,
seed
seguiram
seneg@@
shanghai
simultaneamente
spectac@@
st-@@
sue
switched
tedly
thereby
tist
tors.
tum
turim,
tut@@
universidad
variants
veis,
vivia
wavel@@
wellington
wrestling,
wyom@@
ym
zeppel@@
zul@@
ário@@
ène
د@@
"mas@@
"min@@
"that
'll
(182@@
(1998@@
(ii)
(sh@@
*#
1943)
1999)
254
3*"@@
?".
acreditar
alpine
anjo
aparecendo
apart@@
aquelas
ar*
astic@@
azer@@
back"
baptist
beliz@@
beneath
biel@@
byzantines
chronicles
clausnitzer,
community,
construct
contrast,
cordilheira
corner@@
croáci@@
dell'@@
destinado
dud@@
eletrôni@@
enabled
fortune
fracasso
fring@@
fuji
funcionamento
graça
haute-saône.
hectar@@
histo@@
históric@@
hiv
hou,
houten-groenevel@@
i),
indiana.
intervention
iowa
jazz,
jér@@
kof@@
laurent
lennon
lid@@
liechten@@
lift
limous@@
lloy@@
loven@@
mach
maximili@@
mo"
monica
ne*
nieder@@
noah
orbits
pand@@
partners
perante
pianist
poitou-charentes
português.
posta,
primeiro-minist@@
proporção
publicadas
pv@@
pw@@
ramón
recruited
removal
repór@@
sdorf
sed@@
shoot@@
solely
spike
sustained
tebr@@
territory,
thing,
torial
turquia.
uld
veteran
vulcân@@
watched
writing,
zido
ónio
"bad
"pimelodella
"rock@@
(1983)
(ap@@
*""
1.6
1877
1919.
240
:#@@
==background==@@
==elenco@@
abdul
acanth@@
ach.
acute
admi@@
agua
alism@@
alismo,
amostras
armêni@@
arnol@@
arredores
aya,
ação)
baixos.
bc.
billie
bonapar@@
britain.
brooke
bélg@@
caled@@
carmel@@
ceram@@
ceri@@
chamber@@
chari@@
charles@@
chum@@
cinem@@
claudi@@
concepção
conjec@@
consi@@
council,
credi@@
croatia
dan,
de's
decision@@
delegação
desvi@@
dinam@@
discrete
dizem
dodson,
eclipse
egípci@@
emissão
epil@@
epon@@
esbo@@
esian
estou
eugène
eva,
exor@@
exército.
faziam
feira
flights
fm
fra
francesas
frontal
g/@@
gentle@@
geomé@@
grafo@@
guards
guitar*
havam
horas,
implica
intu@@
involve
kari
kob@@
label,
lee@@
lens
locais,
lone
madonna,
marfim,
martyr@@
meado@@
meg
mestr@@
miller@@
myan@@
nation.
nett@@
nicola@@
nights
oreg@@
otta@@
palace.
palavras,
perdas
pirates
pm
pover@@
powiat
primat@@
professora
qualificação
raven
regim@@
religiosos
remarkable
renomeado
respeit@@
rio.
romania,
sabo@@
saturday
scattered
scheme
scorpi@@
searching
seoul
sid
silva,
subiu
suppli@@
suprema
sö@@
ta",
tabelas
tbol
terço
thirty-@@
tomi
trent@@
truck
urbano
uru
valve
versa@@
vii,
vinyl
win.
wizar@@
yt@@
zelândia.
ífer@@
ónica
ă
천)***@@
"historia
"la@@
"mel@@
"s.
"son@@
(2002)*"@@
(although
(ver@@
,000.
0.1
10.000
1865
1866
1942.
1950@@
8/km²).
800@@
====a
====in
==music
abb@@
action,
aix@@
albuquer@@
alfre@@
amarelo
amba
ams
andal@@
andro
anéis
apartamento
asas
asis
assign@@
auck@@
auf
baden-württem@@
basquete
bax@@
bold
brasileiro,
cans@@
cappel@@
causado
chapters
choi
circunstâncias
coberta
cogum@@
colunas
companhi@@
comér@@
concluída
confirm@@
consensus
consequências
consort
crambidae.
critics.
dam.
daquela
deals
delaware
delle
deployed
dicionário
dick@@
diploma
dirty
diving
divor@@
dop@@
emperor's
engenheiros
engineer,
escreve@@
espanhóis
estonian
estrelas,
ete
experimento
extending
extras@@
faith@@
familiares
federico
freedo@@
félix
geny
goalkee@@
greeks
griffi@@
hel
heral@@
hid
hú@@
insan@@
interior,
jesuí@@
jimi
joaquim
jubil@@
kansas.
kü@@
lighting
logic,
ma".
machado
mayer
messier
mie
mighty
millennium
moste@@
muslims
nascimentos
navais
net,
obvi@@
okin@@
ones.
osaur@@
pacto
pagamento
parci@@
parecer
parliament,
past,
pequim
peñ@@
philosophy,
possível.
primor@@
quebrou
reference.
regardless
released,
rely
retir@@
rodney
sanctu@@
seguro
sheet
simboliz@@
stroke
superior,
suspec@@
taiwan,
tação
tess@@
thomp@@
transmit@@
uganda
warrior
wars,
wola
youtu@@
zio
ídio
"como
"top
(31
/06,
1",
2000)*
7;
8-bit
<br>
====*@@
==discography=====@@
==history@@
absorbed
aca.
acampamento
accurate
adas@@
angry
approaches
artes@@
atti
ature.
bart@@
beira
berger@@
bombar@@
brend@@
caser@@
chak@@
chang
cian
classificada
colun@@
comunistas
connecting
considering
cope
crew@@
czar
dead"
defining
destruído
die"
dinamarques@@
dress
eiro.
ejec@@
elsa
entretanto
equality
estrelando
ev.
extant
fachada
ffer@@
filo
financeiro
function.
gerou
gramática
gregorian
gren
historia
hp
hungria,
hurric@@
iec
intac@@
issue.
jungle
kass@@
katherine
lament@@
liver
livros,
meninas
n't
necessit@@
nigel
oide@@
onia.
ono
oo
oo@@
outro,
palma
paw@@
percentage
physically
plica
praise
privilé@@
psy@@
pursuit
r&b/@@
reach@@
recomen@@
records*
representações
rhô@@
sankt
sedu@@
slaugh@@
sobreviveu
sound,
stack@@
stein-@@
suportar
taji@@
thailand,
ton)
transmitida
tras
u-o
ular.
ule@@
uruguayan
vey
volcano
wald@@
youn@@
zâmbi@@
µ@@
íveis,
χ@@
"betta
"p"
(2006)*"@@
(tv)*
----@@
.com,
1)*"scopula
107
133
1846
1907,
1991:
1996)
2004)*
2013:
23,@@
a)@@
ajud@@
alcançado
ality,
angr@@
arose
artwork
avan@@
aviação
baixo*
bangladesh,
belief@@
blade
brancos
breath@@
calli@@
centre.
chancell@@
check@@
christoph
cinquenta
classificados
coadjuvante
con,
concebido
concluído
consol@@
corinthi@@
correntes
cric@@
dae**@@
dc.
decree
departments
difíceis
doubles
duch@@
ecker@@
election.
energy,
esforç@@
específic@@
expression@@
favorable
fell@@
fiscal
fischer
formula_5
funding
física,
german-@@
greene
guad@@
guardian
heil@@
iche@@
ily@@
improvement
impulsion@@
internet,
ites,
jill
k-1
karlsru@@
keat@@
kist@@
known,
kommun")
legion
lester
matiz@@
mayor@@
mechanic@@
mentes
minister,
mob@@
monumentos
moradores
mortal@@
mythology,
namibi@@
oda
ony.
or)
ornament@@
owo,
perpe@@
persuaded
phenomenon
pine@@
plane.
player@@
poder.
pornographic
pots@@
preco@@
provocou
príncipes
pérez
reading==*
rect@@
reggae
registrado
respectivamente,
richards,
roteir@@
rov@@
sack@@
samantha
santo@@
schen
shine@@
sora
spiritu@@
square,
stadt,
suffer@@
supporter
sympa@@
systematic
tibetan
tirar
traded
triângulo
twin@@
unific@@
unofficial
unsuccessful
ux
valle
viewers
vulcão
wise,
wrestl@@
yū@@
ça-@@
в
"bl@@
"dead
"gu@@
"ph@@
"with
(2000),
(família
1,0@@
1.1
114
1872
1879
200.
26.@@
40-@@
86.@@
ae",
afghanistan
amas@@
ambique
aming
aris@@
aristó@@
armenia
ath,
ativas,
attack,
bald@@
beliefs
bent
botanist
brasileiro@@
bres
cantor,
capítulos
caribbe@@
cds
ce*
chambers
charity
cies
ck"
clor@@
coas@@
condemned
constantinop@@
controlo
cpu
d'am@@
dezesseis
dial@@
dock
donkey
efetu@@
ein
elaborate
emon@@
encountered
encryp@@
estabeleceram
estimado
eston
estri@@
estável
florença,
gale@@
george,
germanic
golds@@
honduras
hosa
idi
inas,
infecção
inherit@@
israelen@@
iti
itun@@
jamaica
jamais
japan_-_
je,
júnior
klaus
lal@@
leopol@@
leopoldo
macau
malta
management@@
manages
manuscrip@@
marath@@
maro@@
mars,
middle-@@
mohammad
newspapers
noticed
obscu@@
oras
paired
palestinian
param
patent
pavilh@@
pelled
peninsula.
php@@
piano@@
play"
portugueses
processadores
prot@@
quist@@
quénia,
raid
refuge@@
relevant
remember
renaissan@@
residentes
rit
ruth@@
ráp@@
saving
secretly
shear@@
simé@@
slaves
social.
sources,
stair@@
stevie
subspecies
sugerido
sustain@@
svi@@
sín@@
taira
tar.
tarde.
temperate
termed
tet@@
tioning
total.
transferida
truly
turkey,
ve-se
vinho
vô@@
wesley
willem
wn,
xy
ácio,
área,
âmbito
ר@@
"'@@
"eri@@
"kar@@
"out
"pseu@@
"royal
"tri@@
(1969)*
(since
*****
/03,
135
1934@@
1992@@
1999:
2o@@
50,
==works@@
a)*"@@
amus
anast@@
architecture,
assaul@@
atrice
bhu@@
bombing
brief@@
buchan@@
búlgaro
caesar
campo,
celebrate
chase,
cheng@@
civic
cold@@
comentário
corresponds
cousin,
da),
designation:
dimensões
do",
double-@@
economy.
emit@@
enlighten@@
ensinou
epí@@
estado-unid@@
fasci@@
fold
followers
foreign@@
gdp
giants
gotten
grafia==@@
heath
hebre@@
hedge@@
horr@@
hoso@@
hov@@
hua
humanidade
humil@@
id"
ide,
imo
ingressou
international,
internationally
jacqueline
judith
katie
ken"
ken.
killed.
knowles
kras@@
leic@@
listing==@@
literacia
lucky
memphis
mesmo,
milag@@
milan,
méxi@@
nard
ninten@@
nord
observar
olím@@
oria.
orial
orne
palomar
paradox@@
percepção
perspective
pirâmi@@
planeta.
prémios
pteronia
puc@@
químicos
rebuilt
religion.
research.
restring@@
reunited
ried
senegal,
shoe@@
squadron
swal@@
sèv@@
t")
teatro,
ted:
tek@@
tero
thick@@
toni@@
turkey.
ubis@@
ums
usur@@
verem
vên@@
wey@@
world".
wrote,
yc@@
yonne
zappa
°c.
år@@
ège
"dark
"dendrochilum
"fal@@
"satur@@
(1997).
(2001@@
(2009–@@
(both
)==external
.net
/km²).
1.3
1.4
1986@@
2/km²).
2000).
29.@@
30%
abaste@@
abbe@@
abbot
acadêmicos
alterado
ampton
anson
apó@@
artists,
assemel@@
athletics
atop@@
atrair
baden-württemberg.
bb
bois@@
braç@@
bret@@
bros
campbell@@
certainly
comer
competition,
conjunction
connecticut
contemporâneos
cry
cré@@
crédit@@
curtas
cyto@@
daughter@@
definidos
descar@@
dhar@@
dispens@@
diverg@@
duration
dólares.
earn
edge@@
empr@@
escritor,
espar@@
essencial
estatística
estre.
estré@@
et-gar@@
etano
etto
eves
expert
festivais
financeira
folklor@@
fíci@@
gameplay
graduação
gro
groß@@
haakon
hak@@
hao
harri@@
havaí@@
heather
hi-@@
hungary,
ibi@@
impos@@
indianapolis
interactions
interviews
iras.
iu-se
j-@@
khu@@
krzy@@
long.
lor
lov
lung@@
lyon,
metacritic
morte@@
moçambique,
natural.
nesses
nossos
obsole@@
occupy
oft
olhar
pertencia
phd
phus
pis"*"@@
preservation
princes
quantit@@
quebec
quebrar
recen@@
reduzida
reduzido
relatado
resumed
rou-se
rússi@@
samoa
sarg@@
scandinav@@
singer-@@
smith.
stem
stra
tament@@
tamente,
tenção
teodoro
that.
tin,
tissue
tolkien
translations
trigger@@
ulrich
venue
vidade
vić@@
wasn't
were@@
wich
wife.
yasu@@
zero.
ática,
é*
íam
ş
φ@@
"enterprise"
"tor@@
"wild
(1976)*
(1999–@@
(2000–@@
(2003@@
(where
(y@@
0%).
108
123@@
1870,
1901,
1911.
1940)
256
27.@@
alpin@@
amu@@
ania"*"@@
annex@@
annu@@
antu@@
anxi@@
apartment
archipelago
argue
argumenta
ason
assistir
atraiu
balti@@
believing
bever@@
blum@@
bonaparte
brandon
brug@@
bulgária,
cavali@@
caven@@
clandest@@
conc@@
condens@@
controvér@@
crazy
cruise
customs
cy"
dakota,
dead.
debor@@
deria
descendência
drag
driver@@
embarc@@
encounter
ença
esperando
expanding
fazê-@@
forçou
freeman
fried
fungi
fême@@
geme@@
goleiro
gracil@@
gre
h.,
hours,
ids,
imas
imperial,
imprison@@
internacionais.
investigar
ity)
ixo
jad@@
jogo@@
jör@@
kamak@@
kowice,
lech@@
lecion@@
levada
life".
liga.
living@@
lover
magazine"
mariano
marino
meat
mech@@
metam@@
mish
morávia
mour
necessárias
necro@@
neglec@@
neighbouring
ner*
nucleus
obi@@
ocasiões
oferecido
oked
ot.
outubro.
papel.
paradis@@
pavlov@@
plex@@
politician.
pontu@@
poses
possess@@
prestigious
regin@@
review,
rical
robert@@
rol
secreto
side"
skep@@
solv@@
sonia
spiel@@
spin-off
stability
strad@@
sté@@
tec
technological
tesou@@
thing.
thor
tices
transform
two.
urin@@
vist@@
website.
zero,
"ba@@
"by
"mad@@
"ty@@
"un
(1999),
(2,@@
(2006),
1.8
104@@
1858
1873
1940@@
2)@@
23.
7*"@@
===após
a'@@
arrive
ase,
assis@@
audio@@
auge
azy
aéreas
bolivi@@
bourg
bulletin
ca)
calde@@
caracterizado
carlota
católi@@
cerro
chronicle
cober@@
compositor,
conseguido
consideravelmente
deri@@
dias@@
die,
distúr@@
embassy
enlarg@@
ennial
ent's
entrepren@@
epic@@
estabeleci@@
estatís@@
ety
exame
explan@@
extraordinary
fernández
flau@@
forte,
freedom@@
hanna@@
hawks
heiro.
hereditary
honolul@@
independente,
infiltr@@
inverno.
janela
jenny
jerem@@
kampal@@
katr@@
lambert
landês,
lea
lisbo@@
loth@@
louis-@@
luz@@
maharash@@
manifes@@
marathon
martínez
matsudaira
missão,
mora
niz@@
nolan
nost@@
nou
now"
oficial*
oficial,
osas,
panzer
pedir
pem@@
petró@@
pib
polônia,
portable
preserve
primeiro@@
promin@@
range,
realizes
recently,
riga
rossin@@
se:
sociedades
somali@@
specimens
street"
sugar@@
suppl@@
swi@@
sólido
tbil@@
theodo@@
thunder
trau@@
uta
vam@@
venice,
vitóri@@
ward@@
xml
y-sur-@@
yri@@
zo,
álgebra
árabe,
êu@@
θ@@
ό@@
"r"
(1971)*
(1993).
(1997)*"@@
(2007),
(instrument@@
(originally
13–@@
2012)*@@
aan
aerial
affir@@
afirmação
ais"
alie
alta@@
amphi@@
anfitri@@
antioqui@@
ariel
arina
asen
ately,
atent@@
ativos.
atle@@
basicamente
benin
bio,
biographi@@
birmingham
blackburn
blocks
boro
bot
bour
boys,
buffal@@
byzant@@
bós@@
cannon
capcom
cene@@
centen@@
cerebr@@
check
cinematográfica
coberto
coloração
combining
comet@@
conidae,
conquer@@
constitui
consumer
copy@@
cure
defender.
demolis@@
descrevendo
diagnostic@@
disposi@@
easter
editing
education==@@
elef@@
elong@@
elsewhere
elétrico
empregado
endereço
ene,
envolvida
equally
estiveram
expelled
fa:
fc@@
filmagem
flies
flin@@
formula_6
forçados
gaming
gerenciamento
graz@@
góme@@
handle
hector
hem
henry,
here,
hitler's
holanda
honduras,
hopes
hynch@@
immortal@@
incluem@@
independence,
inspirou
instalado
invadiu
jenna
joins
kali@@
klein@@
kristen
lagar@@
lia.
lo*
maggi@@
marne.
masculino@@
md@@
metric@@
missed
mostraram
nature,
necessidades
netherland@@
nièv@@
obedi@@
omo
opens
org/@@
owners
pacotes
patrio@@
people"
playoffs
pok@@
pol
população.
possessed
preparing
present,
presidente.
privado
protector@@
psychiatr@@
recover@@
recovery
regresso
ring,
roh
rs
serr@@
sets.
shows.
sick
silence
sinclair
sit
sousa
strel@@
strö@@
substanci@@
suspici@@
syste@@
t.,
taine
takah@@
temporariamente
tik@@
tis"
totally
tude
tudo,
tâne@@
tü@@
underlying
veracru@@
verb
vici@@
winch@@
x-ray
xie
ônica.
ел@@
"sam@@
"san
(1966)*
(1974)*
(2008–@@
(ban@@
(often
14–@@
1998:
2011-@@
21,@@
3/km²).
8-0@@
a.k.a.
abrange
acquisition
acrescentou
advances
alec
alegre
allmusic
anfí@@
animado
arranjos
asi
ativista
b),
basket@@
benjam@@
board.
bombas
bright@@
burger
carries
casamento.
catalis@@
ce)
chad@@
cles.
co".
coloniz@@
compreende
considers
coss@@
costs
costumes
cuidados
cyn@@
dependência
derives
desperate
determinis@@
developmental
dissolution
dissolução
drun@@
décima
e===@@
echo@@
eligi@@
espetá@@
espiral
europeia,
existia
fantasma
folha
fugi@@
fício
gains
garrison
gathering
gravaram
h/km².
habitat@@
harbor
het@@
histoire
hoy@@
hágsater
ih@@
implies
inland
inste@@
inti@@
ires
isto,
jump@@
kobay@@
liverpool,
long-term
ly-@@
malaysia,
manteve-se
mei
mento@@
mills
minimal
mississippi.
modos
nic
nico,
notation
novembro.
nuvens
omit@@
originalmente,
orph@@
oslo
participants
patente
patrimônio
pay-per-@@
pes,
planejamento
present.
procurando
projeto.
proximidades
quê@@
raven@@
re's
recit@@
recusa
retornando
rifle
russa,
s:*@@
s==
schools,
screenwriter
se".
separati@@
sergi@@
smackdown@@
snu@@
starr
structure,
structure@@
sudan,
suspected
teamed
tenente-@@
tiff@@
transported
under-@@
unida
urier
violent@@
wei
worthy
xviii,
yonne.
zzi
çada
ō-@@
н
ル@@
"can't
"fun@@
"imp@@
"under
(1996)*"@@
(drum@@
12–@@
1903,
2010)*
20–@@
3-0@@
365
85.@@
==background@@
==cast==*@@
==elenco==*
==foi
abolished
aceae"*:::
agir
albums.
algar@@
anos-@@
análises
argumentou
armag@@
attitu@@
autum@@
auxílio
badajo@@
baillie,
ball.
baltimore,
benito
borbo@@
bret
brew@@
buda
burke
cadas
calif@@
canon
caver@@
certamente
chag@@
chie
classificadas
colleagu@@
colocação
complicated
computable
confidence
continent
convidou
courts
crateras
dea
decem@@
decidir
derivada
desenhada
digitais
dinamarca.
drivers
dub
dér@@
ecem
eleventh
encomen@@
engine.
english:
entemente,
estando
facção
fau@@
favorito
forty
garde
grun@@
heinz
hersch@@
hiz@@
hong@@
hood,
hyde
ille,
info@@
inteligen@@
interessado
introducing
jogabilidade
joven@@
la*
layout
levam
lico
livre,
longi@@
mohamed
molin@@
mosque
mov
mulheres.
munich,
mus"
mál@@
nasce
not.
omé@@
onlin@@
orn@@
ose@@
phoni@@
planície
points.
previamente
prior@@
profile*@@
promovi@@
psicologia
publicidade
puppe@@
pântan@@
pôde
rage
rays
re-released
record,
remember@@
remoção
respectively,
rhetor@@
richards
ross,
saí@@
sincron@@
sources==*
spur@@
statements
sudan
ta-fe@@
tan.
tao@@
teenag@@
tito
turks
ula"
verific@@
vocais,
vocal*
wikip@@
wissen@@
witch@@
wonderful
wyoming,
²
ávi@@
"bon@@
"ham@@
"is
"john
"oenopota
"tiger
"ul@@
(1991)*"@@
(2003)*"@@
(consulado)**
(do@@
(ec@@
(part
(provisional
(punches@@
(segundo
1857
1896,
18–@@
190
1936)
36-@@
9780@@
a.j.
advance,
aflu@@
agost@@
aja@@
altura.
analysis,
ands
assic
barcelona.
bateu
beaum@@
beer
benefícios
bolshevi@@
boole@@
bourbon
carde@@
cession
chances
chiap@@
chun@@
chão
circuitos
clip@@
coco
coleophori@@
column@@
combustí@@
concedeu
contributing
corpo.
costa,
creed
december,
decisions
deni@@
descobriram
destroying
dged
disappear@@
discuss
disgu@@
do-lhe
doce
dudley
eger
embri@@
enciclopé@@
engine,
episodes.
erd@@
esfer@@
famosas
fascis@@
flat@@
foss@@
foto
fris@@
guillermo
guinness
herman@@
hide
hollywood@@
homes
homic@@
hubble
hubert
hym@@
independence.
infante
infrastructure
ing's
ing*@@
islam
jakob
junction
lane,
legislativo
lem
lenin@@
loir-et-@@
lp@@
luck@@
luxembourg
man:
manager.
mania
matemáticos
million,
missouri@@
mitsub@@
motors
moy@@
mudan@@
mulheres,
nd@@
numbered
olith@@
own.
paint
pedro,
playoff
prat@@
prestigi@@
procedimento
pseudo-@@
pux@@
ranges
ree@@
regions.
registrada
reit@@
renom@@
reput@@
requirements
reservas
saud@@
scotland.
sely
services,
seções
shakespe@@
shakespeare@@
shifted
sigis@@
signi@@
spectral
squad@@
steam@@
substr@@
sweet@@
ur"
velvet
verbandsgemeinde
watanab@@
worship
wrestling",
zach@@
ми@@
—and
"she
"three
(174@@
(1986)
(2001),
(pr@@
-le-@@
1851
1864,
1921.
1997)
3ª
==demografia@@
==descrip@@
abbas@@
able"
acclaimed
accomplished
adolfo
airport.
anes
aspec@@
atinge
aturas
aunt
b/@@
baf@@
brack@@
brasileira.
breaks
bristol
brooklyn
califórni@@
carroll
cilia
co",
colaborou
coloca
combater
competitions
considerava
constantinople,
contagem
continuation
convicted
corporation.
côte
dancer
demon
descobertos
detetive
dinamar@@
dinamarqu@@
disne@@
dozen
edo@@
engel@@
esperar
esquerdo
extensa
fabricado
faithful
favorável
fim@@
finl@@
forest,
frederi@@
freguesi@@
ganho
gard@@
geometric
gour@@
gyp@@
heir@@
holz@@
hunting@@
ille@@
illing
incre@@
indy
ion"
ird
jiang@@
jtwc
kari@@
ke)
kennedy,
liga,
loaded
local@@
lodge
love.
madagascar.
mae
mangel@@
mantel@@
melodia
mesopotam@@
mier@@
module
navi@@
nunci@@
ony,
organismo
orie
ouri@@
panel
paraná.
pará@@
pastor@@
porcel@@
prof@@
proib@@
projecto
quiló@@
quoted
re)
remixes
rendeu
reservo@@
respectiv@@
resson@@
row"
roz@@
sant
scene.
schwarzeneg@@
seine-et-marne
serena
signals
sio,
size,
species@@
szy@@
t)*
tchaikov@@
teau
tenn@@
titles,
tivos.
tona
town"
trademar@@
traver@@
vaga
veis.
veterano
voltage
williams.
wisconsin.
worlds
zlín,
ção:
ël
"ele
"reich@@
(ii@@
1989*
2011)*
21.
4/km²).
6-0@@
abdullah
ability,
accompanying
ace"
ado".
aggres@@
airing
albani@@
alterar
andes@@
announcement
argumentos
aro,
aston
automat@@
board,
cantores
castel
ceas@@
certeza
channels
clima@@
clipe
clothing
combo@@
compound@@
connectic@@
cribed
crédito
ctu@@
delivery
densi@@
designada
dific@@
dorsal
dp@@
dream"
dt,
e.,
ecology,
enfatiz@@
entomolog@@
entradas
escritórios
ette@@
excell@@
extrater@@
falcon@@
fax
fet@@
ficos.
fitted
flair
fossils
gap@@
gd@@
ghana,
girl,
gmb@@
golden@@
gomez
hansen
helm
inclusão
infected
infrared
inhos
initially,
insects
institution@@
interes@@
interior.
j.j.@@
joc@@
kh.
kilometres
kingdoms
lafay@@
lançamento.
lightning
line-up
managing
mans@@
marched
mccor@@
medit@@
metre
michael,
minerais
mm.
mock@@
montane
música:
nobre@@
odd
omo@@
oul
ours
oxigênio
pa"
parts,
party"
pertencem
portra@@
portraits
powell,
prague
procedu@@
profunda
responsab@@
robot
roda
roof
russell,
schmidt,
script,
sculptor
seriously
shū@@
siegfried
singers
subterrâne@@
sudden
sueco.
tailândia.
telephone
text-@@
thank
thier@@
toby
tomando
trail
trek"
vanessa
varied
versos
white.
won't
woolly
zeno
árbitro
å
ível@@
—a
천)**@@
"kam@@
(da
(li@@
170
1831
1906,
1950s,
24-@@
3".
:==
=====references====external
a=====@@
adora.
aem@@
aeronau@@
agora,
ais)
align="@@
allen@@
amentos.
anatoli@@
anes@@
ante-@@
arabian
artist.
asso@@
assuming
atorial
august.
aves,
baum@@
bilheteria
borda
boston@@
boy,
caracter@@
carson
ciclista
civil,
clave
coer@@
coined
coli
columns
commonweal@@
conditions.
conscious
crush@@
curtis@@
dation
decrease
dense
descritos
desenvolveram
dest
divul@@
edwards,
encerramento
enferme@@
ensai@@
entrevist@@
então.
espir@@
estrangeiro
evento.
exclus@@
fundamentais
galá@@
gher@@
glam@@
haun@@
hert@@
hierarchy
hilbert
hoping
hr,
hungari@@
jud@@
kepl@@
ker's
l.a.
leuc@@
lever@@
list.
lucer@@
man".
manage
marriage.
masses
milhões.
music:
nero
nervoso
nese
nj@@
notur@@
nov.
number.
opportuni@@
oscil@@
ouvido
parliament.
passado,
phryno@@
phyto@@
plio@@
português:
positivas
powers.
primera
productions,
promise
págin@@
quadrang@@
realm
regr@@
relatives
routes
schleswig-hol@@
segura
sentença
share@@
sherman
ships.
sip
snoop
soap
spock
sts
stylis
sudão
tella
thea
theft
ticed
ties@@
tius
today@@
trapped
turquia,
uco@@
us's
ut,
vende@@
verão,
vowel@@
wick,
wiec@@
wish@@
yoshit@@
zaro
ânico,
ão).
ол@@
リ@@
"billboard
"gen@@
(1967)*
(1970)*
(1995)*"@@
(6.@@
(ex@@
(nor@@
-so@@
.html@@
1845
25–@@
29.
750
abbrevi@@
afeganistão
aguilera
alcohol
alemão:
alle
ally@@
alvar@@
amend@@
america"
andi
ani"
artur
at)
atra
attr@@
authen@@
bar.
besieg@@
bibliography@@
bolon@@
box,
brilh@@
buchar@@
buckethe@@
cade
case.
castelnuovo
cear@@
christen@@
cla@@
coleoph@@
colored
conia
constantinopla,
constituted
corpo@@
counted
ctor
cygn@@
cáu@@
dall,
demasi@@
det
dial
dollar
elliot@@
empresa,
encounters
específicos
esportivo
estimativa
euther@@
funded
fusel@@
fy@@
físi@@
gal
gate.
gb@@
gian
gradual
guests
hanô@@
hazar@@
herzegovina
historio@@
hra
imaging
inglaterra@@
inn
instrução
interpretando
irmãos,
is),
james.
jardin@@
juntos,
kham@@
lace
lines,
livingston
locally
maintains
marble
marcar
marking
membrana
messages
modalidade
montal@@
mán
n")
neumann
newcastle
nowa
oclc
oferecer
oney
osh@@
oter@@
paraíba
participa
peu
pie
pithecus
podes
polariz@@
potentially
[...]
